#version: 0.2
à ª
à «
Ġ àª
àª ¾
à« ĩ
àª °
à« į
àª ¨
à« Ģ
àª Ĥ
àª ®
àª ¤
àª µ
à« ĭ
àª ¯
àª ķ
àª ¿
à« ģ
àª ²
àª¾ àªĤ
Ġàª ª
Ġàª ¸
Ġàª ķ
àª ¸
Ġàª Ĩ
Ġàª ¤
Ġàª ®
Ġàª ľ
Ġàª Ľ
àª Ĺ
Ġàª ħ
àª Ł
àª ľ
àª ª
àª £
Ġàª µ
àª ¥
àª ¦
à«ĩ .
àª ¡
àª ¶
à«ģ àªĤ
Ġàª ¹
àª ¹
Ġàªħ àª¨
Ġàª Ĺ
àª §
Ġàª °
Ġàª ¦
Ġàª ¨
Ġàª ¬
ĠàªĨ àªµ
à« Ĥ
àª ³
àª ļ
Ġàª ı
Ġàª Ń
Ġàªķ àª°
Ġàª ¶
àª ĸ
àª ¬
àª ·
Ġàª ²
Ġàª ĸ
Ġàª¹ àª¤
àª ĵ
àª° àª¤
àª Ń
Ġàª ¥
àª® àª¨
Ġàª ī
Ġàªı àªķ
à«Ģ ,
àªľ àª°
àª ĩ
Ġàªª àª°
Ġ à«
àª «
Ġàª ļ
Ġàª ¡
àª Ī
àª ı
Ġàªķàª° àªµ
àª° àª®
àª¾ ,
àª¯ àª¤
àª° àª¨
Ġàª «
àª¯ àª¨
àª® àª®
àª¶ àª¨
àª° àª£
Ġàªª àª¶
à«ĩ ,
Ġàª §
Ġàª¸ àª®
àªĹ àª®
Ġàª Ł
Ċ Ċ
à« Ī
à«Ģ .
Ġàªª àª£
Ġàª ĺ
àªµ àª¸
Ġàª ¯
Ġàª¥ àª¯
àª² àª¨
§ à«
àª° àªķ
àªķ àª¨
Ġàª ĵ
àª Ľ
à« ĥ
â Ģ
àª ĺ
àª Ŀ
àª§ àª¨
àª¥ àª®
àª¤ àª®
Ġàªī àªª
àª ł
àª¤ àª°
à«ĭ .
Ġàªµ àª°
à« Į
Ġà« §à«
àª Ĩ
Ġ 1
àª ī
àª¾ .
àªµ àª°
àª¿ àªĤ
Ġàª¬ àª¨
Ġàª¤ àª°
àª¨ àª¨
àªŁ àª²
Ġàª® àª¹
àª£ àªµ
àªµ àª²
Ġàª¶ àªķ
àª¯ àªµàª¸
à«ģàªĤ .
àª°àª¤ àª®
à« ¦
Ġàª° àª¹
Ġàªı àªµ
Ġàª ĩ
àªĹ àª°
Ġàªµ àª§
ĠàªĨ àªª
àªµ àª¨
àªĵ àª¨
àª° àªµ
à ¤
àª¸ àª¨
àªĺ àª°
Ġ t
0 0
àª¤àª® àªľ
àªĹ àª£àªµ
àª¯ àª®
àªķ àªŃ
àªµ àª¤
àª¯àª¤ àªĺàª°
àªµàª² àª¤
Ġàª¸ àªµàª²àª¤
Ġàª§ àª°
Ġàªī àª¤
àªķ àª°
àª® àª£
àªµ àªµ
Ġ 2
à«Ģ àªĤ
àªľ àª¨
Ġ a
àªª àª°
h e
àª¯ àªķ
àªŁ àª°
àª¤ àª¨
àª¦ àª°
i n
àª° àª¸
àªŁ àª¨
àªĹ àª¨
Ġàª¦ àª°
àªª àª¨
Ġàª® àª³
Ġàª¸ àª°
à«ĭ ,
Ġàªķ àªª
à«ĭ àªĤ
Ġ "
ĊĊ ĊĊ
Ġàªµ àª¸
¯ à«
Ġàªħ àª®
Ġ âĢ
àª¦ àª¨
àªľ àªķ
àª¾àªĤ ,
àª ¢
Ġàªķàª° àª¤
Ġàªª àª¹
àª³ àªµ
àª ħ
r e
Ġàª Ī
Ġ1 9
à«ģ ,
Ġàªīàªª àª¯
àª¸ àª°
àª· àª£
àª¥ àªµ
Ġàªĺ àª£
Ġt he
àª¬ àª°
Ġàª¶ àª°
Ġàªĺ àªī
àªĤ ,
Ġàªħ àª¥àªµ
Ġàª® àª§
àªĩ àª¨
àª° àª¦
Ġ o
e r
Ġàªķ àª¹
Ġàªīàªª àª°
àª¸ àª®
àª¡ àª¨
Ġàªª àª¡
Ġàªª àªĽ
à«ĩ àªĤ
àªĹ àª²
Ġàªı àª¨
Ġàª¨ àª¥
àªķ àª²
Ġàª¶ àª¹
Ġàª Ŀ
Ġà«§à« ¯à«
n d
àªļ àª¨
Ġàªħ àª¹
Ġà« ¨
Ġàª¸àª® àª¯
Ġ2 00
Ġàªħ àª°
Ġàªħ àªŃ
àª« àª³
ĠàªĨ àª°
àª® àª¤
o n
Ġàª¨ àªµ
Ġ s
Ġàª Ĭ
Ġàª¦ àªķ
Ġàª° àªľàªķ
Ġàª¤ àª¥
àªĹ àª¤
a t
àª¡ àªµ
i s
àª° àª¹
àª° àª¥àª®
àª¯ àª°
ĠàªĹ àª¯
àª ŀ
Ġàª¬ àª¹
Ġàªħ àª²
àª³ àª¨
àª® àªľ
àª³ àªĸ
ĠàªĨ àª§
ĠàªĨ àª¦
àª¨ àª®
Ġàª¦ àª°àª®
a n
Ġàªī àª¦
e n
àª² àª®
àªĪ àª¨
àª® àªķ
Ġàªĩ àª¨
àªķ àª¸
e s
àª£ àª¨
àªĹ àªµ
àªĵ àª®
âĢ Ļ
àª°àª¤ àª¨
Ġ c
Ġàª¤ àª®
a l
Ġàª® àªĹ
e d
à«¦ à«¦
Ġàªª àª¦
Ġo f
à« ī
Ġàª¸ àª¹
àªĸ àª¤
a r
Ġàªħ àª¸
àª¨ àªµ
i t
Ġàª¨ àª¹
ĠàªĨàªª àªµ
Ġàªľ àª°
Ġàªľ àª¨
à«ģàªĤ ,
Ġàª¥ àªĪ
à ¥
ĠâĢ ĺ
Ġ w
Ġàªĵ àª«
àªľ àª¬
Ġàªĵ àª³àªĸ
Ġ f
Ġàª¥ àª¤
ĠàªĹ àª£
à« ¨
àªª àª¤
à« «
àª¤ àªķ
Ġàªµ àªļ
Ġàª®àª¹ àª¤
o r
Ġàªķ àª²
Ġàª¸ àª¤
àªª àª£
Ġ b
Ġ in
ĠàªĨàªµ àª¤
Ġàª¸ àª°àªķ
Ġ m
Ġàª² àªĹ
Ġàªµ àªĹ
à« ħ
à« §à«
Ġàªµ àª¡
Ġ p
àªĸ àªµ
Ġàªı àª®
àªŁ àªķ
àªı àª¸
Ġàª« àª°
àªķ àªµ
àª¹ àª¨
àªķ àª¡
àª· àª¨
àª® àª°
àªĩ àªŁ
Ġàª¹ àªµ
Ġ à¤
Ġàª¤àª° àª«
àªľ àªµ
Ġàªħ àª§
Ġàª® àªķ
àªī àª¨
àª¡ àª®
Ġàª¤ àª²
àª° àª¬
Ġàªµ àªĸàª¤
Ġàª¨ àª¦
Ġa nd
Ġàªķ àª®
ĠàªĨ àªĹ
àª¥ àª³
àª£ àª®
i c
Ġàªĵ àªĽ
àª¯ àª¦
àª¦ àª²
àªŁ àª®
Ġàª¸ àª¦
Ġ .
Ġàª¶ àª¬
Ġàª¥ àªĩ
o u
ĠàªĽ àª¤
àª¶ àª®
àª¾àªĤ .
àªķ àª®
Ġàª®àªĹ àª«àª³
Ġ 3
Ġàª² àªĸ
Ġàªı àªŁàª²
Ġàªľ àªµ
àª¸ àªķ
àª¥ àªķ
à« Ń
àª ĥ
i l
à« ®
àª¡ àª°
Ġàªµ àª¹
Ġàªħ àªµ
à«Ĥ àªĤ
a s
àª° àª¡
Ġàªħ àª¤
àª² àª¬
Ġ d
i on
àªķ àª°àª£
àª® àª²
Ġàªħ àªª
Ġàªĸ àª°
àª¦ àª®
Ġàª® àª¨
in g
Ġà« ¬
à« ¬
à« ©
Ġ '
Ġàª¬ àª¦àª²
Ġàªļ àª£
à« ª
o m
ĠàªŁ àªķ
Ġàªħàª² àªĹ
àªĸ àª°
ĠàªĨ àª¨
àªĨ àª°
àªķ àª¤
ĠàªĨ àª¶
Ġàªħ àªĹ
Ġà«§à« ¦
Ġàªľ àª®
àªª àª®
àª° àªª
Ġàª® àª¦
à«į âĢ
àªĵ àªı
àª§ àª¤
àª² àªµ
Ġàª¨ àªľ
Ġt o
àªµ àª®
Ġàªľ àª£
ĠàªĨ àª®
à«įâĢ į
àª® àª¦
Ġàª¸ àªª
àª¸ àªª
àª¥ àª¨
l e
Ġàªª àª¸
Ġàª® àª°
àªŁ àª°àª¨
Ġàªı àª²
àª¬ àª²
Ġàªļ àª²
àª° àªŃ
àª° àª¯
àªĿ àª¨
àª° àª²
àªŃ àªĹ
Ġàªª àªķ
Ġà« ©
Ġàªª àª¤
àªķ àª³
àª¯ àªµ
Ġ -
Ġàª° àª¸
Ġàª° àªľ
àª° àª¶
àªĹ àª¢
à« §
ĠàªĨ àªķ
Ġ h
àª¯ àª²
àªĨ àª¤
Ġàªµ àªªàª°
àª° àªľ
Ġàªı àª¸
Ġàª¸ àªŃ
àª° àª¥
Ġàª° àªļàª¨
àª² àª¸
ĊĊĊĊ ĊĊĊĊ
àª¨ àª¸
àª° àª«
Ġàª²àªĹ àªŃàªĹ
àªª àªķ
en t
Ġàª¥ àªµ
Ġ I
Ġ Ċ
àª² àªķ
àª¯ àªª
Ġàªĺ àªŁ
Ġà«§à« ®
àªĹàªµ àª¡
àª² àª¯
Ġà« «
àª¡ àªķ
Ġ19 9
ĠàªĪ àª¨
àªļ àªµ
Ġàªľ àª¤
ĠâĢ ľ
Ġàªļ àª°
àªļ àª°
Ġ 4
àªŁ àª£
àª¶ àªķ
e t
àª§ àª°
Ġà« ª
Ġàªķ àªµ
Ġàª¨ àªķ
Ġàªªàª° àª¥
Ġàª¸ àªĹàªµàª¡
Ġ1 8
Ġàª¸ àª²
Ġàª¬ àª§
àª² àª°
l y
àªŃ àªµ
Ġà« ®
àªł àª³
u r
àª¬ àª¨
Ġ A
àª¡ àªª
Ġ T
àªľ àª®
Ġàªľ àªĹ
o l
à«ģ .
àª¨ àªĹ
àª¯ àª¸
ĠàªĨ àª¯
Ġàªħ àª¸àª°
Ġ e
Ġàª¹ àªľ
Ġ 5
00 0
Ġ S
àª· àª®
Ġàª® àª¥àªķ
Ġàªı àª®àª¨
âĢ Ŀ
Ġàª¤ àª¤
s t
àªķ àªª
Ġà« Ń
Ġàªħ àª¡
Ġàª¹ àª°
Ġ2 0
àª³ àªķ
Ġ l
ĠàªŃ àª°
c t
à« ¯
ĠàªĨ àªľ
àª· àªķ
àª° àªĸ
Ġàªīàªª àª²àª¬
àª¤ àªµ
Ġàª®àª¦ àª¦
àªµ àªķ
àªµ àª¡
ĠàªĨ àª²
àªª àª¦
Ġ 6
Ġàª¨ àªĹàª°
âĢ ¢
Ġt h
Ġ n
àª¨ àª°
àªĩ àª²
àª³ àª®
à«Ģ -
Ġàª¸ àª«àª³
àªļ àª®
àªı àª®
àª§ àªµ
Ġàªı àªª
1 9
àª§ àªķ
Ġ 7
àª² àª¤
à¤ ¾
Ġàª Ķ
àªĸ àª®
Ġàª° àªķ
àªµ àª°àª£
Ġàªĩ àª¤
àªĹ àª£
àª§ àª®
àª¾ -
Ġà«¨ à«¦
àªķ àªŁ
àªĪ àªŁ
Ġàª ł
Ġ re
àª¬ àª¦
Ġà« ¯
àª¨ àª²
àªħ àª¨
Ġàª¤ àª³
Ġà«§à« §
àª¬ àª¤
Ġ Ġ
àªĩ àª¡
àª° àª§
Ġàª° àª®
àª¨ àªķ
ĠàªĹ àª°
àª¦ àªķ
àª¯ àª£
àª« àª°
v e
Ġàªķ àªļ
Ġàª² àª¡
Ġà«¨ à«¦à«¦
àª¨ àªª
Ġàªī àªļ
àªĽ àª³
àªĩ àªı
àªµ àªŁ
r o
ĠàªŃ àªĹàªµ
Ġà«§à« ª
àª® àªĹ
Ġàªĺ àª°
ĠàªĿ àª¡àªª
a m
ĠàªĨ àª¤
Â °
àªļ àªķ
Ġ is
Ġ C
àªļ àª²
Ġàª² àªķ
Ġ B
Ġàªķàª° àª¨
Ġàª¸àª® àªĹ
Ġàª¸àª® àª¯àª®
àªı àª¨
Ġàª® àª¤
àªī àª¤
àª¨ àª¤
i m
àª¹ àª°
àª¿ .
u s
ĠàªĨàªĹ àª³
àª¹ àª°àª£
àª¸ àª²
Ġàª¬ àªŁ
àªĩ àª®
à¥ į
c e
àª° àªĹ
àª¸ àªµ
Ġàªħ àªķ
àª³ àªµàªµ
àªľ àª¯
àªĪ àªı
Ġ M
re s
Ġàª¬ àª°
àª°àª® àª£
àªķ àª¥
o t
Ġàªī àª²
ĠâĢ ¢
Ġàª¨ àª°
i d
Ġb e
Ġàªª àªŁ
Ġàªªàª° àª¨
a d
v er
àªŁ àªµàª°
Ġàªī àª®
i g
ĠàªĨàª¶ àª°
Ġàª ¢
Ġàªľ àª¯
àª¹ àªķ
Ġàª¸ àªķ
à«ĭ :
ĠàªĨ àªĩ
Ġàªµàª¸ àª¤
o s
àª¶àª¨ àª¨
Ġ P
ĠàªĨ àª¸àªª
à«ĩ :
àª· àª®àª¤
àª¤ àª°àª¨
Ġàª¬ àªľ
o d
àª¬ àªľ
Ġàª² àª¶
àª¬ àªķ
àª¡ àª²
àªª àª²
àªĿ àª°
Ġàªªàª¡ àª¤
Ġàª¬ àªļ
àªĸ àª²
Ġàªħàª® àª¦
Ġ 8
àª· àª¯
Ġàªļ àªķ
àª¤àª° àª°
ĊĊĊĊ ĊĊ
Ġàª¸ àª¨
a y
Ġàª ĳ
àª§ àªª
àª² àªĹ
àªµ àªľ
àª¦ àªĹ
at ion
àª¯àª¤ àª¨
àª¥ àª°
àªŃ àª°
u t
àª¬ àªĪ
àª¬ àª³
Ġàªı àª°
àª® àª¥
Ġàªĵ àªķ
Ġàªĩ àª¸
c h
âĢĻ ,
àªī àª¦
àª¤ àªª
Ġàªķ àªķ
Ġàªķ àª¦
Ġàª¸àª® àªľ
àª® àª¸
Ġàªķ àª¨
àª¶àª¨ àª²
Ġàª¹ àª¸
Ġ1 0
à¤ °
Ġà« §
Ġàªª àªĹàª²
Ġàª®àª³ àª¤
Ġàªĺ àªŁàª¨
àª¡ àª¤
Ġàª° àª®àª¤
àª³ àª¤
àª¿ ,
àª° àª·
Ġàªķ àª¥
à«ĩ ;
àªµ àªŃ
Ġa s
àªµ àªª
Ġàªı àª¶
Ġà«¨à«¦ à«§à«
i r
àªĸ àª¨
àª° àª¦àª°
Ġ19 8
Ġàª¸àª® àª°
Ġ g
Ġàªµàª¸ àªµ
Ġàªĵ àª¸
àªĩ àªľ
àªµ àª¨àª¨
ĠàªĨàªª àª¤
Ġàª® àª¸
àªĹ àª¸
àªı àªķ
àªª àª·
Ġàªĵ àª°
àªŁ àªµ
àª² àªª
Ġ1 5
àª£ àªķ
àªĨ àªĩ
Ġàª¬ àª³àªµ
àª¬ àª®
Ġàª Ĳ
Ġ 9
àªľ àªª
àª¤ àª¤
r a
Ġàª¸àª® àª¯àª¨
Ġàª ĭ
àªł àª¨
Ġàª¦ àª²
àªĽ àª²
Ġ H
Ġàªĵàª³àªĸ àªµ
Ġàªıàªķ àª®
àª® àªļ
àªĪ àª²
Ġà«§à«¯à« ª
àªµ àª¯
àªĸ àªķ
1 0
ĠàªĨ àª«
Ġ1 6
Ġ200 7
is t
ĠT he
Ġàª¦ àª¬
Ġàª¸àª° àªĸ
Ġ G
Ġ1 7
he r
2 00
Ġàª¸àª® àª¸
àªł àªµ
Ġ200 8
Ġàªª àª²
àª°àª£ àª¨
o p
u l
Ġ19 7
Ġàª¸àª¤ àª¤
àª¨ àªĹàª°
àªľ àª¸
àªĩ àª¸
Ġàª¦ àª¸
àª¤ àª°àª®
àª¯ àª®àª¨
àª£ àª¸
Ġàª¤ àªª
Ġàª¹ àªķ
Ġàªħ àªµàª¸
àª® àª¹
àªª àªµ
Ġa l
àª¸ àª£
àª¹ àª®
Ġ :
àªµàª¨ àªĹàª°
o w
Ġf or
Ġàª² àªĪ
i a
e l
àªħ àª²
ĠàªĹ àª¤
àª¦ àª°àª¤
Ġàª° àªļ
àªĩ àªķ
Ġo n
àªŁ àª¨àª¨
Ġ N
Ġs t
Ġàªī àªŃ
àªķ àª¶
àª·àª£ àª¨
Ġà«§à« ¨
Ġ |
it h
Ġàª¨ àªµàª²
Ġàªħ àª¦
Ġàªķ àªł
Ġàªµ àª³
à¤ ¿
àª¹ àªµ
ĠàªĨ àªķàª°
Ġ )
ĠàªĨàªµ àª¶
àª° àª¯àª¤
Ġàªľ àª³
àªķ àª£
Ġàª® àª²
Ġà«§à« «
Ġ200 9
Ġ R
Ġàª¸àª° àª¦
à¥ ĩ
Ġ K
Ġàª« àªķ
àª¦ àªµ
à«ĭ -
Ġàª¸ àªľ
Ġàª¦ àª³
Ġàª¸àª®àª¯ àªĹ
Ġàª¸àª«àª³ àª¤
. .
Ġàªµàª° àª¸
Ġa re
Ġàªµ àª²
àª ¼
Ġàªµ àª¨
Ġàªħ àª¬
ĠàªĬ àªŃ
Ġà«§à«¯à« ¬
u n
Ġa n
àª¶ àª°
Ġàªħàª® àª°
àªĹàª² àª®
ĠàªĲ àª¤
à«ĩ "
àª¸ àª¦
Ġàª¦ àªµ
Ġàªħàª° àªµàª²
Ġàªħàªµ àªķ
à« ¯à«
ĠàªŃ àªµ
a c
àªľ àª§
Ġàªı àª¡
àªŁ àª¬
ĠàªŃ àªľàªµ
àªı àª²
Ġb y
5 0
e m
Ġàªī àª¨
Ġ D
Ġàªıàªķ àªł
ĠàªĨ àªĸ
Ġàªħ àª£
Ġth at
ĠàªĹ àª£àªµ
à¤ ¤
Ġàªı àªļ
2 0
àª° àª®àª¨
il m
Ġàªķ àªŁ
Ġàª® àªľàª¬
Ġàª« àª³
à«Ģ "
àª¤ àª°àª£
Ġ k
u m
àªĹ àª¡
ĠàªĹ àªĪ
àªĪ àª®
ĠàªŃ àªķ
Ġàªľ àª¹
Ġ19 6
es t
Ġàª į
àª¹ àª¤
àªĨ àª¤àª®
Ġàªħ àª¶
Ġw as
Ġw ith
a g
Ġàªħ àªŁàªķ
àªŃ àª®
Ġàª¸ àªµ
ĠàªĹàª£ àª¤àª°
àª« àª¨
àª¯àªµ àª¹
r i
Ġàªĩ àª²
Ġàª¨àªµàª² àªķàª¥
àªħ àª®
àªµ àªļ
Ġàª¸ àª«
àª® àªª
er s
àª® àªµ
Ġw h
Ġà«§à«¯à« «
Ġàªª àªĹ
Ġàªĩ àª®
àª· àª¤
ĠàªĨ àªł
Ġàª¶àªķ àª¤
Ġà«§à«¯à« Ń
Ġàªı àª®àª£
àª° àªļ
àª£ àª¯
àª£ àªª
àª¢ àªµ
àªĩ àªĿ
àª¸ àª°àª¨
Ġc on
Ġ F
àªŁ àª¸
à«§à« ¯à«
t h
àª¬ àª°àª¨
Ġàª¤àª°àª« àª¥
ĠàªĨ àª¥
Ġà«§à« ¯
Ġàª¹ àª¶
Ġà«§à« ¬
à«¦à«¦ à«¦
ĠàªĹ àª°àª®
àªĺ àª¨
ĠàªĨàªª àª£
ĠI nd
Ġàª¤ àª¬àªķ
àªħ àª°
àª¡ àª³
Ġàª² àªĩ
Ġà«§à« Ń
Ġàªħ àªľ
àªĽàª³ àª¥
Ġàª¬ àª³
i an
àªĹ àª¦
Ġà«§à«¯à« ®
ĠàªĨ àª¸
àª· àª°
e re
àª¬ àª°àªķ
Ġàªĺ àª¡
Ġà«§à«¯à« ©
r om
à« ¤
àªµ àª°àª¨
àª¬ àª¸
Ġ200 6
Ġàªħàª¡ àª¦
à«ĩ àªĥ
Ġàªķ àª¬
Ġà«§à«¯à« ¯à«
Ġ1 2
Ġ L
Ġ E
Ġàª¬ àª¤
àªµàª¸ àª¨
p e
Ġàªħ àªĸ
à«ĩ -
àª² àªŃ
Ġà«§à«¦ à«¦
àª¾ "
àªµ àª¶
àªľ àª¨àª¨
Ġàª«àª° àªľ
Ġ v
àªĪ àª¡
ĠàªĬ àª°
àªĹ àª³
àªĹ àª°àª¨
Ġf ilm
ĠàªĿàª¡àªª àª¥
àªĩ àªª
Ġàªļ àª³àªµ
à¤ Ĥ
Ġo r
Ġàªµ àª²àª¸
àªı àª«
àª¦ àª¶
àªµ àª£
àªĿ àª®
Ġ19 4
Ġàªħ àªªàª¨
àª¹ àª¦
ĠàªĪ àª°
Ġàªµàª§ àª¤
àªī àª¸
Ġàªĵ àªĹàª¸
àª® àª¯
Ġàªµ àª¨àª¸
Ġàªı àª«
a nd
ou nd
ĊĊĊĊĊĊ Ċ
a k
à¤ ¨
àª¨ àª¹
àª® àª¡
àª¸ àª¨àª¨
àªµ àª³
Ġ1 4
àª£ àª¤
Ġàªī àª¤àª°
i f
u d
ĠàªĨ àª¯àª°
à«ī .
àª¥ àª¤
àªĵ àª¥
Ġàªı àªľàª¨
t er
a in
à ¦
àªĨ àª¨
Ġàª¬ àª¸
ĠàªĹ àªĩ
et res
Ġàªī àª¡
Ġa t
it y
i es
Ġàªªàª° àª®
Ġàªĵ àª²
ĠâĢ ĵ
àªµ àª¤àª®
Ġ200 5
Ġs u
Ġàªµ àª¨àªª
àª² àª¯àª¨
àªľ àªĹ
Ġàªī àªĽ
àª° àªļàª²
Ġs e
àª¹ àª¸
àª¤ àª²
à«ĩ. "
Ġàªª àª¥
Ġàªª àª°àª¤
ĠàªĨàªµ àªķ
Ġàª² àªĹàª¤
Ġm o
àª¨ àª¦
àª®àª¨ àªĹàª°
Ġàª¸àª® àªķ
Ġ it
àª¸ àª¤
Ġ1 1
Ġh a
àª°àªĹ àªŁ
àª¬ àªĩ
à¤ ¯
Ġàªª àªµ
Ġàªī àª°
Ġàªķàª° àª¶
at e
àªķàª°àª£ àª¨
àªķ àª°àª¨
Ġe x
i v
Ġ r
Ġà«§à« ©
h t
Ġàªħàª¸ àª°àªķ
Ġ U
Ġàªī àª·
àª°àª¨ àªĹàª°
àª° àªªàª¤
àªª àª¡
Ġà«§à«¯à« ¨
Ġp ro
w o
a b
Ġ /
àªĩ àªµ
Ġàª° àªľàªµ
Ġf rom
Ġàª¨ àª®
àª¨ àª¯
àªļ àª¤
ĠàªŁ àª°
Ġ3 0
àª¯ àªŁ
a ur
àªļ àª£
ĠàªĪ àª¸
Ġàªķ àª¸
Ġàª¶ àª¸
Ġàªĵ àªŁ
Ġ1 3
ĠàªŃ àª°àªª
Ġàªļàª² àªļ
àªĹ àªłàª¨
àª¦ àª°àª¨
m ent
àª¡ àª¸
àª¯ àª¥
àªł àªķ
Ġàª¸àª° àª³
Ġàªµ àªķ
Ġàªµ àªĹàª°
Ġc om
Ġàª¨ àª¬àª³
1 1
àªĹ àª¥
ĠàªĶ àª°
âĢ ĵ
Ġàªľàª¨ àª°àª²
àª³ àªŃ
Ġàªķ àª³
ĠàªĨ àª¦àª°
Ġàª° àª¦
Ġàª° àª£
àª² àª°àª¨
àª°àª£ àª®
Ġàª² àªĸàªµ
àªı àªļ
Ġ W
àª° àªµàª°
q u
Ġ O
il l
àª¦ àª³
Ġàªī àªķ
Ġàªī àªĹ
àª£àªµ àª¤
àªħ àª¹
Ġd e
ĠàªĨ àª¹
àªª àªļ
o c
Ġàªħ àª«
Ġàªĭ àª·
àª¨ àª¥
àª°àª« àª¤
n t
Ġàªĩ àªļ
Ġ Â°
àª¤ àª³
ĠàªŃ àª²
à¥ Ģ
Ġàª² àªĪàª¨
Ġ1 00
àªĪ àª¸
ĠàªĶ àª¦
Ġàªıàªķ àª¤
Ġàªıàªķ àª¬
ĠàªĨ àª£
s e
Ġ20 10
l d
àªĪ àªķ
àªĩ àª¨àª¨
Ġàª¤ àªķ
Ġà¤ ķ
i k
àªĹ àª°àª®
Ġha ve
àªª àª¶
Ġàª¬ àªĹ
Ġàª¨ àªµàª¸
Ġàªķ àª¡
àªĨ àª¤àª¨
àª¾ '
ĠàªŃ àª¯
Ġàªħàª® àª²
' s
Ġ V
Ġàªī àªľàªµ
Ġàªľ àª²
ou t
ĠàªĨàªª àª¨
ar s
ĠàªĨ àªļ
à¤ ķ
1 8
Ġ $
p t
i al
Ġàªıàªķ àª¦àª®
an t
Ġàªħ àªĹàª¤
àª¯àª¨ àª¨
ĠàªŃ àª°àª¤
à«Ī àªĤ
àªķàª² àªµ
Ġàª¸àª° àª¹àª¦
Ġàªĵ àªªàª°
àªĹ àªª
Ġàª¬àª¨ àªµ
àª¶ àª¯
Ġàª° àªµ
ar t
Ġàª¦ àª°àªµ
Ġ5 0
ĠàªĬ àªļ
Ġàªķ àª¬àªľ
àª° àª°
Ġàª¸ àª¬
Ġàª® àª¶
Ġàª¥ àª¶
àª® àª§
ĠàªĨàªµ àªµ
ic h
or d
àªĽ àª¤
s o
àªĽ àª¨
Ġàªĩ àªľ
àª¥ àª²
Ġàªĺ àªŁàªķ
on g
à«ĢàªĤ .
ĠàªĪ àª²
Ġàª¤ àª¬
àª¹ àªľ
ac k
Ġàªī àª®àª°
àªļàª® àª¹
àª® àª¶
àª¶ àªµ
os aur
Ġ he
àª¶ àªķàª°
Ġ200 4
à«ģ -
Ġàª¶ àª¤
Ġàª« àª°àª¤
Ġ2 5
p l
Ġàªµ àªĸ
Ġàªĩ àª°
àª²àª¨ àª¨
an g
àª¯àª¦ àªķ
ou s
o g
àªµ àª§
àª¿ -
Ġàª¸ àª°àª¸
àª¯ àª°àª¨
àª§ àª£
Ġ200 0
Ġàª¤ àªķàª¨
Ġ19 3
Ġ| |
àª¦ àª¡
Ġàª¬ àª²
a v
àª¤ àªķàª¨
ic al
Ġàª¹ àª³àªµ
à«Į àªĤ
re d
d u
Ġàªħ àª¬àªľ
àªª àª°àªµ
" ,
ĠàªĨàªµ àª°
Ġn ot
àªľ àª²
Ġàªªàª° àª¸
Ġ199 0
Ġ 0
Ġ J
àª ģ
àª¾ âĢĻ
Ġàªľ àªŁ
àªĿ àª²
àª¨ àªľ
Ġ ĊĊ
àªī àªŁ
Ġà«§à«¯à« §à«
at ed
àª¶ àª²
à¤ µ
à¤ ¸
Ġm etres
ol ly
Ġàª¡ àª¬àª²
i ve
Ġàª¤ àª°àª¤
Ġ19 5
àªĩàª® àª¥àªķ
Ġàªµ àª¦
Ġw ere
àª« àª²
Ġàª¯ àª¹
àªµ àª¹àª¨
wo od
Ġàªĳ àª«
Ġàªī àªł
àªĽ àª³àª¨
al l
Ġwh ich
e w
Ġàª¤ àª¹
Ġàª° àª¶
Ġàª² àªĩàª¨
Ġàª¦ àª¡
ĠàªĨ àªĿ
àª£ àªªàª£
àª· àª¦
olly wood
à¤ ®
à«Ģ âĢĻ
Ġàª¸ àªļ
Ġàª¦ àª¤
à«¨ à«¦
Ġàª¬àª¨ àª¤
Ġà«© à«¦
es s
Ġ ,
àª¯ àª¹
Ġàª° àª¨
Ġàªĵ àª¨
ĠàªħàªŃ àª¯
t her
Ġàªª àªķàª¡
Ġàªªàª° àªµ
àªĺ àª£
Ġ4 0
Ġal so
T he
àªĺ àª²
ar d
Ġàªķ àª£
àª¶àª¨ àª®
Ġàª¥ àª°
Ġ2 3
àª¬àªĪ àª®
Ġàªªàª² àªŁàª£
Ġàªľ àª¥
Ġàª§ àª¨
1 2
àªª àª¥
àªµàª¨ àª®
Ġàª² àªĺ
Ġ200 1
Ġàªķ àª¯
Ġàªīàªª àª°àª¨
Ġàª¸ àª¸
ĠàªĪ àª®
ou r
àªŃ àª¨
Ġ2 2
àªľ àª³
àª¦ àª¤
àª¡ àªķàª°
Ġàªīàªª àªĹ
àªķ àª¹
àªĹ àª¦àª°
Ġ2 1
19 9
à«Ĥ .
Ġàªľ àª¶
àªª àªŁ
Ġàªµ àª¤àª¨
is h
àª¯ àª¡
Ġàª® àªľ
àªĹ àªł
àª°àª¹ àª¨
àª¯ àªŃ
àªŃ àª³
ĠàªĪ àª¶
ig ht
a p
âĢ ²
àªŁ àª¡
Ġ us
àª§àª¨ àª¨
Ġàª¸àª¹ àªķ
àªª àª¬
àªł àª³àª¨
à¥ ģ
om e
Ġàªµ àª¯
àª°àªµ àªł
Ġs h
Ġin c
àªĹ àª¹
or t
u re
Ġàªħ àªµàª°
ĠI n
Ġàªħàª¡ àª§
Ġàª° àª¤
Ġàªľàª¨ àª¤
Ġàªµ àªľàª¨
àª°àª£ àªķ
Ġà«¨ à««
Ġh as
1 6
àª¸ àª¥
ct ion
Ġ200 3
Ġàªħàªµ àª¶
Ġà«§à«¯ à«¦
àª¯ àª¶
àª¬ àªĪàª¨
Ġàªĸ àª¸
Ġàªĵ àª¡
à¥ ĭ
àªŁ àª¤
Ġàª¹ àª¨
àªļ àª¯
Ġàªı àª°àª²
àª¬ àª°àª®
it ion
ĊĊĊĊĊĊĊĊ Ċ
Ġfilm s
àª¸ àªŃ
Ġàª¸àª° àª³àª¤
Ġàªªàª¦ àªµ
ou g
àª¥ àª³àª¨
àªµàª°àª£ àª®
ĠInd ia
àª¨ àªĹàª¢
àª¥ àª°àª¨
àª° àª¸àª¨
àª¯ àª¬
Ġàªĩ àª¶
à«§à« ®
ĠàªĨàªĩ àªª
àªķ àªķ
Ġàª¦ àª¶
àªľàª¨ àªķ
y le
àªľ àª¯àª¨
Ġà« ¯à«
àªµ àª¦
àª¯ àªľ
Ġ2 4
Ġàª¦àª° àªľ
Ġàªħ àª¥
Ġàªħ àªµàª¤
Ġàªľ àªĪ
Ġàªı àªŁ
àª°àª® àª®
Ġà«§à«® à«®
t e
Ġp l
à«Ģ ;
1 4
g r
àª¡ àª¬
Ġàª¹ àª¥
àªĨ àª®
àª² àª²
1 5
o re
àªŁ àª°àª®
res s
Ġàª¹ àª®
àªª àª¸
àª¯àª¨ àª¶
à«Ģ '
Ġàª¨ àª«
ig n
ag e
8 0
an s
Ġ8 0
àªµ àª¹
àªķ àª¬
àª¡ àª³àª¨
Ġc h
| |
Ġàªħ àªªàª°
Ġàªĵ àªª
àªĺ àª¡
ĠInd ian
Ġàªļàª³àªµ àª³
g e
àª¦ àª¨àª¨
Ġàª¬ àª°àª«
Ġà¤ ¸
ĠàªĨàªĹ àª³àª¨
à«ĭ "
àª¦ àª¯
Ġàªĸ àª¨
Ġàªļ àª¡
Ġàª¸àª®àª¯ àª¥
àªµàªŃ àª°àª®
àª¤ àª¥
Ġàª¨ àªľàª°
Ġàªī àªľ
1 7
y e
àª² àª¯àª®
àªĩ àªªàª£
à¤ ²
Ġàª®àª¦àª¦ àª¥
Ġàªīàªľàªµ àª£
Ġàªħàª° àªľ
àªķ àª²àª¨
àªĨàªĩ àªµ
c c
o k
Ġ le
Ġàªħ àªļ
Ġàª¦ àª¹
Ġàª§ àª°àª¤
ĠàªĹ àª¢
Ġàª¡ àª¬
r y
àª· àª°àª¤
àªĪ àªªàª£
àªĨ àª§
Ġà«¨ à«ª
àªŁ àª¥
i z
Ġàªľ àª®àª£
àª¥ àªª
àªŃ àªµàª¤
u b
àªĤ .
àªµ àªľàª¨
àª° àªĹàª¤
Ġàªķ àª¦àª¨
Ġàª° àªĸ
à«ĢàªĤ ,
in osaur
3 0
ĠàªĨ àªĸàª°
ĠàªĨ àª¬
Ġàªıàª¨ àª°
âĢ ĺ
Ġà«§à«® à«¯à«
àªª àª¯
Ġà«¨ à«¨
6 0
ĠàªĽ àªł
in e
Ä ģ
Ġàªı àª°àªª
i p
àªħ àª¸
à¥ ¤
àªī àª¥
in d
ĠàªĨ àªĪ
Ġ200 2
Ġàªıàªķ àª²
à«ĥ àªĤ
en ce
àª Ĭ
àª® àª³
Ġàª² àª¡àªµ
àªĨ àªµ
àªµàª°àª£ àª¨
Ġ198 0
Ġàªħàª° àª¬
àª¯ àª°àª¤
Ġcon t
Ġàªĸ àª¡àªķ
àªĨ àªĪ
Ġàª¸ àª³
Ġàª¦àª° àª¬
ĠàªĪ àªŁ
Ġàªħàª² àª¯àª¹
en c
Ġa r
àªı àªŁ
Ġth is
am e
r it
àª¯ àªĹ
Ġàª¨ àªķàª²
àªĵ àª°
Ġ19 2
àª² àªļ
Ġàªħ àªłàªµ
Ġ2 7
ĠâĢ Ļ
àª³àªµ àª£
Ġàªªàª¡ àªµ
i b
àªŁàª¨ àª®
as t
àªī àª²
Ġt r
Ġà«« à«¦
el l
àª¤ àªļ
àªķàªµ àª£
à«ĩ. .
àªŃ àª°àª®
Ġ19 0
ĠC h
Ġbe en
o ver
Ġ im
Ġ un
àªĹ àª¶
àª£ àªķàªŁ
ul ar
u p
àª¤ àª¶
àªķ àª¯
àª¸ àª¸
Ġàª® àª£
Ġàª² àªµ
Ġàª¥ àªķ
Ġh is
àª² àª¡
Ġàª¤àª°àª« àª¨
Ġàªıàª² àªŁ
a re
Ġ %
Ġàªı àªľ
àª« àª¸
. "
àª¯ àª¯
àª¦ àªª
ĠàªĹ àªµàª°
àª· àª¥
Ġàª¤ àª«
àª¶ àª¸
Ġàª¥ àªĪàª¨
à«« à«¦
Ġin t
u al
àªŁ àª«
Ġàªĵ àªªàª¨
ĠàªĪ àªľ
ĠĠ ĠĠ
Ġ =
àª¬ àª¹
at es
Ġà¤ ¹
àª¤ àª£
Ġo ther
Ġà«¨ à«¬
Ġàªµ àª£
àªŃ àªķ
àªĪ àªĵ
ĊĊ Ċ
Ġàªĭ àª¤
" .
p ut
Ġàªīàªª àªķàª°àª£
à¤ ¦
àªŁàª¨ àªĹàª°
r ic
àªŁ àª®àª¨
àª¬ àª¡
Ġàª®àª³ àªµ
Ġàªıàªļ àªĨàªĩàªµ
Ġàª¶ àª°àª¤
Ġàª¡ àªļ
Ġàªĺ àª¨
ĠB ollywood
i e
à« ¢
àª® àª¤àª¨
Ġàªĩàª¨ àªķ
à«§à« ¦
Ġ199 9
oug h
Ġàªµ àª«
Ġàª¹ àªĿ
= "
àª£ àª§àª°
àª° àªı
Ġàªĺ àª°àª®
Ġàªīàªª àª¸
àª¤ àª¦
àª² àªĸ
àª¶ àªľ
ĠàªŃ àª£
Ġàª¥ àªĩàª¨
' ,
1 3
e ct
Ġàªħ àªµàª²
Ġàªµàª² àª£
Ġ18 5
Ġal l
àª¤ àª¨àª¨
ĠàªĹ àª¦
Ġàªªàª¡ àªķ
Ġà¤ ª
àªľ àª¦
Ġàª¦ àª¯
Ġà«¨ à«©
à«ī àªĤ
àªĿ àª¨àª¨
àª¡àª° àª²
ul t
Ġàªħàª« àªĺ
Ġàªļ àª¤
Ġd inosaur
st yle
àª¤ àª¸
àªĸ àª¡
àªĺ àªŁàª¨
p le
àª¡ àª¥
as s
Ġàªļàª² àª£
id e
Ġàªļ àª¢
Ġà«§à« §à«
ĠàªĪ àªļ
à °
àª¾ :
Ġàª¸ àªĸàª¤
àª¡ àª«
ĠàªĹ àª³
Ġàªīàªª àª¨
à¤ ¹
ĠâĢ Ŀ
àª¤ àªªàª£
Ġàªª àªª
Ġàª¹ àª³
àª¤àª° àªª
àªµàª¤ àª¨
àª¦àª¨ àª¶
àª¡àª° àªŁ
Ġ197 0
b ack
àª¯ àª£àª¨
Ġàª® àªł
Ġàª¯ àªľ
àª¡ àª¨àª¨
àª·àª£ àª®
an y
Ġp art
àª¸ àª²àª®
àªµ àªĹ
ĠàªĨ àªĪàª¨
àª¶ àª¤
àª®àª¨ àª¨
àª¤àª° àªµ
Ġà«¨ à«Ń
a j
Ġthe ir
at h
ou ld
Ġàª°àª® àª¤àª¨
ĠàªĨàªł àª®
Ġà¤ ®
Ġàª¨àªĹàª° àªª
àª¯ àªı
àª² àª¥
ĠàªĨ àªľàª¨
àª¥ àª¶
Ġàªĩ àªķ
Ġa b
gr ound
u st
Ġàªĸ àªĹ
Ġàªıàªķ àªµ
àªı àª¸àª¨
ĠàªĶ àªªàªļ
i re
àªĹ àª²àª¨
àª¦ àª¸
àªĩ àª°
2 5
u nd
àª¶ àª¹
ĠàªĹ àª®
Ġ2 6
ar y
I I
p ars
àª¾ ;
ĠàªĨ àªŃ
Ġàª¶ àª°àª£
Ġ6 6
Ġàªħàªĸ àª¬
Ġsu ch
pars er
m w
Ġàªħ àª·
Ġà«¨ à«§
Ġc an
ation s
out put
f f
à¤ ª
à«¨ à«¦à«¦
Ġp er
àªĨ àªĩàªı
Ġàªµàª§ àªµ
Ġàªīàªªàª° àª¥
ĠàªĶ àª·
Ġ {
àªµ àª¦àª°
àª¯ àªªàª£
Ġàªª àªµàª¨
Ġàªħ àª¯
àª³ àªµàª¨
ĠàªŃ àª°àªµ
Ġàªħàª® àª²àª®
Ġàª°àª® àªµ
Ġàªķ àªļàª°
ĠàªĨ àªĩàª¨
àª£ àªŃ
at er
àª¨ àª¶
Ġàªī àª§
àª« àªŁ
Ġàª« àªŁàªķ
Ġàª§ àª°àªµ
Ġa ct
Ġàªª àª¬
àª¦ àªŃ
àªĩ àª¬
Ġ Â
àªĩ àªķàª²
Ġàªīàªª àª¦
Ġàªķ àª¶
à«Ĥ ,
àª¯àª° àª²
an ce
ĠT h
àª³ àªķàª¨
Ġàªĸ àªµ
b er
p p
à«ĭ ;
à«ģ àªĥ
àªĪ àªµ
or s
Ġd is
f t
à«Ī à«¤
ĠàªĨàª° àª¬
ĠàªĹ àª£àª¨
Ġàªĩ àªŁ
Ġa d
àª¤àªķ àª¥
à«§à« §
back ground
àª³ àª¥
àª²àª¨ àªª
Ġ7 0
4 0
àª¨ àªķàª¡
àªĪ àªĿ
àª°àª¹ àª£
Ġc ent
Ġw he
Ġàª¹ àªŁ
àª¯àªķ àª²
àªŁàª° àªª
er n
Ġàªł àª°
7 0
c s
àª¦ àª¥
àª¡ àª°àª¨
Ġ19 50
Ġà«¨à«¦à«§à« §
3 3
àª² àªķàª¤
ĠàªĨ àª¹àªµ
Ġàª°àª¹ àª¸
Ġ2 8
Ġàªĵàª« àª°
àª® àª°àª¨
àª³ àª¶
Ġàªīàªª àªĸ
àªĩàª¨ àª²
a h
Ġàªħ àª¸àª®
in t
à¥ Ī
à«© à«¦
Ġà«ª à«¦
Ġe v
Ġàª®àª¤ àª¦
àª²àªŃ àªŃ
Ġàª° àªķàª®
Ġàªı àª¬
Ġàªĸ àª¬àª°
àªı àªµ
àª°àªķ àª¨
Ġà«§à«® à««
Ġàªļàª³àªµ àª³àª¨
àª¤ àªľ
Ġàª¸àª® àªľàªµ
Ġàªĵ àª¨àª²
Ġs c
ou nt
àªķàª³ àª¤
Ġ6 0
p er
àªµ àª¥
àªŃ àª¦
àªŃ àªµàª¨
àª¡àª¨ àª®
Ġà«§à«¯à«ª à«Ń
Ġit s
A N
a ct
àª¸ àª¬
ĠàªĹ àªĿ
Ġàª° àªļàªµ
àªĩàª¨ àª²àª®
Ġ ;
Ġàª¬ àªķ
ĠàªŃ àªĹ
ĠàªŃ àª³
àªĩ àªŁàª¨
on e
en s
Ġàª¸àª¹ àª¯
ĠàªĶàª· àª§
2 6
àª° àªļàª¨
àª² àªķàª°
àª¯àªķ àªµ
àª¦àª¨ àª®
Ġ199 8
àª¶ àª¦
Ġàª¡ àª°
àª¨àª¸ àªŃ
Ġàª²àª¡ àª¤
àª¯ àª¸àª¨
àªĹ àª®àª¨
àª¡ àª¸àª¨
âĢ ³
ĊĊĊĊ Ċ
m er
àª¯ àª®àª®
ĠàªĨ àª¡
Ġàª¨ àªĹàª°àª¨
Ġàªĵ àªµàª°
a ce
l ud
u e
Ġàª¤ àª£
Ġàª® àª¥
àªª àª¹
Ġàªµ àªļàª¨
àª¬ àª®àª¨
àªı àªª
Ġàª§ àªķ
Ġs p
Ġre s
Ġ196 0
c om
àª¿ :
àªĹ àª¡àª®
ĠàªĹ àª²
àª¤ àªŃ
àª² àª®àª¨
Ġàªª àªļ
àªĹ àªķ
àª¬ àª§
àª· àª¯àªķ
Ġàªĺ àª°àª¨
àªĽ àª¡
Ġs ome
Ġàªħàª² àª¬àª¤
ion s
ĠàªĹàª£ àª¤
Ġàª« àª²
àª°àª¸ àª¦
is m
Ġ199 6
Ġon e
2 8
n ow
àª¸ àª«
àª¶ àª¥
àªĽ àªµ
à«§à« «
Ġàª¬àª¦àª² àªµ
ver s
o st
àªķ àªµàªµ
àªŁ àª²àª¨
àª£ àª¥
àªĪ àª¨àª¨
ĠàªĨàªĹ àª®àª¨
àªŁ àª£àª¨
Ġàªħàª¥ àª¡
" |
Ġàªµ àª¯àª¨
Ġt e
is s
Ġàªīàª¦ àªŃàªµ
àªĵ àª¸
Ġàª« àª¤
à¤ Ĺ
Ġp op
Ġàª¸àª¦ àª¸
ĠU n
r u
àªĸ àª£
àªĩ àªŁàª²
Ġà«¬ à«¦
ol l
4 5
w ard
Ġàªħàªª àªµ
im e
Ġk il
c k
àª¯ àªķàª°
àªª àª³
Ġàª¨ àªµàª°
àª¯àªķ àª¤
ĠàªµàªĹ àª°àª¨
àªĹàª¢ àª¨
a ch
àª¸ àª¡
àªª àª°àª¨
Ġà«¨à«¦à«¦ à«®
àª® àª¥àªķ
à«ĭ âĢĻ
Ġàªª àª¨
àª³ àªªàª£
àª¶àª¨ àª°
ĠàªŁ àª¨
Ġà«§à«® à«Ń
Ġ18 9
Ġinc lud
over n
àª² àª¦
Ġàª¤ àª¦
àªª àªľ
ĠàªŃ àªŁ
àªĩàª¨ àª®
Ġf e
Ġàªıàª² àª°
v ed
àª¾ âĢĻ,
àª¾ àªģ
àªı àª®àª¨
Ġc l
ĠàªĨ àªŁàª²
ĠàªĨ àªīàªŁ
àª· àªµ
Ġàªıàªķ àª°
Ġ3 1
àª¤àªµ àª£
d is
àªĹ àªļ
àªŁ àªķàª¨
àªŃ àª²
Ġ3 8
Ġàª®àª¤ àªŃ
o ve
à«Ģ /
àªķ àªŁàª°
àªª àªķàª¡
àªł àªµàªµ
àªľàª¨ àª®
ĠàªĨàªĩ àª¸
Ġàªį àª¨
ĠàªĹ àªĿàª²
on t
Ġb ut
Ġàªī àªŃàª°
àªħ àªŃ
p os
àªµ àª°àª®
àªľ àª£
à¤ §
Ġàª§àª° àªªàªķàª¡
Ġàªıàª¸ àªıàª®
àª°àª®àª£ àªķàªķ
àªķ àª¶àª¨
àª« àª°àª¨
Ġàªķ àªªàª°
àª¡ àª¯
àªĩ àª²àª¨
Ġàªļ àª°àª¬
C P
àª® àª«
àª¸ àªľ
Ġàª¨ àª¸
Ġàª¨ àª³
àªı àª¶àª¨
Ġàªĵ àªĿ
à¤ ¶
àªħ àªª
Ġ18 8
Ġk m
àªı àª¥
Ġ3 5
Ġ199 1
Ġàªª àª§
Ġà¤ ħ
Ġkil om
h y
ĠàªĨàªµ àª¨
Ġàªķàªª àª¡
2 2
à ¨
Ġà« ¦
àª®àªķ àª¥
Ġà¤ µ
Ġàª¨àªĹàª° àª¹àªµ
I n
Ġàª¨ àª°àª¸
Ġs pe
Ġw or
Ġ3 4
Ġ199 7
ab le
o nd
¯ à«¦
à«ĩ ?
àªĹ àª¬
àª¡ àª¬àª²
àªĪ àª°àª¸
ĠàªŁ àªª
e p
Ġ ro
àª¤àªķ àª®
Ġàªķàª² àªķàª¤
Ġàª¤ àªŁ
àª¥ àªľ
Ġàª¶ àª¨
Ġ199 4
Ġwh o
Ġmo v
Ġmo st
pl ay
à«Ģ :
Ġàªľ àª³àªµ
Ġàªı àª°àªķ
àªı àª°
Ġàª« àª°àªµ
àª«àª³ àª¤
Ġn e
àªłàªµ àª£
Ġcom m
a i
f ter
àª² àªľ
Ġàªķ àªĪ
àª¬ àª¤àª¨
7 5
T P
s il
àª¸ àªŁ
Ġàªı àª¥
Ġàªīàªª àª²
Ġàªªàª¡ àª¶
an c
Ġà«Ń à««
.. .
overn ment
àªŁàª² àª®
Ġh ad
Ġàª°àª® àª¤àª®
t en
àªĵ àª«
Ġàª¶àªķ àª¶
Ġàª¦àª° àªĸ
ic e
àª°àªľ àª¨àª¨
4 8
Ġ j
àª¯ àª°àª¸
àªł àª®
Ġàª¸àª¹ àª®àª¤
il e
ĠA s
àª¼ àª¿
àª£ àªĹ
Ġàªıàªķ àª¨
àª°àª® àª£àª¨
Ġàªīàªª àªļ
Ġàªĩ àªµ
Ġ2 9
Ġàªħàª¸ àª°àª¨
ic s
àª¸ àªļ
Ġàª® àª°àª£
Ġàªµ àª¹àª¨
àª¡ àªĹ
Ġàª¦àª° àª°
ar k
ol og
7 6
o x
àª¸ àª«àª°
Ġàª¥ àª¨
à«Ģ. "
re e
en er
Ġàª¸àª¹ àª¨
à«§à« ¨
ik e
ĠTh is
a il
a us
w e
àª ĭ
àª¯ àªŁàª¨
Ġàª¤ àªķàª²
àªľ àª¡
àª¦ àª°àªµ
àªļ àª¸
àªĿ àª¨àª®
à«§à« ª
Ġre c
Ġà«¨à«¦à«¦ à«¯
Ġfor m
Ġmo re
àª¯ àªļ
àªķ àª¤àª®
àªª àª£àª¨
àª¦ àª³àª¨
ĠàªŃ àªľ
àª« àª¤
àª°àªµ àªļàª¨
Ġà¤ ¨
Ġàªħàªª àª®
Ġà«¨à«¦à«¦ à«§
àª® àªĸ
àªĹ àª£àª¨
Ġàªµàª° àª¦
àªĨ àªľ
àªŁàª² àª°
Ġà«¨ à«®
Ġm e
as e
Ġà«© à««
Ġ9 0
àªµ àªķàª¨
àªĵ àª²
àªŁàª° àª«
Ġà«¨à«¦à«¦ à«¬
Ġ{ \
Ġkilom etres
r al
àª· àª¸
he d
àªħ àªķ
re at
Ġ3 2
àªĹ àªŃ
Ġàª° àª®àª£
àª°àªķ àª¤
ĠàªĿ àªĺàª¡
om b
Ġà«© à«¬
Ġàªĳ àª¡
ri b
i ous
Ġàªķ àª¬àª°
àªļ àª¡
Ġàª¯ àªľàª®
àªĨ àª²
Ġàª¨àªµ àª®
Ġb et
ĠI P
ad e
Ġà«§à«¯à«ª à«®
Ġk now
Ġcon s
Ġint o
w ay
àªľ àª¤
àª¦ àª°àª®
Ġàª¹ àª²
Ġàª¨ àªĹàª°àª®
ĠàªŃ àªľàª¨
Ġàªĺ àª¨àª¤
àª°àªķ àª°àª£
Ġ199 5
Ġ7 5
Ġdinosaur s
Ġ X
àª¨ àª¡
àª® àªŃ
Ġàª® àªļ
Ġàª® àª²àª¯
Ġàªħ àª¢
Ġàª° àª«
àªĿ àªµ
Ġàªĩ àªľàª¨
àªŁàª° àª¸
àªħ àªĹ
or m
Ġ5 00
Ġàªıàª¡ àªµàª°
ĠD e
àªĹàªł àª¨àª¨
/ /
o b
àª° àª«àª³
Ġàª® àª¨àª®
Ġàª¬ àª¦
Ġàªĸ àªľ
àªĨ àª¦
à«§à« Ń
Ġà«§à«¯à«¬ à«¦
Ġà«§à«¯à«© à«¦
à«ĩ. âĢĿ
àª¹ àªª
àªµàª¸ àª®
Ġàªĵ àª¬
Ġàªīàªª àªµ
àªħ àª¤
àªľàª¬ àª¨
Ġus ed
h i
} .
Ġàªª àª¤àª¨
Ġàªª àª¥àª°
Ġàªľ àªĩ
àªĩ àª«
àªĩ àª¡àª¨
Ġàªķ àª¡àªķ
Ġàªħ àªķàª¸
àª¶ àªª
Ġàª¦ àª«àª¨
Ġàªıàªķ àª¸
ĠS t
ve l
1 00
Ġàª¸ àª®àª¨
Ġàªĵ àªĸ
Ġin f
Ġbe c
Ġàªħàª¬ àª¡
3 2
Ġ +
Ġàª¸ àª°àªµ
Ġàª¸ àª«àª°
àª¶ àª³
Ġàª¹ àª¦
àª· àªª
àª· àª¯àª¨
àª²àª¨ àª®
Ġàªĵ àª¥
àª¯àª® àª¥
Ġàª¤àª² àªµ
Ġl ar
Ġàª¸ àªĹ
ĠàªĽ àªµ
àªĹ àª§
àªĪ àª¥
Ġàª« àª°àª®
Ġàªĵ àªĹ
al s
p ort
Ġ â
à«Ģ âĢĿ
Ġàªµ àª¤
ĠàªĨàªµ àªķàª¨
àªĸ àª¨àª®
àª¬ àª¤àª®
Ġàªĵ àª°àª¡
Ġs y
Ġf ir
ur ing
Ġpro du
9 0
n a
Ġ ye
àª¨ àª¬
àª¤ àªĹàª¤
àª² àª¶
àª¸ àª¶
àªĸ àªķàª¨
àªĺ àª®
àª£àªµ àªµ
Ġ199 3
dis play
u es
àªľ àªµàª¸
àª¹ àª²
Ġàªı àªĩàª¡
Ġà¤ ľ
3 5
Ã Ĺ
Ġd ist
Ġre f
Ġre l
omb ay
5 00
l l
àª°àª£ àª¥
Ġàªľàª¨ àª¸
à«ª à«¦
Ġà«® à«¦
ation al
Ġàªīàªľ àªµàªµ
àª¾ âĢĿ
àª¡ àª¶
àª§ àª°àª²
àª³ àªľ
àª°àª¤ àªķ
it ies
Ġà«¨à«¦à«§à« ¦
ĉ ĉ
àª¤ àªµàª®
ĠàªĽ àª¬
Ġàª¨ àª¸àªµ
àªļ àª¨àª¨
àª· àª¦àª¨
àª°àª® àªª
Ġàªĺ àª¡àªµ
àªĽ àª°
à¤ £
àªķàª¸ àª¤
Ġf ound
Ġàªħàªµ àª§
Ġ199 2
Ġth an
Ġà«¨à«¦à«§à« ¨
Ġ y
àªķ àª°àª®
àªķ àª³àªµ
ĠàªĨ àª¯àª¨
àªµàª¨ àªļàª°
àª¢ àª¤
Ġs o
Ġm any
ing s
ĠàªªàªĹ àª¥
àª¬àª°àª® àª¤
àª° àª³
àª¨ àª«
àª¸ àª°àªµ
Ġàª¤ àª¬àª¦
Ġàª¨ àª¡
àªļ àªµàªµ
Ġàªı àª¡àª®
àªı àª¡
Ġàª¯ àª°
ĠI t
Ġ18 6
8 2
i vers
o od
àª® àª°àª£
àª¯ àª²àª¨
Ġàªľ àª¯àªª
àª¥ àª¸
Ġo ver
àª¯àª¦ àª³
àª°àªª àªĽ
Ġà«© à«¨
ĠT CP
Ġ7 2
Ġà«¨à«¦à«¦ à«¦
Ġàª¹àªĿ àª°àª¤
Ġpop ular
c l
} }
àª° àªĹàª¢
Ġàªķ àªªàª¨
ĠàªĨ àªĹàªµ
Ġàªħ àªĽ
à«ģàªĤ ;
Ġàª¨ àª°àª®
àª³ àª¸
ĠàªŃ àªµàª¨
àª°àªµ àªµ
àª¨àªµ àªľ
or y
à«§à« ©
Ġp r
àªıàª¸ àªıàª®
200 7
Ġà«§à«¯à«« à«¦
Ġà«§à«¯à«® à«¦
Ġàª°àª£ àªľ
e ver
àªµ àªŁàª¨
Ġàª® àªķàª°
àªļ àª¬
àªĩ àª¥
Ġthe y
al ly
it e
Ġm us
ĠS h
Ġà«¨à«¦à«¦ à«Ń
ĠB ombay
Ġà«§à«¯à«ª à«¨
Ġfir st
i ed
i ent
w n
Ġ !
à«Ģ âĢĻ,
Ġàªħ àª³àªµ
Ġàªļ àª®àªķ
àªĨ àª¯
Ġàª®àª¦ àª¦àª°
Ġà«§à«® à«¬
ter n
ĠàªĹàª¢ àª¡
ĠàªĨ àªĺ
ĠàªĨ àªĩàªŁ
Ġàª¬ àª®àª£
àªĩ àªĵ
àª¸àª¨ àª®
Ġt wo
Ġc ol
Ġàª¸àª¹ àª¸
Ġm od
ig h
Ġg r
2 4
Ġ up
Ġàª¸ àªĸ
Ġàªµ àª¨àª¨
Ġa m
àªħ àª²àªĹ
it ed
ce pt
ak e
n g
Ġ qu
àª® àªŁ
Ġàª® àªŁ
àª£ àª¸àª¨
àªĩ àª¤
àª« àªķ
Ġàª¯ àªķ
àªıàª¸ àªı
Ġàªħàªķ àª¬àª°
Ġàªıàª« àª¡
u g
àª¯àª¨ àª®
à«§à« ¬
ver y
Ġà«¨à«¦à«§à« ©
we en
a z
r ight
Ġàªľ àª¯àª¸
Ġàªħ àª¶àªķ
àªª àª°àª®
Ġàªµ àªĺ
àª³ àªµàª¤
Ġàªı àª¡àªµ
àªĵ àªķ
àªĪ àª¬
àªĪ àªŁàª¨
àª°àª® àªķ
Ġàªĩ àª¡àª°
Ġm ay
Ġà«¨à«¦à«¦ à««
Ġàªµàª³ àªĹ
àª¼ àª¾
3 6
àª¤ àª°àªķ
àª¤ àª°àª£àª¨
àª°àª¨ àªµ
àª°àª¸ àª°
Ġàªħàª¸ àª²
Ġà«¨à«¦à«¦ à«ª
p h
àª ĳ
Ġàªµ àªŁ
Ġàª¦ àª³àª¨
Ġàª¨ àªĹ
ĠàªŃ àª¦
Ġàª¯ àª®
àª§àª¨ àª®
àªī àªªàª°
à¤ ·
Ġa fter
al e
ĠH e
n e
àª° àªł
à«ĭ âĢĿ
Ġàªħ àªľàª®
àªŁ àªªàª£
àª¡ àªĿ
à«ģàªĤ :
àªı àªı
Ġàª¯ àª¥
Ġt ime
Ġf l
Ġà«§à«¯à«¬ à««
Ġ #
Ġ Î
àª¸ àª¦àª¨
Ġàªĸ àª²
àªĪ àªĹ
Ġof f
Ġd o
ĠĠ Ġ
200 6
enc y
Ġ Y
àª¸ àª¹
Ġàªľ àª¸
Ġàªªàª° àª£
àª°àª® àª¶
àª¸àª® àª¯
Ġp e
à«ª à««
display style
4 7
k s
t s
Ġ ĊĊĊĊĊĊĊĊ
àª® àª¬
Ġàªķ àª²àª®
Ġàªķ àª¦àª®
àª¸ àª°àªķ
Ġàª¤ àª¸àªµ
ĠàªĹ àª°àª¬
àª°àªµ àª£
Ġàªīàª¦ àª¯
à«¨ à«©
if f
Ġ ]
Ġàªķ àªµàª°
àªļ àª°àª¨
àªı àª¶
Ġàª« àª°àªķ
Ġàª¯ àª¶
àªħ àª¥àªµ
ĠàªĪ àª¤
Ġth r
ĠU S
7 7
Ġàª ·
àªķ àªĹ
Ġàªļ àª¹
àªī àª°
Ġd es
Ġ4 00
Ġàªĳ àªķ
ĠàªªàªĹ àªª
3 8
Ġ und
àª¨ àªµàª¤
Ġàª¤ àª¨
àªª àª°àª¤
Ġàª¡ àªŃ
à¤ Ł
Ġthe re
Ġàªĭ àª£
c ial
l i
t ed
Ġ ?
àªķ àª¸àª¨
àªŁ àªª
àª¡ àª³àª®
Ġàª¨ àª·
Ġàªĵ àªķàª²
Ġà«¨ à«¯
Ġw ould
Ġp re
Ġl ike
àªµàª¹ àª¨àª¨
Ġàª¤ àª®àª¨
àªĹ àªŁ
àªĪ àª²àª¨
àª¸àª° àªĸ
Ġo ut
Ġàª¸àª¹ àªŃ
Ġp o
Ġl oc
ĠP r
um b
à«ĪàªĤ à«¤
Ġbet ween
g an
m an
Ġàªķ àª«
àª¸ àª°àª®
Ġàª¹ àª¯
àª¹ àª¥
ĠàªĹ àªµ
Ġàªĸ àª¡
in ce
Ġc ount
àªıàª¸ àªª
Ġà¤ °
àª²àª¬ àª¨
Ġà«ª à««
à«ĩ" .
x t
àª² àªķàª¨
àªŁ àª¸àª¨
Ġàª¨ àª¶
Ġa g
àª°àª¹ àª®
à«¨ à«¬
Ġ15 0
ist s
Ġtr ans
w w
| -
àªķ àªŁàª¨
àª£ àªļ
àª¥ àªĺàªŁàª¨
Ġàªĸ àª¤àª°
Ġàªī àª¸
Ġàª§ àª°àª®àªª
à«Ī .
Ġàª¬àª¨ àª¶
Ġàª¶àªķ àªµ
Ġàª¶àªķ àª¯
àª²àªµ àª£
Ġà«Ń à«¦
Ġà«¨à«¦à«§à« ª
ow ever
Ġknow n
3 9
àª² àª¬àª°
àªľ àª¥
àª¦ àª°àª¤àª®
àª¹ àª£
Ġàª¬ àªª
Ġàª¬ àª³àª¨
Ġàªĵ àª²àª®
âĢ Ķ
Ġàªīàªª àªľ
Ġà¤ ¦
as ed
Ġe ar
àª¹àª° àªļàª¨
Ġàª«àª³ àª¦
l ic
àªķ àª¦
ĠàªĨàªµ àª°àª£
àªĸ àª²àª¨
àªŃ àªĹàªµ
ĠàªĨàªª àª¶
Ġw e
Ġàªµàª¡ àªĹ
ou p
àª¯àªª àª¦
Ġàªıàª¸àªıàª® àªıàª¸
Ġthr ough
Ġ ent
Ġ à¦
àª¾ à«¤
à«ĩ )
à«ĭ àªĥ
àª¶ àª¬
àª¶ àª³àª¤
Ġàªķàª° àª£
àª¬ àªĹ
àª· àª¯àª®
àª®àª¨ àªµ
àªĪ àªª
Ġàª§ àª¡
àªµàª¨ àªĹàª°àª¨
à¤ Ń
àªªàª° àª¸
ĠàªĪ àªķ
Ġthe m
Ġà¤ Ĺ
Ġà«© à«®
ot her
200 8
if ic
Ġcom p
ire ct
ĠÂ ·
2 1
à«ĩ âĢĻ
àª¯ àª¯àª¨
àªķ àªļ
àª² àª«
Ġàª² àª¹
à¤ ľ
he s
Ġàª¨àªķ àª¶
àª®àª¤àª¨ àªĹàª°
Ġund er
3 1
9 9
àª¿ "
àª² àªŁ
Ġàª¹ àª²àª¨
àª¬ àª¨àª¨
Ġàª®àªĹ àªľàª¨
ou th
ent s
Ġv al
Äģ d
ib le
Ġwhe re
c ed
àª¾ /
Ġàª¤ àªµ
àªĹ àªķàª°
àª³ àª¦
àªĸ àª¥
Ġàª¸àª® àª¤
Ġà«§à«¯à« ¯à«¦
Ġof ten
à«§à« ¯
Ġ3 6
Ġà«© à«§
Ġ4 5
et h
19 6
Ġbe l
Ġv i
s p
àªµ àª£àª¨
Ġàªª àªĹàª¨
ĠàªĨ àª°àªķ
àªľ àª¶
Ġàª¬ àªĸ
Ġàªı àª°àª¬
àªı àªŁàª²
à¤ ļ
in es
Ġs a
àª¯àª° àª°
Ġp h
Ġn ew
Ġàªıàªª àª²
os e
200 5
Ġ) ,
5 5
l es
à«ĭ '
ĠàªĨ àªĩàª¡
Ġàªľ àª¡
àªª àª¸àª®
àªĸ àª®àª¨
Ġàª² àª¸
àªı àª¸àª®
àªĩàª¨ àª°
àªĹàª¤ àªµ
ĠA n
ĠàªĨàªĩ àª¸àª²
à«§à«¯à« ª
Ġàªµàªĸ àª¤àª¨
ual ly
7 8
Ġàªķ àª¢
Ġàªµ àª³àª¤
Ġàªıàªķ àª¥
àªĩ àªªàª°
Ġàªīàªª àª¨àªĹàª°
Ġ19 20
Ġàªªàª¡ àª¯
Ġà«© à«¦à«¦
Ġà«© à«©
Ġ4 2
Ġon ly
sil ver
2 9
= =
Ġ her
Ġàªı àªµàª°
àªĸ àªµàªµ
àªĪ àªķàª²
Ġàª§ àª£
àª¸àª¨ àª²
Ġà¤ ¤
Ġàª²àªĸ àª¨
il d
Ġà«© à«Ń
àª¡àªķ àª°àª¨
Ġ6 5
Ġn o
Ġàªªàª² àªŁàª£àª¨
àª®àª¹ àª¤
Ġst ud
u res
àª¦ àª¹
Ġàª¦ àª°àª¨
Ġàªļ àª³
à«ĭ. "
àªī àª®
à«įâĢ Į
Ġàª®àª° àªļ
Ġàªªàªķ àªµàªµ
ol d
Ġàªħàªķ àª¬àª°àª¨
Ġ198 4
Ġ198 9
ĠG overnment
Ġ194 5
Ġab out
8 3
àª° àªľàªķ
àª¨ àªĿ
Ġàª¸ àª¬àª¸
Ġàª® àª°àªķ
àªĹ àª³àª¨
Ġàªĵ àª²àªª
Ġàª®àª¹ àª¦
Ġa c
à¥ Ĥ
àª²àªĹ àªŃàªĹ
Ġà«§à«¯à«Ń à«§
ĠF ilm
l u
Ġ en
Ġ ra
àª Ķ
àª¯ àª°àª®
àª² àªķàªµ
àªŃ àª³àªµ
àªĩ àªĿàª°
àª« àª®
Ġàªļ àª°àª£
àªµàª² àªªàª®
à¤ ¥
Ġa p
Ġàªķàªª àª®
an n
àªķàª¸ àªŃ
à«¨ à««
Ġin d
Ġàªªàªķ àª¡àªµ
Ġà«§à«® à«¦
Ġà«¨à«¦à«¦ à«¨
Ġàª¸àª®àªľ àª£
ian s
ĠĠĠĠ ĠĠĠĠ
o y
àª¯ àªµàª°
Ġàªľ àªĹàª¤
àª£ àª¦
à«ĩ. ..
àª¹ àª¨àªµ
Ġàª¦ àª®àª£
Ġàªı àªĹ
àªĩ àª¸àª¨
àªĩ àªĿàª¨
àªķàª¨ àª¨
àªµàª¨ àªķ
àª°àª¸ àªµ
il es
àªªàªķ àªªàª£
à«¯ à«¦
Ġà«¨à«¦à«§à« «
Ġ197 1
à«§à«¯à« ®
7 2
S I
p ress
Ġ \
àª¿ àªĥ
Ġàª¤ àªŁàª¸
àªĹ àªĿ
àª¡ àª²àª¨
Ġàª¹ àª°àª£
àª°àª£ àªŃ
Ġàªĵ àª°àªķ
âĢ ľ
re t
ĠàªĿ àª°àª£
Ġàªħàª¹ àª®àª¦
is e
àªŀ àª¤
Ġw ell
àªıàª® àªı
Ġàªµàª³ àª¤àª°
8 9
c ent
Ġàªķ àª¤
Ġàªķ àªĩ
àª¸ àª°àª£
ĠàªĽ àªª
ĠàªĹ àª¢àªµ
Ġàª° àª¬
Ġàª¨ àªĸàª¤
àªĺ àªµ
àªĺ àªŁ
er t
ĠàªĿ àªµ
Ġw ill
Ġ3 00
Ġàª²àªĸ àªªàª¤
Ġà«§à«¦ à«¦à«¦
Ġàªĳ àªĹàª¸
àªıàª« àªĵ
àªľàª¯àª¨ àªĹàª°
Ġàª¹àª³ àªªàª¤
4 9
5 7
àª Ĳ
à«ĩ âĢĿ
à«į ,
àªµ àª°àªķ
à«ģ :
Ġàªµ àª³àªµ
Ġàª¦ àª¸àªķ
Ġthe se
Ġs m
àª®àªķ àª¤
Ġàªľàª¨ àª°
Ġ20 11
Ġre g
ĠH ind
op e
à«§à«¯à« ¯à«
Ġà«§à«¯à«¯à« ¯
Ġ194 7
Ġsu b
Ġ185 7
Ġmov ies
Ġlar ge
4 2
h a
o ot
Ċ ĉĉ
àª¨ àª¯àª¨
àª¨ àª²àª¨
àªķ àªªàª£
Ġàªķ àª¡àªµ
ĠàªĨ àª°àª¸
àªª àªĹ
àªª àªª
Ġàª¹ àª²àªķ
Ġàªıàªķ àª¸àª°àªĸ
àªľàª° àª¨
àªĨ àª¸
àªĨ àªª
àª®àª£ àª¨
an k
Ġàªķàª® àª³
Ġàª®àª¦ àª¦àª¨
Ġre m
ro w
o ok
àª¯ àªķàª¨
àª¸ àª³
àª¹ àªł
àªļ àª²àª¨
àª¶àª¨ àª¥
Ġàªĩ àªĿàª°
àª¸àª¨ àªķ
àªķàª°àª£ àª®
Ġàªıàª² àª¸
ur y
ĠàªŃàªĹàªµ àª¦
Ġà«§à«¯à«Ń à«¦
ĠF TP
pe ct
iz e
0 3
2 3
C o
àª¨ àªĪ
Ġàª¸ àª¯
àªľ àª¬àª°
Ġàª¦ àª¶àª®
àªļ àª°àª²
Ġàª² àª¤
Ġàª² àª²
àªĹàª® àª¤
Ġo b
ĠàªĿ àª°
Ġà¤ Ń
Ġà«¯ à«¦
Ġ194 0
du st
à«¨à«¦ à«§à«§
s c
à«ĩ '
àª¸ àª°àª¤
àª¸ àª¬àª°
Ġàªľ àªĪàª¨
àª¹ àª°àª²
Ġàª¬ àª°àª¡
àªĵ àªŁ
Ġàª§ àª®àªķ
àªĽ àª®
àªĨ àªĩàª¨
àªī àª¡
àªī àª·
àªħ àª§
Ġs ong
at ive
âĢĻ âĢĻ
ĠàªĹàª£ àª°
àª°àª¬ àª³
à«® à«¦
ĠI I
Ġe ff
à¥ĩ à¤Ĥ
Ġ196 2
Ġàª°àª£ àªĽ
j ect
à«ĩ /
àª¨ àª¸àª¨
àª® àªļàª°
àª¡ àª£
Ġàª¦ àª¸àª®
Ġàªķàª° àªľàª£
àªĪ àªĵàª¨
Ġàªĵ àªĹàª£
à«ģàªĤ. "
Ġàª®àª³ àª¶
ĠâĢ Ķ
er v
at ure
Ġb l
ĠàªĺàªŁ àª¤
ĠB h
Ġ193 0
g y
àªĹ àªªàª¤
àª¯àª® àª¯
ĠàªĬ àª¡
at her
Ġàª¸àª¹ àªľ
Ġd uring
Ġd iff
àª°àªĸ àª¬àª°
Ġà«§à«¯à«« à««
Ġex t
2 000
à §
àª° àª§àª°
àª£ àªªàª¤
Ġàªħàª¨ àª¨
àªĸ àªª
Ġàªļ àªŁàª£
à«Ī ,
âĢ į
àªĿ àª°àª²
àª¤àª° àª¥
àªĺàª° àªľ
in ates
er m
on s
Ġs im
Ġbe ing
ri es
Ġàª¸àª®àªķ àªķ
Ġàª¸àª³ àªĹ
ĠHind i
g est
k m
p r
v en
à«Ģ àªĥ
àªµ àªĹàª¢
àª¯ àªŁàªķ
Ġàª¸ àª°àª¨
Ġàªµ àªľ
àª§ àª¥
àªļ àª³
ĠâĢ į
Ġc all
Ġàªħàªª àªŃ
Ġe m
ĠC ent
Ġàªį àª°
iz ed
aus e
|- |
Ġàªļàª³ àªķàª¤
7 3
h an
àª° àª³àª¨
àª¨ àªŁ
àª® àªļàª²
àª¸ àªĹàª¢
ĠàªĨ àªī
ĠàªĨ àª®àª²
Ġàªľ àªª
àª¡ àª¯àª¨
àª¬ àªļ
àªĪ àªľ
àªı àª¨àª¨
àªĨ àªķ
àªĨ àªĪàª¨
àª¯àª® àª¥àªķ
op le
àªıàª« àªıàª¸
. ,
6 6
g al
àª® àªªàª°
ĠàªĨ àªĹàª²
Ġàª¬ àª³àª¤
Ġàªıàª¨ àªŁ
Ġc or
Ġm ade
Ġ3 3
Ġà«« à«¦à«¦
ur al
ut ion
ag es
à«§à«¯à« Ń
Ġwhe n
àªĭ àª¤
Ġye ars
* ||
8 5
àª¨ àªļ
Ġàª¸ àª¶àª¸
àª¸ àªĹ
àªĹ àª¯
àª¥ àª¥
àª¦ àª¬
àªŃ àª¤
Ġàªıàªķ àª®àª¨
Ġm ill
le ct
àªĨàª¤ àª¥
res id
Ġ198 8
ĠE ur
7 9
àª¤ àªĵ
à«ĭ âĢĻ,
àª² àª¹
Ġàª¸ àª¡àªķ
Ġàªķ àª¥àª¨
Ġàª° àª¥
Ġàª¶ àª£àªĹ
Ġàª² àªĸàª¤
Ġàªªàª° àªª
Ġàªīàªª àª¨àª¦
àªĨ àªªàª£
Ġa cc
nd er
Ġin dust
Ġà«¨à«¦à«¦ à«©
ro p
Ġ197 5
Ġde c
Ġàª¹àª³àªµ àª¦
olog y
à ±
àªķ àª°àªµ
àªĹ àª«
àªŁ àª¯
àª¡ àªŁ
àªļ àªª
Ġàªªàª° àªĹàª£
àª¦àª° àª¥
Ġs ur
Ġc re
Ġàªľàª¨ àªľ
ĠâĢĺ âĢĺ
à«¨ à«¯
Ġm an
Ġm ain
Ġàªıàª® àª¬
Ġà¤ Ĩ
Ġàª®àª¤ àª²àª¬
ot h
Ġ198 7
ra ct
Ġà«§à«¯à«ª à«¬
Ġàª¤àªª àª¸
Ġà«§à«¯à«¬ à«¨
Ġà«§à«¯à«¨ à«®
oc k
ord inates
Ġà«§à«®à«« à«Ń
o ol
y es
àª¨ àª°àª¨
Ġàª¸ àª¡
Ġàªħ àª¯àª¸
Ġàª¦ àª¶àªķ
àªĨ àªīàªŁ
ĠàªĨàªª àª£àª¨
Ġàª®àª§ àª°
ĠàªĹàª£ àªªàª¤
Ġà«ª à«¦à«¦
od s
Ġ197 9
ere d
Ġà«§à«¯à«¯à« ®
Ġàªļàª³àªµ àª³àª®
ant s
Ġdis c
Ġvi ew
Co ordinates
n o
àªĸ àª®àª®
Ġàªĸ àª°àª¡
àª§àª¨ àªª
Ġt em
àªħ àª¶
àªħ àª®àª¦
àª°àª¥àª® àªµ
àªıàª¸ àª¸
àªīàª¨ àª²
am il
àªµàªª àªŁ
Ġ198 5
Ġg ener
Ġà«§à«¯à«Ń à««
Ġinc re
mer ic
3 4
5 8
l ed
Ġ id
Ġàª¸ àªĹàª°
àªľ àª¹
àªª àªķàª²
à«ģàªĤ "
Ġàª° àª£àª¨
Ġàªı àªı
Ġàªı àª²àª¨
àªĵ àªµ
àªĩ àª«àª²
Ġàªªàª° àª«
àªĪ àª°
Ġàª« àª³àª¨
in s
in em
Ġàªªàª¹ àª²
Ġàªıàª¨ àª¸
Ġà«« à««
ĠA r
ĠàªľàªĹ àª¤àª®
Ġ198 6
à¦ ¾
Ġà«§à«¯à«¨ à«¦
m it
à«ģ "
àªĹ àªµàª¤
Ġàª¹ àª¡
Ġàª° àª¸àª¨
Ġàª« àª¸
àª°àªķ àª®
Ġàªĵ àª³
àª°àª¸ àª°àª£
àª¸àª° àª¥
Ġthe n
Ġp os
Ġn um
ĠC om
Ġà«¨à«¦à«§à« Ń
if e
à¥ĭ à¤Ĥ
Ġàª¬àª°àª« àª¨
Ġpart ic
Ġwor ld
ivers ity
9 8
ĠàªĨ àªĩàªı
Ġàªħ àªĺàª°
àªŁ àª®àª®
àªª àª¨àª¨
Ġàª° àª¸àªª
Ġàª§ àª¸
àª°àªķ àª°
Ġàªīàªª àªŃ
àªī àª¨àª¨
ĠàªĪ àªľàª¨
ĠàªĬ àªªàª°
it ation
Ġd irect
Ġ18 0
st em
id d
ad ition
Ġà«§à«¯à«« à«¨
Ġat t
Ġr u
oll ow
Äģd a
àª° àªªàª£
àª¨ àªĸ
à«ĭ âĢ¢
àª¸ àª¦àª®
Ġàªµ àª¢àªµ
àªļ àª¤àª°
ĠàªŃ àªĹàª¤
Ġàª² àªŁàªķ
àªĪ àª¤
àªĪ àªĹàª°
Ġàªĺ àª¸
àª¤àª¨ àª®
er r
as h
Ġ7 4
ĠK r
Ġà«§à«¯à«« à«Ń
Ġà«§à«¯à«« à«¬
Ġà«§à«¯à«® à«Ń
Ġà«§à«¯à«¯à« §
iss ion
d s
n c
Ġàªµ àª¯àª¸
àª· àª¦àª®
Ġàªļ àª¯
àªī àªļ
ĠàªĬ àª¤àª°
at ing
ed ia
Ġb ir
Ġàª®àªķ àª¬àª°
Ġ3 7
à«¬ à«¦
Ġàªļàª² àª£àª¨
ĠA meric
Ġàªħàª¸àª° àªĹ
Ġ7 3
am a
ĠC he
à¤° à¤¤
Ġà«§à«« à«¦
ri pt
Ġv ar
aj or
Ġspe c
ĠàªŃàªľ àªµàªµ
2 7
4 4
f ore
Ġ x
àª² àª¤àª®
Ġàªħ àªŁ
àª¹ àª¨àª¨
àª§ àª¶
àª³ àª°
àªŃ àªª
Ġàªĵ àª®
àªł àª¤
Ġàªĩ àª¬
ar n
ĠàªĹàª£ àª¦
à«¨ à«ª
àªŁàªķ àª®
àªīàª¨ àª¶
Ġàªħàªµ àª¯àªµ
Ġd ate
Ġ197 3
Ġà«§à«¯à«Ń à«¨
enc es
7 4
9 5
e k
m a
t ok
àª¨ àªµàª¨
àª¨ àª¬àª°
Ġàª® àª¨àª¨
Ġàªµ àª¡àª¨
Ġàª¬ àª¡
ĠàªĨàªµ àªķàª®
Ġàªļ àª®àª¤
àªı àª®àª£
Ġàª« àªĹ
àªĿ àª¬
àª§àª¨ àª°
à«© à««
Ġ4 8
ĠàªľàªĹ àª¤àª¨
Ġàª¬àªļ àª¤
Ġàªĳ àª¸
Ġ198 1
200 4
Ġst ate
ang tok
ward s
Ġpe ople
E E
p or
t p
àª¨ àªµàª°
àª¿ âĢĻ
Ġàªª àª¯àªĹ
Ġàª® àª¡
ĠàªĹ àª¨
àª§ àªķàª¨
Ġàª° àª¡
Ġàª¬ àªļàªµ
àª°àªķ àª²
àªł àªķàª®
Ġ1 000
Ġàª®àª¹ àª°
Ġa pp
àª¦àª° àª¡
in a
in ist
ĠàªĬ àªŁ
à«¨ à«¨
Ġàªħàªµ àªĹàª£àª¨
àªĨàª° àªŁ
Ġe nd
Ġn ame
Ġàªīàª² àªŁ
Ġà«§à«¯à«ª à««
200 9
Ġà«§à«¯à«© à«¨
Ġàªħàª« àª¸àª°
Ġus e
ub lic
vel op
a w
Ġ i
Ī Ĵ
àª¨ àªı
àªµ àª¤àª°
à«ĭ /
àªķ àªľ
àªĹ àªľ
àªª àªĸ
àª£ àªķàª°
Ġàªµ àªľàª¨àª¨
àª¹ àª¬
àªĸ àª¨àª¨
àªı àª²àªª
Ġàªīàªª àªķ
àª¤àª° àª¡
Ġàªīàª¤ àª°àª¤
ĠàªĪ àªĿàª°
Ġàª¨àªµ àªľ
Ġc ult
Ġm ark
Ġ6 4
Ġàª¢ àª¬
ĠP resid
àªĨàªĩ àªª
àªĹàª¡ àª®àª¨
Ġ196 9
199 0
int ed
Ġcomm on
ĠCent ral
, .
0 5
àª® àª¦àª¨
Ġàª¸ àªĺàª¨
àª¸ àªĵàª°
àª¡ àªľ
ĠàªĹ àªľ
ĠàªĹ àªł
Ġàª¦ àª®àª¨
àªļ àª¥
Ġàªı àª°àªµ
Ġàªĸ àª¤àª®
Ġàªªàª° àª¦
àª°àª® àªĹ
àªµàª° àª¸
Ġàª°àª¹ àª¯
àªĹàª¤ àª¤
is ion
ar g
Ġàªķàª² àª°
Ġm ajor
Ġp res
Ġàªıàª® àªŁ
ic t
Ġ5 4
Ġre le
im es
ut h
Ġà«¨à«¦à«§à« ¬
Ġ198 2
ĠH owever
ow er
Ġse x
ĠW est
ĠàªĹàªĿ àª²àª¨
Ġinclud ing
Ġsm all
c o
u ch
x f
Ġ à¥
Ġ very
àª į
àª¯ àª«àª³
àª¸ àªķàª°
àª¥ àªĹ
Ġàª° àªĺ
àªĸ àª¶
Ġàª§ àªª
he m
in al
àªħ àª®àª°
Ġàªıàª¨ àª¬
à«« à««
Ġà¤ ¬
ic k
Ġor ig
àª¹àªľ àª¹
pos ition
Ġval ues
Ġap pe
àª¤ àªĹ
àªķ àªµàª°
àª¸ àªµàª°
àª£ àª°
àª£ àª¯àª¨
àª¦ àªľ
àª¦ àª¦
àª¦ àª¯àª¨
àª§ àª¸
à¤ ¬
it s
à«¨ à«Ń
Ġm iles
Ġà¤ ¶
Ġàªľàª® àªµ
ĠA l
Ġe ye
Ġwh ile
àª¨àª¹ àªŁàª¨
ang u
Ġcont in
Ġcent ury
Ġfe et
0 6
i ence
Ø §
á ¹
àª¾àªĤ -
Ġàªª àª®
ĠàªĨ àªĩàª²
àªľ àª°àª¤
Ġàªµ àª¨àªµ
Ġàª° àª¨àª¨
Ġàª° àª¤àª¨
àªĸ àª¦
àª· àªķàª¨
àª· àª¯àªµàª¸
àªĵ àªª
àªĵ àª¡
Ġàªĵ àªµ
Ġàªķàªª àª¡àªµ
is hed
à«¨ à«®
à«¨ à«§
Ġàªķàª® àª²
Ġh igh
àª¯àª² àªķ
Ġe yes
Ġl ong
à¤¾ à¤Ĥ
Ġàª°àªķ àª®àª¨
ĠàªĨàªĩ àª¬
ĠP ress
ĠThe re
Ġà«§à«¯à«¯à« ¬
ye ar
Ġad d
Ġcent er
Ġcall ed
6 7
: //
L AN
àª¨ àª¤àª®
àªķ àªł
àª² àª°àª®
Ġàª® àªĿ
Ġàªħ àª°àª¸
àª£ àªı
àª¦ àªķàª¤
ĠàªŃ àªļ
àª· àª¬
àªĿ àª¬àª°
Ġ1 20
àªµàª° àªª
àª£àªµ àª¡
Ġt ra
Ġ2 50
Ġs ing
àª®àªķ àª¡
àª®àªķ àª°àª£
Ġc ity
Ġp ers
ĠS e
Ġ7 9
àªµàªŃ àª°àª¨
à«¯à« «
à«§à«¯à« ¬
Ġà«§à«¯à«® à«¯
Ġàªıàª« àªıàª®
oug ht
II I
ĠàªĵàªĹ àª·
Ġam ong
Ġàªıàª°àª¬ àª¸
b le
u c
w ar
àªµ àª²àª¨
àªŁ àª°àªµ
Ġàª¨ àª²
Ġàª¬ àªķàª°
à«Ĥ -
àªĩ àªŁàª°
àª¯àª¨ àª¥
àª¸àª¨ àªĹàª°
àª°àª¸ àª®
àª°àª¹ àª²
Ġc o
al ign
Ġin st
Ġà¤ ĩ
à«© à«©
le ft
Ġà«© à«ª
200 2
àª¨àªĹàª° àªª
à«¯à« ¬
Ġà«§à«¯à«¯à« Ń
Ġàª°àª£ àªĹ
ish na
Ġtr adition
ric t
Ġdiff ere
3 7
3 00
I P
_ {
l ish
àª² àª¸àª¨
àª¸ àªµàª¨
Ġàªľ àª¬àª°
Ġàªľ àªĩàª¨
Ġàªľ àª³àª¨
Ġàªħ àª°àªµ
Ġàª¹ àª¬
àª³ àªª
Ġàªªàª° àª¶
Ġàªĵ àªľ
à«ĭ. .
àªī àªª
àªī àª¸àª¨
Ġàªĩ àª¯
Ġàª¸àª° àª¹
àª¯àª° àªļàª¨
es h
Ġw rit
Ġw ater
ĠI V
ĠA f
âĢĿ ,
ĠB en
id s
el f
Ġà«§à«¯à«® à«¨
ak ing
Ġse c
Ġex am
ment s
Ġà«§à«®à«® à«ª
cc ess
cent er
inem a
Ġpartic ular
% ,
0 9
7 1
8 4
e le
r on
y a
Ġ Ï
Ġ est
àª® àªµàª°
Ġàªª àª¦àª¨
à«ģàªĤ -
Ġàª° àª¬àª°
Ġàª¦ àª®
Ġàªı àªıàª®
àªŃ àª°àª¨
ĠàªĨàª° àª¸àª¨
Ġc ur
Ġp p
ent ly
ĠG angtok
Ġ197 4
Ġà«§à«¯à«¬ à«®
à«§à«¯à« «
Ġà«§à«¯à«® à«ª
Ġà«§à«¯à«¯à« «
Ġsh ow
Ġch ang
way s
àªĲ àª¤
6 5
i et
l im
àª¨ àªªàª£
àª¤ àª¬
àª¸ àªı
Ġàª® àª¯
àª¶ àª¯àª¨
àª§ àªļ
Ġàªļ àª¨
àªµàª¸ àª¤
Ġàªĵ àªĹàª³
àªī àªĽ
Ġàªªàª¡ àª¦
Ġm on
àªıàª¸ àªıàª¸
àª¥àªķ àª°àª£
à«Ń à««
19 80
ĠM ah
Ġà«§à«¯à«ª à«ª
ist an
ĠG az
200 1
Ġà«§à«¯à«¬ à«§
Ġ196 7
Ġar t
rib ut
Ġbec ame
Ġgr oup
Ġnum ber
ĠKr ishna
0 7
a ik
c ess
o h
àª¤ àª²àªª
àªµ àªŁàª®
àª¯ àª§
àª² àª£
Ġàª® àª¢
àªĹ àª¨àª¨
àªĹ àª¶àª°
Ġàª¹ àª¡àªª
ĠàªĹ àª¹àª¨
Ġàª° àª£àª®
Ġàª° àª®àªķàª¡
Ġàªī àª¶
àªĩ àªµàª°
àª°àª£ àªµ
Ġàªĵ àªķàªŁ
àª¤àª° àª«
àª¸àª® àªĹ
Ġs l
at a
Ġp ol
as es
et te
Ġ5 1
Ġre al
Ġàªħàªµàª¸ àª°
Ġàªµàª² àª£àª¨
Ġà«§à«¯à«¬ à«Ń
Ġà«§à«¯à«Ń à«ª
ain s
Ġbel ie
ĠEur ope
Ġindust ry
f orm
à«ĩ à«¤
àª¨ àªµàª¸
àª¸ àªŃàª°
ĠàªĨ àªĹàª¨
ĠàªĨ àªķàª¸
Ġàª® àª«àª¤
àª¹ àªķàª¨
àª¹ àªĿ
Ġàª¦ àª·
àªĩ àªĹ
àª°àª£ àª¸àª°
Ġàª¸àª® àª²
àªĺ àª°àª¨
àªľàª¨ àª°àª²
in k
àªħ àª¬
àª¸àª° àª¦
an al
Ġw ay
àª¤àªķ àªµ
Ġm em
ĠàªĨàªĩ àª°
Ġà«§à«¯à«ª à«¦
Ġà«§à«¯à«ª à«¯
Ġ197 6
ia nder
Ġàªľàª³ àªļàª°
Ġan im
Ġà«§à«¯ à«¦à«¦
Ġà«§à«¯à«¯à« ª
av es
ĠUn ited
Ġmus ic
) .
8 7
c ol
u ed
àª Ļ
àªķ àª«
à«ģ à«į
ĠàªĨ àª¸àª¨
àª¶ àªŃàª°àª®
ĠàªŃ àª£àªµ
Ġàª« àªķàª¤
àªĿ àª®àª¨
àªħ àªľ
àª¸àª® àª°
àªķàª¸ àªªàª£
ed s
Ġf ollow
Ġb oth
Ġà«¬ à««
à«© à«Ń
àª²àªķ àª¤àª¨
Ġth ree
ĠP ro
Ġ197 2
Ġ197 7
Ġà«§à«¯à«¬ à«¯
Ġà«§à«¯à«Ń à«¬
Ġà«§à«¯à«© à«Ń
Ġ194 8
Ġàªıàª« àªı
iv ed
ĠV LAN
ical ly
ĠChe ck
ĠGaz ette
4 6
t he
à«ĩ !
àª° àªĸàª°
Ġàªľ àª³àª®
Ġàªħ àªĿ
àª¡ àª°àª®
àª¬ àª¥
àªī àªĿàª°
Ġt y
Ġs et
ĠàªĬ àªł
Ġc ould
al a
ar ch
Ġb r
à«© à«¨
à«© à«®
Ġ5 9
Ġ6 00
ver al
Ġà«§à«¯à«© à«¬
ĠL AN
Ġsu ccess
Ġinf lu
Ġmod ern
ĠPresid ency
xf ord
0 2
A s
e x
àª¿ '
Ġàªª àªµàª¨àª¨
à«ĩ. ,
àª¹ àª¡
ĠàªŃ àª¤
àª¬ àªĩàª¨
Ġàªĸ àªµàª¡
Ġàªī àª¡àª¤
Ġàªıàªķ àªľ
àªĨ àª°àª¸
àªŁàª° àªĹ
Ġf ore
or ld
Ġà¤ ī
Ġd ay
am p
ĠB rit
Ġas s
à«§à«¯à« ©
Ġà«§à«¯à«¯à« ¨
Ġse veral
Äģ nt
à¥Ī à¥¤
ru ct
Ġsy stem
Ġru pe
Ġdiffere nt
ĠGazette er
) ,
0 1
4 00
5 3
i red
p ur
r am
àª° àªľàª¨
àª¾àªĤ :
Ġàª¤ àª°àªķ
Ġàª¨ àªĸ
ĠàªŃ àªł
Ġàª¸àª® àª¯àªķ
àªĨ àªļ
àªī àªŁàª°
Ġs ince
Ġàª°àªľàªķ àª£
at ic
Ġc ap
Ġàªĵàª³àªĸ àª¤
à«« à«Ń
Ġb u
Ġm ed
Ġàªıàª® àªª
à«ª à«®
Ġà«ª à«®
àªľàª® àª¹
Ġn ow
ĠM us
Ġg reat
Ġà«§à«¯à«ª à«§
Ġàªªàª² àªŁ
Ġàªħàª¦ àªŃ
Ġ196 5
pe nd
Ġv ill
Ġact ors
Ġàªħàª¸àª® àª°
àªµàªĹàª¢ àª¬
B ollywood
r ation
àª¨ àªŃ
àª¨ àª®àª¨
àª¨ àªµàª²
àª¤ àª°àª¤
àªµ àªĸàª¤
Ġàª¤ àªĸ
àªľ àªªàª¤
àª· àªĹ
àª°àª¤ àªŃàª°àª®
Ġàª¡ àªĿàª¨
à«Ģ. .
Ġàª¤àª° àª¸
Ġàª®àª¹ àª®àª¦
Ġàªĩ àªª
Ġa v
àªħ àªµ
àª°àª¦ àª¯
Ġàª®àªĹ àªľ
à¥ ĥ
à«Ń à«¦
àªĹàª¢ àª®
àªļàªµ àª£
ĠA d
Ġn on
Ġàª¸àª¨ àª¦
ĠN H
Ġst yle
Ġà«§à«¨ à«¦
ĠL e
Ġor gan
àª¨àª¹ àªŁàª¨àª¨
Ġde velop
Ġpl ay
Ġev en
Ġâ Ĥ
Ġag ain
5 4
G A
a x
c itation
i x
àª¨ àªľàª°
àª® àªķàª°
àªĹ àª°àªķ
Ġàªħ àªĺ
Ġàª¹ àª¡àª¸àª¨
ĠàªĹ àªŃàª°
Ġàª° àª¬àª°àª¨
Ġàªıàªķ àª¦
àªĩ àª¶
àªĪ àªķàªµ
Ġàª§ àª®
àª¨àª¨ àª¨
Ġàªĩ àªĵàª®
àª°àªµ àªŁ
à¤ ĸ
in ed
Ġo ld
àªŁàªķ àª¥
Ġà¤ ²
Ġ. ..
à«Ń à«®
il os
à«ª à«©
ĠàªĨàª¶ àª¯
Ġà«® à««
Ġl ight
ro s
od aik
Ġ198 3
Ġg overnment
Ġà«§à«¯à«¬ à«¬
av Äģda
Ġmov ie
Ġeff ect
angu age
Ġàª¸àª°àª¹ àª¦àª¨
ilos op
odaik anal
6 9
d er
t y
t ing
Ċ Ġ
Ġàª¤ àªľ
àªª àª¸àª¨
Ġàªµ àª¶
àª¥ àª¯
àª¦ àª¸àª®
Ġàª¹ àª¦àª®
Ġàª¹ àª¡àª¤
àª³ àªĹ
Ġàª² àª¯
àª®àª¨ àª¸
àªĪ àª¶
àªĪ àª°àª¸àª¨
àª¤àª° àª¶
Ġàªĩ àª¥
àªµàª¨ àª¶
Ġs er
Ġm et
àªıàª¸ àª¡
as ing
Ġà«¬ à«¦à«¦
Ġàªıàª² àªļ
Ġn am
Ġàª²àª¡ àª¤àª¨
Ġ8 5
Ġ9 9
Ġà«§à«¯à«Ń à«Ń
Ġà«§à«¯à«Ń à«©
Ġà«§à«¬ à«¦
Ġà«§à«¯à«® à«©
àª¯àªŃ àªŁ
Ġch ar
a ir
b r
i o
t a
t i
u le
àª¨ àªªàª¤
àª® àªł
à«ģ '
àª¸ àª°àª¸
ĠàªĨ àªĪàª¸
Ġàªľ àª¸àª¦
àªľ àªªàª°
àªª àªĽ
àª¡ àª²àª®
àª§ àª³
àª§ àªĸ
àª¬ àªµ
àªı àªŁàª°
Ġàª¸àª® àªµ
âĢ Į
Ġàªµàª° àª¸àª¨
àªī àªªàª¯
àªŁàª° àª¥
Ġc ar
Ġàªħàª¸ àª¹
Ġàªħàª¸ àª¹àªķ
Ġb ro
Ġà«« à«¬
Ġà«ª à«¬
ĠS ome
àªıàª¨ àªı
àª°àª®àª£ àªķ
Ġan c
Ġ196 8
Ġà«§à«¯à«« à«¯
Ġà«§à«¯à«¯à« ©
Ġper i
hy s
5 9
8 6
A C
m e
m ber
v ent
Ġ if
àª¾ àªĥ
àªµ àªªàª°
Ġàªķ àª®àª°
ĠàªĨ àªĽ
Ġàª® àª¤àª¨
àªŁ àªĹ
àªŁ àª¦
àª³ àªªàª£àª¨
Ġàªĸ àªŁàª²
àªĵ àªµàª°
Ġàªī àª®àª¦
àªĺ àª³
àª¾. "
àªµàª¨ àª¸
Ġàª¦àª° àªĹ
àªľàªķ àª¤
Ġàª¶àª° àª¦
Ġs ound
Ġf ew
Ġàª¸àª¤ àª²
Ġin ter
à«ª à«¬
Ġto p
Ġà«« à«¨
Ġà«« à«¯
Ġ4 7
ĠA pr
ĠàªľàªĹ àª¦
Ġ5 5
Ġà«Ń à«®
ot e
Ġà«¨à«¦à«§à« ®
ul ation
Ġ197 8
Ġà«§à«Ń à«®
Ġà«§à«¯à«© à«¯
ud d
Ġà«§à«¯à«¨ à«¨
ĠO xford
ĠV III
ord ing
Ġàª¦àª¶ àªķàª®
Ġàª®àª¥ àªķàª¨
0 4
9 6
] ]
a ve
m on
n ess
àª° àªªàª°
àª¨ àªĸàª°
àª® àª¸àª¨
Ġàªħ àª°àª®
à«ĩ. :
ĠàªĹ àª³àª¤
àª°àª¤ àª¥
àª« àªı
àªĪ àª¡àª¨
àª¯àª¤ àª®
à«Ģ. ,
àªħ àª£
àª°àª¹ àª°
ar a
Ġà¤ Ķ
à«Ń à«¬
Ġàªħàªµ àªĹàª£
Ġàªķàªµ àªļ
Ġ7 00
ĠH ollywood
àª¼ à«Ģ
ĠE ng
Ġ195 9
Ġ80 2
Ġim port
Ġear ly
Ġàª¬àª³àª¤ àª£
Ġpos s
err or
ĠAf ric
Ġàªľàª¸àª¦ àª£
l and
à«į -
àª® àªı
àª¯ àªĿ
àª¯ àª£àª®
Ġàª¸ àª°àª®
Ġàª¸ àª¸àª²
àª¡ àª¦
Ġàª¹ àª°àª¦
Ġàª¨ àª¬
àª¬ àªŁ
àª· àª£àªµ
Ġàª² àªµàªļ
àªŃ àª¥
àª®àª¨ àª¦
Ġàªī àª¨àªķ
Ġàªıàªķ àª²àªµ
Ġàªļ àª°àª®
Ġàªļ àªªàªŁ
àª°àªµ àª¤
àª¤àª¨ àª¤àª¨
ĠàªĪ àªµ
Ġo cc
Ġs ame
an a
Ġàªĩàª¨ àªª
Ġàªªàª¦ àªŃ
Ġd i
Ġàªıàª² àªıàª²àªª
Ġ4 4
Ġ6 9
Ġà«§à«¯à«¬ à«©
Ġan y
20 10
Ġ196 4
Ġà«§à«¯à«« à«§
Ġcon st
Ġà«§à«¯à«© à«©
ak istan
Ġàªħàª« àªµ
ction s
Ġpl ace
Ġim p
Ġfe at
Ġà¤Ķ à¤°
T A
^ {
Ġ &
Ġ Z
àªµ àª¡àª°
àªķ àªĿ
Ġàª® àªĹàª°
Ġàªľ àªĸ
Ġàªħ àª®àª¨
Ġàªħ àªĽàª¤
àª¹ àª°àª¨
àª¹ àª¸àª¨
àª§ àª£àª¨
àªļ àª¶
Ġàªªàª° àª®àªµ
Ġàªļ àª®
àªĪ àª¡àª°
Ġàª¯ àª¦
àªĺ àª°àª®
àªł àªŃ
àªµàª¨ àªĹàª°àª®
he n
àª¬àª° àª¡
Ġo wn
àªļàª¨ àª®
an i
Ġc inema
Ġw ord
Ġàªķàª² àª¬
à«Ń à«¨
il ar
et s
ĠS ik
Ġà«Ń à«©
Ġ20 12
àª¹àª°àª£ àª®
id es
ĠP akistan
Ġ8 6
à«¯à« ª
ĠàªħàªŁàªķ àª³
Ġà«§à«¯à«« à«ª
ain ed
Ġsu g
Ġse e
Ġà«§à«¯à«¨ à«§
199 9
Ġà«¯à« «
ĠÂ £
Ġwor k
Ġy ou
ert ain
ĠApr il
a pt
g ed
p ar
Î ±
àª° àª¢
àª® àª¤àª®
àª¸ àª¯
Ġàª¤ àª¬àª²
Ġàªľ àª¯àª¦
àª¬ àª®àª®
Ġàªĸ àª¤
àªĩ àª¯
Ġà« ¤
àªĪ àª«
àªĨ àª¶
àªī àªķ
àªµàª¨ àªµ
àª°àªµ àªķ
à¤ ¡
er a
Ġs k
Ġc aus
Ġb ox
om in
Ġ5 2
ĠS outh
Ġl it
àªıàª® àª¬
ĠR aj
Ġàªį àª²
ĠF or
Ġ194 9
qu are
ĠO SI
Ġ193 9
ĠàªĨàªĪ àªª
Ġàª¹àª³ àª¦àª°
àª³àªªàª£ àª®
Ġcons id
ĠBrit ish
" "
5 2
8 00
h at
h ar
s ide
àª¤ àª®àª¨
àª¤ àªµàª¨
Ġàªª àª²àª¸
Ġàª¤ àªķàª¤
Ġàªľ àªĹàª¨
Ġàªħàª¨ àª¸
àª§ àªŃ
Ġàª¦ àªĸàª²
àª¬ àª²àª¨
àªĩ àª¸àª°
Ġàª§ àª¨àª¸
ĠàªŁ àª¨àª¨
àªĨ àª«
àªī àªĿ
àªī àª®àª°
àªī àª¡àª°
àª¤àª¨ àª¤
ĠàªĿ àª°àª¦
àª¯àª° àª°àª¨
àª¨àª® àª¥àªķ
Ġc rit
Ġàªħàª¸ àª«àª³
Ġh im
Ġà«® à«ª
Ġà«Ń à«¨
Ġ7 7
us s
her it
àª¸àª£ àªĸ
à«¯à« ¨
Ġà«§à«¯à«® à«®
Ġà«§à«¯à«© à«ª
Ġsu pp
Ġex press
Ġr un
à«¨à«¦à«¦ à«§
à¥Ī à¤Ĥ
ĠàªĨàªīàªŁ àªª
ener gy
tern ational
Ġcount ry
Ġph ilosop
, "
4 3
e f
h ip
i qu
p en
Ġ à¨
Ġ energy
àª® àªĺ
àªµ àªķàª°
àª¯ àªªàª°
Ġàª¸ àª§
ĠàªĽ àªŁàªķ
Ġàªµ àª²àª¯
àª¡ àª¹
àª¬ àª¦àª²
àª· àªľ
Ġàªĸ àª¤àª°àª¨
àªĩ àª¡àª°
Ġàªĵ àªĩàª²
àª£àªµ àªŁ
in herit
àª¦àª¨ àªķ
àªħ àª¦
àªħ àª¸àª°
re g
Ġs ch
is ed
àªķàª¸ àªµ
Ġb ack
Ġin v
Ġà¤ ¯
à«¬ à«¬
àª°àª¶ àª¸
ent ial
ur n
ĠA nd
Ġl ater
Ġàª°àª® àªĸ
àª¯àª£ àª¶
200 3
ĠK ath
Ġà«§à«¯à«¬ à«ª
Ġàªį àª¸
ri v
Ġà«§à«¯à«© à«§
ĠO r
og ra
Ġà«§à«¯à«§à« ¯
Ġà«¨à«« à«¦
Ġle aves
Ġbec ause
Ġdes c
Ġcount ries
0 8
5 6
U S
f ul
o v
t o
u red
Ġ Q
àª¯ àª«
Ġàª¤ àª°àª£
Ġàªľ àªķ
Ġàªľ àª¨àª¨
àª£ àªľ
Ġàªµ àª°àª£
ĠàªĹ àª®àª¤
Ġàª° àªĹ
Ġàªı àªĿ
ĠàªŃ àª¸
Ġàª¶ àª°àª®
àª¬ àª³àª¨
Ġàªĸ àª¦
Ġàªĸ àªŃ
Ġàª¥ àª¡
àªı àªĿ
Ġ19 11
Ġc ond
il ity
om en
ĠA cc
àªıàª® àªŁ
Ġbe fore
os sil
Ġg en
Ġg iv
àªĨàªĩ àªıàª®àªı
ĠàªĲ àª¶
Ġal ign
Ġan ek
em ent
Ġ196 6
Ġcon f
à«§à«¯à« ¨
Ġàª¬àª³ àª¦
Ġà«§à«¯à«® à««
Ġà«§à«¯à«® à«¬
Ġà«§à«¯à«¨ à«Ń
Ġà«§à«¯à«¨ à«©
Ġà«§à«®à«® à«§
Ġact iv
Ġro ad
ĠDe v
ĠSt ates
Ġpers on
Äģnt avÄģda
8 8
I V
c es
Ġàªª àªŁàªķàª¥
Ġàª¸ àªļàªµ
Ġàª¸ àªĺàª³
àª¸ àªķàª¨
Ġàªľ àª¬
àªŁ àªĿ
àª¡ àª§
Ġàª¬ àª¢àª¤
àª¬ àª³àªµ
Ġàªī àªĺàª°
Ġàªıàªķ àª¸àª®
àª¤àª® àª¯
àªĨ àªĩàªŁ
àªŁàª° àªŁ
Ġàªªàª¡ àª§àª°
Ġs oc
Ġf our
Ġf amil
or n
Ġ3 9
Ġàªħàªª àª¡
à«ª à«¨
Ġh and
ĠI II
ĠàªĺàªŁ àªµ
Ġe le
19 60
Ġ7 8
àªķàªŁ àª¤
ĠC O
ĠK odaikanal
à«¯à« Ń
Ġà«§à«¯à«Ń à«®
Ġàª¬àª³ àª¤àª°
Ġà«§à«¯à«© à«®
ht tp
Ġpro v
Ġcom ple
ord er
ĠJ ain
Ġ195 4
Ġà«§à«§à« ¦
àªĭ àª·
Ġrel ig
ww w
ĠBen gal
m ail
àª° àªŁ
àª¨ àªªàª°
àª® àª°àª®
àªµ àª¦àª³
àª¯ àª§àª°
Ġàªª àªł
ĠàªĨ àª°àª¤
àªª àª¤àª¨
à«ĩ. '
àª¡ àªªàª¨
Ġàª¹ àªł
Ġàª¹ àª®àª£
Ġàª° àªĿ
àªļ àª°àª£
àªļ àªķàª¨
Ġàªĸ àªŁ
àª°àª¤ àªŁ
àªĩ àª°àª¸
àª« àª°àª¸
Ġàª§ àª¨àªµ
àªµàª° àªµ
Ġàª¬àª¨ àª¨
àª·àª£ àª¥
àª¬àª° àª²
Ġàª®àª§ àª°àª¬
Ġs ign
ĠàªĬ àª²àªŁ
àª²àª® àª¡
àªĩàªŁ àª®
à«Ń à«§
Ġd ue
Ġà«ª à«¨
ĠS un
Ġl and
Ġl ine
ro du
Ġis s
ĠB al
ch n
Ġg o
ia war
ĠN ew
Ġàªħàª£ àª§
Ġà«§à«¯à«Ń à«¯
àª¨àª¹ àªŁàª¨àª®
if y
if ied
ĠĊĊ Ċ
Ġà«§à«¯à«¦ à«Ń
Ġle ad
Ġdis e
ĠàªŃàªĹ àªµàª¤
Ġinclud e
Ġcl ass
anc es
Ġye ar
Ġàªµàªĺ àªĩ
Ġmill ion
Ġbir ds
ĠAmeric an
Ġexam ple
ĠKath iawar
6 8
a e
Ġ ed
àª¯ àª¬àª°
àªķ àª¤àª¨
ĠàªĨ àª®àª¨
ĠàªĨ àªĹàª®
àªĹ àª³àªµ
àª¥ àª°àª®
àª¡ àª¸àª¨àª¨
àª¶ àªŃàªķ
àª§ àª°àª¤
Ġàª¨ àªµàª¨
Ġàª¨ àª°àªķàª¨
àª· àª¶
àªŃ àª¡
Ġàªļ àªķàª²
Ġàª¸àª® àªª
Ġàªĵ àª¹
àªµàª² àª®
àªľàªķ àª¦
re n
Ġs quare
Ġf ossil
or g
Ġp rom
Ġp ass
à«® à«®
Ġà«¬ à«®
à«© à«¬
àª¡àªķ àª¤àª°
Ġ4 1
Ġà«® à«®
àª¨àªĹ àª°àª¨
Ġe ach
Ġre t
ĠP GA
od y
Ġ8 00
à«¯à« ¯
à«Ģ" ,
Ġàªį àªķ
ĠO n
Ġàªīàª®àª° àªĹ
Ġ195 8
Ġà«§à«¯à«¦ à««
àªħàª¸ àª°àªķ
Ġ185 8
ĠUn iversity
Ġme ans
Ġpo int
Ġsa id
Ġsim ilar
ble m
Ġrupe e
Ġperi od
b ers
e y
Ġ es
àª° àª³àª®
Ġàª¸ àªķàª¤
Ġàªķ àªĿ
ĠàªĨ àª¡àªķàª¤àª°
Ġàª® àªłàª¨
àªŁ àªı
àªľ àªļ
àªľ àªŃ
àª§ àª¬
Ġàª¦ àªĹ
àªĸ àª£àª¨
Ġàªī àª£àªª
àªĪ àªŁàª²
Ġàªĩ àª®àª°
Ġt erm
in du
Ġàª¸àª° àªĺ
Ġàªıàª¨ àªķ
Ġàªīàª¦ àª¯àªª
Ġc m
Ġc our
Ġm ake
Ġp ublic
àª¹àª¨ àª¦
àª¬àª² àªª
Ġ4 3
Ġ4 9
Ġà«ª à«¯
ĠT r
ol ution
Ġl ast
19 70
ĠB udd
Ġ8 4
ĠThe y
Ġàªķàªł àª²
à«¯à« ®
ĠL ord
iv al
Ġàªīàª®àª° àªª
Ġ193 6
Ġ193 8
Ġcont r
ove red
Ġàª¹àª²àª¨ àªļàª²àª¨
ript ion
Ġàªµàª¡àª¨ àªĹàª°
Ġanim als
6 4
F C
I nd
a im
i ences
p s
t le
Ġ Ø
àª¨ àªķàª°
àªµ àªľàª®
àªķ àªķàª¥
à«ģ âĢĻ
àª¾àªĤ âĢĻ
ĠàªĨ àª¸àªķ
Ġàª® àª¤àªµ
àª¦ àª¯àª¸
Ġàª¨ àª¤
Ġàª¬ àª¸àª¨
àªĵ àª¬
àªĵ àªĽ
Ġàªļ àª®àªļ
àª¯àª¤ àª¤
Ġàªĵ àª°àªµ
àªĿ àªª
àªł àªķàª¨
àª¤àª° àªªàª¶
àªŁàª° àª¡
àª°àª¦ àªķ
er red
ĠàªĨàª¦ àª®
ĠàªĨàª¦ àª¤
Ġàªıàª® àª¡
àªıàª¸ àªıàª¨
à«Ń à«Ń
as on
àª²àª¬ àª®
à«© à«ª
à«ª à«Ń
ur b
Ġ5 3
ĠàªĨàªĩ àªĿ
op s
à«¯à« ©
àªĹàª¡ àª®àª®
Ġ196 1
th ough
Ġà«§à«¯à«¨ à«ª
Ġà¤ķ à¤°
Ġàªħàª®àª² àª¦
ĠàªĨàªļ àª°àª£
Ġà«§à«¯à«§à« «
Ġà«§à«¯à«¦ à«®
Ġàªĵàªª àª¨àª¨
ĠâĢĻ âĢĻ
ĠSik k
i ated
l ock
l ished
s ub
Ġ et
àª¯ àª¸àª®
àªķ àª¦àª®
Ġàª¸ àªªàª¨
àª¸ àªµàª®
ĠàªĽ àªŁ
àª¦ àª°àª¤àª¨
àª¦ àª¶àªķ
àª¦ àªŃàªµ
Ġàª¨ àª¨
ĠàªĨàªµ àª¡àª¤
àª¬ àªĩàª®
Ġàª¡ àª²
àªı àª®àªľ
Ġàªĵ àªıàª¸
ĠàªĬ àªĹ
à«« à«®
or th
Ġb us
àª°àª¬ àª¦àª²
Ġ3 50
à«ª à«ª
ĠA m
àª¨àªĹ àª°àª®
Ġe very
19 50
ĠàªĶ àª§
Ġàªķàªļ àª¡
id ed
os p
Ġal ong
Ġst art
Ġare a
àªĪàª® àª¥àªķ
Ġà«§à«¯à«© à««
Ġ194 4
Ġà«§à«¯à«§à« ©
Ġ195 6
Ġus ually
ort al
Ġà«§à«¯à«¦ à«¬
Ġch ild
Ġà«§à«®à«¯à« Ń
àªĬ àªŁ
Ġsc ient
Ġàª¸àª«àª° àªľàª¨
Ġâ ĪĴ
Ġ! !
ĠWest ern
Ġagain st
e v
e pend
h al
i el
t il
Î ¹
à«Ģ à«¤
àª¤ àªķàª°
àªķ àªĹàª£
ĠàªĨ àªĪàªŁ
Ġàª® àª°àªµ
Ġàª® àª²àª¬
àªĹ àªµàªµ
àªĹ àªªàª°
àªľ àª²àª¸
àªª àª¦àª¨
àª¥ àªªàª¤
àª¶ àªŃ
ĠàªĹ àª¡
ĠàªĹ àª²àª¨
Ġàª¨ àª®àª¸
Ġàª¬ àªŁàª¨
àªĸ àªľ
àªĵ àªĹàª¸
àªŃ àªµàª®
àªĩ àªĹàª°
àªĩ àª¬àª²
àª« àª°àª¤
àªĺ àªªàª°
àªĨ àªĸ
àªµàª° àª¥
àªŁàª° àª²
ĠàªĪ àª¬
Ġ19 00
ĠàªĿ àª«àª°
àª°àª¹ àª¸
Ġc op
Ġàªħàª¸ àª°àª®
Ġàªĵàª³àªĸ àª¨
à«« à«¦à«¦
à«« à«¨
à«« à«©
à«Ń à«¯
ĠI s
Ġà«® à«§
Ġl ist
àªıàª® àª¸
ĠM an
ir on
ist ration
ĠThe se
Ġ194 3
Ġpro blem
àªĨàªĪ àªª
Ġev ent
Ġte xt
àª³àªªàª£ àª¥
olog ical
Ġàª· àª¡àª¯
ĠPr inted
Ġtem ple
col or
ĠEng lish
d ing
i or
j i
Ä «
à ©
Ġ *
Ġ z
àª¯ àªµàª¤
àª² àªķàª®
Ġàªķ àª·
Ġàªķ àªŁàªķ
Ġàªľ àª²àªª
Ġàª¬ àªĹàª¦
Ġàªĸ àª°àª¬
àªĵ àªıàª¸
àªĪ àªĵàªı
àªı àª¶àª¨àª¨
àª°àª® àªµ
ĠàªŁ àªķàª°
àªĽ àªªàª°
àªĺ àª¨àª¨
àªĿ àª«
àªµàª² àªªàª°
re nt
àª¬àª° àª¥
àª¸àª® àª¸
àªķàª² àª¤
it ut
Ġàªľàª¨ àªķ
Ġf re
àª¤àªķ àª£
Ġm uch
Ġd iv
Ġàªħàªª àª¹àª°àª£
Ġh um
Ġ18 00
Ġà«® à«¦à«¦
ĠS c
Ġl ife
Ġth ose
ĠM e
Ġ8 8
Ġàªĳ àª°
Ġg row
ra nd
Ġàªĭ àªĹ
ul l
ĠR o
un e
Ġwith out
Ġà«§à«¯à«« à«©
à¦ ¯
Ġà«§à«¯à«¨ à««
Ġà«§à«¯à«§à« ª
Ġà«§à«¯à«§à« Ń
Ġ192 1
Ġall ow
Ġàªıàª¸àªıàª® àªıàª¸àª¨
Ġj ust
Ġdist rict
umb ai
ĠĠĠĠĠĠĠĠ ĠĠĠĠĠĠĠĠ
ros s
Ġsug gest
Ġdesc rib
4 1
6 3
f ont
m ed
u k
àª¯ àªľàª¨àªķ
àª¸ àªł
Ġàªľ àª¨àª®
àªĹ àª£àª®
àª¥ àªĪ
àª¶ àªĹ
àª¹ àª°àª®
àª§ àª²
Ġàª¨ àªŃ
Ġàªķàª° àªķàª°
àªĸ àª®àª°
àªĩ àª¬àª°
Ġàª¡ àª®
Ġàª« àª°àª¸
Ġàª« àª²àªķ
Ġàªīàªª àªª
àª¤àª° àª¸
àªĨ àªĹ
Ġàª¶àªķ àª¯àª¤
àªľàª¨ àª¥
Ġàªıàª¨ àªıàªļ
at ural
it al
Ġb ased
Ġm m
àªīàª¨ àªŁ
à«¬ à«®
Ġto wn
àª¯àª¸ àªŃàª°
Ġe p
ĠS ch
Ġàªħàª¡ àªļàª£
Ġ7 6
im ate
id ence
el s
Ġàª°àªļ àª¯
Ġà«§à«¨ à«¦à«¦
ri ed
àª£àªª àª¶
Ġàªīàª¤àª° àªµ
Ġse en
Ġmo ve
Ġde p
osaur us
our ce
Ġsh ould
Ġà«¯à« Ń
Ġ192 9
ell s
Ġun til
Ġàªĵàªªàª¨ àª®
Ġà¤ª à¤°
pos ed
Ġcomm un
ĠàªŃàªľ àªµàª¤
Ġspec ies
ĠSikk im
6 1
9 1
T h
k ern
m ission
o int
Î ¿
àª° àªĹàª£
àª¨ àªĪàª®
àª® àªĹàª¢
àª¤ àªĵàª¨
àªµ àª£àªķ
àªŁ àªĸ
Ġàªµ àª¨àª°
àª¦ àªķàª¨
Ġàª¹ àª£
Ġàª¨ àª°àªķ
àªļ àª¤àª®
Ġàªı àª°àª«
Ġàªļ àªŁ
Ġàª« àªķàª°
àª¶àª¨ àª¶
àª°àª£ àª¯
Ġàª¸àª® àª¶
àªķàª¨ àªķ
àªĨ àªĿ
Ġàªıàªµ àª¨
Ġàªĩ àª«
Ġàªµàª§ àª¶
à¤ ĥ
Ġa ud
in c
in n
re ad
re pe
ĠàªĨàª° àªª
on om
ĠàªĬ àªŃàª°
Ġàªħàª² àª®
àªĪàª¨ àª°
ar th
à«§à« ¯à«¦
àªıàª¸ àª¬
ĠàªħàªĹ àª¸
Ġà«« à«§
Ġ18 60
ur l
àªĹàª£ àª¤àª°
am b
ĠM inist
ĠàªĨàªĩ àªĨàªĩàªıàª®àªı
od e
ay a
Ġàªĳ àªµ
Ġàªį àª®
Ġàªį àªĹ
Ġwith in
Ġàª¬àª³ àªľàª¬àª°
Ġàªľàª² àª¦
Ġàª¸àª¬ àªµ
Ġ195 5
Ġà«§à«¯à«¦ à«§
Ġà«§à«®à«® à«¦
are nt
mer cial
Ġres ult
Ġcol le
Ġà¤ĩ à¤¸
reg istration
Ġanek ÄģntavÄģda
sub sc
8 1
9 2
E T
a ug
l ob
m ak
p ed
Ï Ĥ
àª° àª¥àª¨
àªµ àªļàª¨
àª² àªĿ
Ġàªľ àªľ
Ġàªľ àªµàª²
àª¡ àªı
àª¶ àª®àª¨
àª¶ àªķàª¨
àª¹ àªŁ
Ġàªķàª° àªļàª²
àªĸ àª°àª¨
Ġàª« àª¨
àªĺ àª¦
Ġàªīàªª àª¹
Ġàªĩ àªĿ
àª¯àªķ àª°àª£
àª¤àª¨ àª¶
àª¦àª° àª¬
àªħ àª·
re am
ĠàªĪ àªŁàª²
àª¯àª° àª¸àª¨
an e
it her
Ġàª¨àª¹ àª¤
Ġw ide
Ġm ass
Ġm eth
Ġàªıàª® àª¸
ion al
Ġh ig
Ġ4 6
Ġà«ª à«Ń
ĠA ust
Ġ6 7
Ġre p
Ġ9 5
ĠG u
àª£àªª àªŁ
àª¾" ,
Ġ194 2
Ġde f
Ġàªµàªĸ àª¤àª®
Ġ195 3
Ġsh ot
Ġne ar
Ġdo es
à«ĩ) .
Ġext in
à± ģ
Ġcult ure
Ġàªĸàª°àª¬ àªļàª¡
repe at
url no
subsc ription
F A
d ay
e e
g et
i um
Ġ à°
àª¤ àª¸àª°
àª¤ àª¬àª¦
àªµ àª·
àª¯ àª°àªµ
àªķ àª°àª¤
àªķ àª¬àª°
àªķ àªŁàª®
àª¸ àª²àª¨
ĠàªĨ àªĿàª®
àªª àª¡àª¨
àª¦ àª°àªķ
àª¶ àª¶
Ġàª¨ àª°àª¨
àªļ àªµàª¤
Ġàªķàª° àª®
Ġàª¶ àª®
àª· àª°àª¨
Ġàª¡ àª¸
Ġàª¡ àªĹ
àªĪ àª¨àª®
àªı àª²àª¸
ĠàªŁ àªªàªķ
Ġàªīàªª àªķàª°àª£àª¨
àªµàª¨ àª¦
he re
àª¦àª° àªª
ĠàªĪ àª¯
Ġàªıàª¨ àªµ
or ies
Ġm at
Ġp H
àªıàª¸ àªŁ
Ġà¤ ı
à«¬ à«§
à«ª à«¯
Ġà«ª à«ª
ol ved
Ġth ough
Ġre port
ow n
Ġàªķàªł àª£
ĠR e
ĠR FC
à«§à«¯à« §à«
Ġ194 1
ak en
ĠW orld
qu ently
àªªàªļ àª¯àª¨
ik ip
Ġhe ad
og n
Ġ193 2
Ġà«§à«¯à«§à« ¬
Ġà«§à«¯à«§à« ®
Ġà«¯à« ©
Ġother s
Ġprodu c
Ġmus ical
à«§à«¯à«ª à«Ń
Ġcor iander
Ġincre asing
Ġàªıàªı àª²àª¯
Ġest ab
a red
b all
i ation
y m
àªµ àª§àª°
àª² àªĺ
àª² àª°àª¥
Ġàªª àªŁàª²
Ġàªķ àª¦àª°
Ġàª¤ àª¡àªķ
àª£ àªķàª¥
Ġàªµ àª¨àª®
àª¦ àª£
ĠàªŃ àª¡àªķ
àªĸ àª¸
Ġàªī àªĸ
Ġàªī àª¥àª²
àªĩ àª®àª¨
àªĹàª® àª¸
àªµàª° àª¬
à«ģàªĤ. .
Ġàªĩ àª¸àªķ
àªµàª¨ àªª
à¤ Ī
he l
àª¤àª¨ àªª
Ġàª¸àª° àªª
àªħ àªĸ
en a
àªĪàª¨ àª²
Ġàªĩàª¨ àª¸
ar ama
Ġf t
Ġm y
ou se
Ġàªħàªª àª²
Ġàª°àªľ àªª
ĠI S
Ġà«« à«ª
Ġl ed
Ġl ens
Ġl anguage
Ġ6 8
àªĪàªı àª«
ĠM umbai
Ġàªĳ àªķàªŁ
ch an
el v
Ġàªµàª³ àª¤àª°àª¨
Ġàªıàªļ àªŁ
à«Ģ" .
Ġwh at
Ġà«§à«¯à«« à«®
ĠE x
ud ra
iv es
àªıàªļ àªĨàªĩàªµ
ĠàªŃàª¯ àªŃ
Ġà«§à«¯à«§à« ¨
Ġà«§à«¯à«¦ à«¯
Ġà«§à«®à«® à«Ń
Ġle vel
Ġar ch
Ġ190 3
Ġàªĵàªµàª° àª²
In f
ĠIP O
ines e
mit ted
iet y
, ,
9 3
e um
h av
m y
n er
Ġ ver
Ĩ Ĵ
à«Ģ à«¢
àªķ àªļàª°
àª² àªµàªµ
àª¾àªĤ ;
Ġàªª àªŁàª¨
Ġàªķ àª¨àªķ
àªĹ àªĸ
àªŁ àª¸àª®
àªª àª²àª¨
àª£ àª¨àª¨
àª¶ àªµàªŁ
Ġàª¹ àªª
Ġàªī àªĺ
àªĩ àª²àª°
Ġà« ł
àª« àª¡
Ġàªļ àª²àª¨
Ġàª¡ àª¹
àªµàª¸ àª¥
àªł àª²
àªĨ àª¬
àªŁàª² àª°àª¨
àªĹàª° àªµ
ĠàªĪ àª¸àªµ
àª¸àª° àª¶
ĠàªĨàª° àªıàª®àª¬
Ġàª®àªĹ àªľàª®
Ġf in
à«« à«¬
Ġàªµàªļ àªĹ
Ġm ult
àª®àª° àª¥
Ġà¤ ļ
àª°àª¬ àª²
àª¡àª° àªľ
Ġd el
à«¬ à«ª
àªĨàª° àªı
àª°àªª àªŁ
Ġàª¸àªª àª¡
Ġàªļàª² àª£àª®
Ġà«« à«©
ur s
ĠA c
ĠT e
àª¯àª¸ àªŃ
Ġà«Ń à«¦à«¦
Ġà«Ń à«ª
Ġre st
àª«àª° àª¸àª¨
àªĩàªı àª«àªı
Ġàª¢ àª³
ĠP al
ĠP ar
àª¬àªĪ àª¥
ĠG r
àªĩàªķ àª²àª¨
ĠN ational
ĠR uss
.. ..
Ġare as
àªıàª« àª¸
Ġ194 6
and hi
à¦ ¼
ĠàªīàªĽ àª°
ĠW e
Ġàª¸àª¬ àª®àª°
Ġhe l
àªĹàªł àª¨àª®
ĠàªŃàª£ àª¤àª°
act er
ĠàªĹàªĿ àª²àª®
ĠàªĹàªĿ àª²àªķ
Ġstud y
à§ į
Ġsex ual
Ġpol it
Ġbelie ved
ĠAfric a
Ġconsid ered
Ġfamil y
. âĢĿ
5 1
9 7
C h
D S
n ce
t al
v ing
àª® àª¦àª°
àªµ àªķàªª
àªľ àª¯àª®
àª¥ àª¡
à«ģàªĤ âĢĻ
ĠàªĹ àªŁàª°
Ġàª¦ àª²àªª
Ġàªı àªŁàª°
ĠàªŃ àª°àª¤àª¨
Ġàªī àªĹàª¤
àª« àª¯
Ġàªĵ àª¨àª°
àªī àªľ
Ġ19 19
Ġ19 18
Ġàªķàª¹ àª¯
ĠàªĬ àª¨
at i
Ġàªħàª² àªķàª¨
en se
Ġàªħàª¸ àª¤
Ġf act
Ġp red
Ġd et
Ġd id
ĠA U
àª¡àªª àªŁ
Ġàªħàª¸àª° àª¥
ĠS T
Ġà«Ń à«¬
ct r
Ġ7 1
Ġàª²àª¡ àª¤àª®
ĠC o
ĠM and
Ġàª¢ àªĹàª²
Ġ9 6
ra b
àª¯àª®àª¨ àªķ
à«ĩ" ,
à«¯à« §
ac ed
um ar
Ġ196 3
Ġfilm mak
Ġse eds
iv ing
Ġpro cess
àªªàªļ àª¯
Ġàªµàªĸ àª£
ang e
Ġ195 1
199 1
199 3
Ġà«§à«®à«¯à« ¬
àªĬ àª°
Ġint rodu
Ġloc al
Ġent ire
Ġsong s
EE E
Ġmark et
Ġrele ase
Ġàªľàª¬àª° àª¦àª¸
Ġtop ics
Ġsupp ort
Ġsoc ial
Ġàª¦àª²àªª àª¤àª°
7 00
F TP
a u
a ut
b ox
Ġ à¥¤
àª° àªĿ
à«į àª¾
àª¨ àªķàª¨
àª¨ àª¸àª°
àªµ àªµàª°
àª² àªµàª¨
Ġàª¸ àª²àª®
Ġàª® àª«
Ġàª® àª£àªķ
àªľ àªªàª¨
àªª àªķàª¤
Ġàªµ àªķàª°
àª¦ àª¯àª°
àª¹ àª¤àª¨
ĠàªŃ àª¯àª¨
àªĵ àªĹ
àªŃ àªµàªµ
Ġàªī àª¬
Ġàª¡ àªĹàª²
àªĪ àªļ
Ġàªĵ àª¦
àª§àª¨ àªķàª°
àªł àª²àªŃ
àª¾. .
Ġàªĩ àªĹ
àª¸àª¨ àªµ
Ġt imes
re en
Ġàªªàª¡ àªĸ
àªĹàª² àªķ
Ġàª¨àªµ àªĺàª£
Ġàªīàª¦ àªĺ
al y
al ity
à«« à«§
or k
Ġb re
Ġp ot
àª°àª¬ àª¦
à«Ń à«©
il y
Ġd ra
Ġd ance
Ġàª¬àª¦àª² àª¤
Ġàªħàª²àªĹ àª¥
Ġàª¨àªľ àª¦
Ġàªıàª¸ àªıàª¸
Ġà«ª à«©
ĠA t
ĠA ll
Ġ5 6
àªıàª® àªª
àªıàª® àªıàª²
ĠB e
àªıàª¨ àªıàª¨
ir c
ist ory
Ġst r
àª¼ à«į
Ġan n
Ġan other
Ġàªį àªµ
Ġà«§à«¯à«® à«§
àª¾" .
Ġv is
Ġà«§à«¯à«¨ à«¬
Ġàªķàª¸ àª°àª¤
Ġàªķàª³ àª¶
Ġ195 7
Ġpl ant
Ġar ound
Ġ190 8
ĠCh ina
Ġev idence
Ġsc ience
Ġres p
ove mber
ob ox
àªĳ àª¡
Ġear li
Ġapp ro
àª¯àª«àª³ àª¨
àª¨àªªàª£ àª¥
S A
s ize
y l
Î ½
àª¨ àª°àª¸
àª¨ àªħàª¸àª°àªķ
à«ĭ ?
àª² àª°àª¶
Ġàªª àªĹàª®
Ġàª¸ àª¶àªķ
Ġàª® àª¦àª¨
Ġàªľ àª²àªĹ
àªŁ àªľ
àªª àª¡àªªàªŁ
Ġàªµ àª£àª¸
àª¥ àªı
àª¦ àªµàª¨
Ġàª¦ àªĩàª¨
àªļ àªĹ
Ġàª¶ àªªàª¥
àª¬ àª°àªµ
Ġàª² àª¦
àªĵ àª¶
àªŃ àª°àª¤
Ġàªī àªĽàª³
Ġàªªàª° àª¬
àªı àª²àª¨
àªı àªĩàª¡
àª°àª® àª°
àª°àª£ àª¸àªŃ
àªĺ àªª
àªĨ àª¯àª°
àªĨ àª®àª²
àªī àª¨àª®
Ġt reat
àª°àª¸ àª®àªľ
Ġàª¸àª° àªŃàª°
àªħ àªµàªķ
Ġ19 14
Ġàªªàª¡ àªĽ
Ġs om
Ġs un
Ġb ody
àª¯àª¦ àª³àª¨
à«Ń à«ª
à«® à«ª
Ġh owever
ĠI EEE
Ġà«ª à«§
ĠA ward
ol ar
ĠS idd
Ġàªıàªª àª²àª¨
ot s
Ġ9 1
ĠN a
ĠN o
ĠR es
ĠK ing
à¦ Ĺ
pl es
pl oy
Ġ195 2
Ġinc hes
Ġàª¦àª¶ àªķàª¨
ie f
Ġpart s
Ġad v
Ġinclud ed
Ġspe cial
Ġob ject
Ġdisc over
led ge
Ġpres ent
Ġtradition al
Ġsec ond
Ġgroup s
ĠBal arama
àªĽàªªàª° àªĽ
Inf obox
e nd
v al
Ã ©
àª° àªµàª¨
àª² àªĽ
àª² àª¤àª¨
Ġàªª àªķàªµ
Ġàªª àª²àªķ
Ġàªķ àª®àª¨àª¸
ĠàªĨ àªľàªķ
Ġàªľ àªķàª¡
àªľ àªķàª¨
àª¶ àªµàª°
àª¹ àªĹ
àª¹ àª³
Ġàª¬ àªĹàª¡
àª¬ àªª
àªĵ àªªàª°
àªŃ àª¸
Ġàªī àª£
àªĩ àª¡àª®
à«Ī àªĤ,
à«Ģ. âĢĿ
àªĿ àª¹
àªĨ àª¶àª°
Ġàª¤àª° àªµ
à¤ ¼
àªķàª° àª¡
Ġa ction
àªªàª¨ àª®
àª·àª£ àªķ
Ġo pen
Ġàªħàª¹ àª®àª¦àª¨
on es
Ġs ide
Ġc ertain
Ġàªªàª¦ àªķ
à¥ Į
Ġw omen
Ġf ar
Ġm i
ĠàªĨàªĹ àª®àª¨àª¨
ic ial
à«® à«¬
àª¡àª° àª¸àª¨
Ġd em
om s
Ġàª®àª° àªĺ
Ġà«© à««à«¦
ent al
ĠàªĪàª¨ àªķ
Ġà«® à«¨
Ġà«® à«¬
ĠA p
Ġe l
Ġre du
ĠM ad
ay s
Ġ9 2
ĠG andhi
Ġor der
Ġà«§à«© à«¦
Ġpro per
Ġà«¯à« ¬
à«Ģ' ,
àª®àª³ àª¦
Ġàª¸àª³ àªĹàª¤
Ġ190 2
Ġres pect
Ġ189 0
Ġà¤ħ à¤¨
ĠSh iv
oot ball
Ġvar ious
+ +
A n
S T
g es
h ad
i er
Ø ±
Ù Ħ
àª¨ àªªàª¦
àª® àª¬àª°
àª¤ àª¡
àª¤ àªµàªµ
àªµ àª¬
àª¯ àª¸àª°
àªķ àª®àª¤
à«ģ àªģ
àª² àªı
Ġàªª àªłàª¨
Ġàªķ àªŃ
àª¸ àª®àª®
Ġàª¤ àª¸
àªĹ àªŁàª¨
Ġàªħ àªł
àªŁ àª°àªķ
àª¡ àª®àª®
Ġàª¹ àª¸àª¨
àª§ àªĹ
Ġàª° àªľàª¨
Ġàª¦ àªĸ
Ġàª¦ àª«
ĠàªĨàªµ àª¡
Ġàª¶ àª²
Ġàªªàª° àªľ
Ġàªļ àª¡àªµ
àªı àª¬
àª°àª® àª¤
Ġàª« àªĿàª²
à«ĩ, "
Ġàª§ àª®àª¨
Ġàª¯ àª²
Ġàªĵ àª¢
Ġàªĵ àª®àªķ
àª§àª¨ àª¸
àªĨ àª¹
àª¢ àª¨
Ġ19 15
àª¸àª® àª¯àª¨
àªĹàª² àªª
ĠàªĬ àª¤
al th
à¥ ¥
Ġf all
Ġb as
ou l
àª¨àª¸ àª¤
ur ther
Ġth us
Ġre pl
àªıàª¨ àªľ
ad esh
ĠP h
àªªàª² àªŁ
Ġ8 1
Ġàªĳ àªªàª°
àªĨàªĩ àªıàª¸
ĠH indu
Ġst e
Ġst at
Ġst ar
ĠK umar
ac co
Ġàªħàª£ àª¨àª®
Ġàª¬àª³ àªª
pe cial
Ġàªıàª« àª¸
Ġàªıàª« àª¬
àª¨àª¹ àªŁ
Ġex ist
Ġex pl
Ġr ight
Ġàª®àª¶ àª¹
ĠJ an
Ġà«§à«®à«¯à« «
Ġà«§à«§à« ¬
Ġà¤ħ à¤§
Ġrec ogn
Ġpopular ity
Ġàª®àªķàª° àª¸
Ġàª®àªķàª° àªª
sp an
Ġind epend
Ġem ploy
Ġà¥ ¥
Ġart ic
Ġmem bers
Ġav ail
Ġnam ed
Ġanc est
ĠAcc ording
Ġrelig ious
ĠBudd h
ĠAust ral
ikip edia
6 2
P ortal
c onom
i j
p ad
Ù ħ
àª¨ àª§àª°
àªµ àªĺ
àªµ àª¡àª¨
àªķ àª®àª¨
àª² àª§
àª² àªªàª¤
Ġàª¸ àªŁ
Ġàªķ àª¥àª³
Ġàªķ àª¤àª²
Ġàª¤ àªķàª°
Ġàª® àªľàª²
Ġàªħ àªľàªµ
àªª àªķàª¨
àª£ àª¸àª°
àª¥ àª§
Ġàª° àª³
Ġàª¨ àª¯àª¨
Ġàª¬ àª°àª¤
àª³ àª£
Ġàªı àª¥àª²
ĠàªŃ àª°àª£
àªĸ àªŃ
Ġàª² àªľ
Ġàªī àª¡àªµ
àªľàª° àª®
àªĩ àª²àª®
àªĪ àª¸àª¨
àª¶àª¨ àª¸
à«Ģ. ..
àª°àªķ àª°àª£àª®
àª§àª¨ àªķ
Ġàªīàªª àª°àªµ
àªĨ àª¨àª¨
Ġàª®àª¹ àª®
Ġàªĩ àªĹàª²
àªµàª¨ àª°
Ġt er
Ġt our
Ġa ff
àªŁàª¨ àª°
Ġ19 12
Ġs ize
is on
àªŀ àª¨
àª²àª® àªª
âĢĻ -
Ġàªľàª¨ àªĹàª£àª¨
Ġf ac
Ġin sp
Ġ3 60
Ġd r
àªĸàª° àªľ
àªĨàª° àªª
àªĨàª° àªıàª¸
àª°àª² àªķ
Ġàªļàª° àªĸ
Ġà«® à«©
st and
Ġl ate
Ġàª¤àª³ àªªàª¦
am ous
Ġàªīàª® àªŁ
ĠàªĨàªĩ àªķ
Ġ15 00
Ġ9 3
Ġà«§à«¯à«ª à«©
ist ic
Ġàª¸àª« àª°àªľàª¨àª¨
Ġr ather
à«ĪàªĤ .
Ġàªħàªµàª¤ àª°àª£
Ġà«§à«®à«¯à« §
Ġcont ribut
ric k
Ġact ress
ĠàªŃàªĹ àª¤àª¨
ĠàªĨàª¡ àªħàª¸àª°
cept ion
à§ ĩ
Ġid li
Ġparticular ly
Ġàªıàªıàª® àª¡
oh n
ĠMus lim
Ġimport ant
% }.
- -
9 4
S S
b e
f are
f ace
i ver
r an
Ë Ī
Ï Ħ
â ĪĴ
ï ¼
àª¨ àªľàª¨àªķ
àª® àªŁàª¨
àª¤ àª¯
àª¯ àª£àªµ
àª² àªªàª°
àª¾àªĤ àªĤ
àª¸ àª®àª¨
Ġàª® àª¨àªµ
àªĹ àªĹ
àªª àªŁàª¨
àªª àªŁàª¨àª®
àª£ àª£
àª¦ àª·
àª¡ àªĽ
Ġàª° àª¸àª®
Ġàª¦ àª¹àª¨
àªļ àªŁ
àª· àªļ
àªı àªľ
àªı àªķàªµ
àª°àª® àª¥
Ġàª« àªŁ
Ġàªīàªª àª®àª¹
àªµàª¨ àª¥
à¤ ģ
àª®àª£ àª®
ĠàªĪ àª¡
Ġ19 10
er ing
àªļàª¨ àªķ
Ġàª¸àª®àª¯ àª¸
at t
Ġàªīàª¦ àªŃàªµàª¤
en e
Ġàª¸àª¹ àª¨àª¶
Ġàªľàª¨ àª¸àª®
Ġm ust
Ġp at
Ġp ost
àª¹àª¨ àª²
ic es
Ġà«¬ à«Ń
Ġà«¬ à«ª
Ġ' '
Ġàªıàª¸ àªŁ
àª¨àª¸ àª¶
àª²àªķ àª°àª¨
Ġà«« à«¦à«¦à«¦
et er
ĠA wards
Ġ5 7
Ġà«Ń à«Ń
Ġ20 15
Ġ6 1
ĠàªĹàª° àª¦àª¨
im etres
ĠM any
ad a
ĠàªĨàªĩ àª«
ist or
Ġ17 75
op ods
ĠN e
àª¼ à«ĩ
Ġk e
ĠE ast
Ġàªļàª³àªµ àª³àªķ
ak es
Ġ14 0
Ġcom mercial
ip le
Ġ192 8
ater ial
Ġpop ulation
Ġàª°àª®àª£ àªŃ
Ġbet ter
Ġlar gest
Ġsy m
Ġprodu ced
umb ers
Ġàª®àª¹àª¦ àªħ
à«ĩâĢĿ .
ĠàªĨàª°àª¸ àªªàª¹
Ġob s
ĠàªĨàªī àªŁàª¸
Ġwrit ten
àª¹àªĿ àª°àª¤
Ġfore ign
Ġvill age
Ġrun s
Ġmove ment
ĠMand ir
pad ding
Ġàª¬àª°àª¤ àª°àª«
9 00
D I
T C
d om
h ile
t on
t est
Ġ enc
àªĤ -
àª® àª¢
àª® àªŃàª¦
àªµ àªı
àª² àª®àª®
Ġàªª àª³
Ġàª¸ àª§àª°
ĠàªĨ àª¥àª®
àªĹ àª®àª®
àªĹ àªµàª°
àªŁ àªļ
àªª àª°àªķ
àª£ àªªàª°
Ġàªµ àª¸àª¨
Ġàªµ àª¡àªµ
Ġàªµ àªķàª¤
Ġàª¬ àªŁàª²àª°
àªļ àª²àª¨àª¨
àªĸ àªµàª¤
àª· àªŃ
àªŃ àªŁ
àªĩ àªļ
àªĩ àª°àª²
Ġàªļ àª°àª£àª®
àªĪ àª¯
àª¯àª¨ àª²
Ġàª¸àª® àª°àª¸
Ġàª¸àª® àª¤àª²
Ġàªĺ àª®
àªĽ àªŁ
àªĺ àªķ
àªĺ àªľ
àªĿ àªķ
Ġ1 10
àªµàª² àª¸
Ġàªĩ àª¸àª°
àªµàª¨ àªķàª¥
nd ed
Ġc ame
Ġc ities
Ġc ells
al k
Ġàªªàª¦ àª¯
Ġw k
Ġw on
Ġf amous
à«« à«¯
Ġàª²àªĸ àª¤àª°
il t
il is
Ġd er
Ġà«¬ à«¬
Ġà«¬ à«©
à«© à«¯
àªĨàª° àªĨàªĩ
Ġ20 20
Ġ20 14
Ġl im
Ġn ature
Ġre ce
am m
ĠB est
ad es
Ġ8 2
Ġ8 3
Ġàª°àª®àª¤ àªµ
àª£àªķ àª¦
Ġ9 7
Ġ9 8
Ġst and
ĠR ad
ac y
Ġàªħàª£ àª¹
ĠF ore
àª¾' ,
Ġà«§à«¯à«§à« ¦
Ġà«¯à« ¨
Ġle ft
Ġà«§à«®à«¯à« ¨
Ġà«§à«®à«¯à« ©
Ġar g
Ġàª¹àª³ àª¦àª°àª¨
Ġper form
àªĩàª¬ àª²àª¨
ace ous
ism s
ĠUn ion
Ġref erred
Ġà¦ ľ
Ġcre ated
Ġorig inal
ĠÏ Ģ
Ġty p
à¥Īà¤Ĥ à¥¤
Ġsign ific
ĠMinist er
D P
N A
b s
b y
d ress
k e
u a
Ġ ve
àª¾ )
àª° àªĺàª°
à«į .
àª¨ àªĹàª¨
àª® àª£àªµ
àªµ àª³àª¨
àªķ àª¡àªµ
Ġàªª àª¤àª°
Ġàªª àª¢àªµ
Ġàª¸ àª¬àª¨
àª¸ àªĸ
àª¸ àªľàª¨
àªŁ àª£àª®
àªľ àª¦àª°
àªľ àªĹàª£
àª¡ àªļ
àª¡ àª°àª¸
Ġàª¹ àª°àª¸
Ġàª¨ àª¯
Ġàª¨ àªŁ
Ġàª¨ àªļ
Ġàª¬ àª¬
ĠàªŃ àªķàª¤
Ġàªķàª° àªľ
Ġàª² àª®
àªĵ àªľ
àªĩ àª«àª°
Ġàªļ àªª
Ġàªļ àª¢àªµ
ĠàªŁ àª®
ĠàªŁ àª¨àª²
àªķàª¨ àª®
àªĺ àªŁàª¨àª¨
àª¤àª° àªĽ
Ġàª®àª¹ àª²
à«¦ à«§
à¤ ł
Ġt est
àª¯àª® àª¹
àªªàª° àªļ
ĠàªĪ àªĹ
Ġo ur
ĠàªĨàª° àªĵàªı
Ġs it
Ġs erv
àªĪàª¨ àª²àª®
Ġàªĩàª¨ àªŁ
ar h
Ġin s
Ġm in
Ġm aterial
Ġp ack
Ġp hys
àª¦àª² àªª
à«® à««
Ġàª®àª¨ àª¸
àªĨàª° àªıàª²
Ġto b
Ġto tal
Ġàªªàª¤ àª¨àª¨
ĠàªĺàªŁ àªķàª¨
Ġe qu
ĠS I
ĠS he
ĠS om
Ġ20 13
Ġl ay
Ġre qu
am s
ĠC ret
ĠM ay
ad em
Ġg ood
ĠàªĲ àª¸
Ġst ill
Ġàªľàª³ àª¸
Ġà«§à«« à«¦à«¦
à¥ĩ ,
àª¤àª°àª£ àª®
est ival
Ġàªĺàª¡ àª¤àª°
Ġex p
Ġà«§à«¯à«¨ à«¯
Ġàªķàª¸ àª¬
à¥Ģ ,
Ġàª¬àªĹ àª¸àª°
Ġhe re
Ġ193 3
199 2
199 6
199 8
ĠIn ternational
ĠàªĹàª¢ àª¨
Ġà«§à«®à«¯à« ¯
Ġ192 2
Ġ190 5
Ġun ivers
one y
Ġte chn
Ġoff ice
Ġtrans mitted
Ġph ot
Ġac cept
Ġgener ally
Ġàª°àª¤àª¨ àªª
Ġmed ic
ĊĠ ĊĊĊĊĊĊ
Ġchar acter
Ġposs ible
Ġàª¦àªĸàª² àªĹ
Ġgiv en
Ġactiv ity
ĠRo ad
Ġmeth od
Ġintrodu ced
Ġàªħàª¹àª®àª¦àª¨ àªĹàª°
ï¼ ı
ĠCret aceous
: #
M od
U n
e ad
g er
h o
n et
u ary
Ġ ly
Ġ ide
Ġ error
àª¾ !
à«ĩ à«¢
àª¨ àª²àª®
à«Ģ )
àª® àªľàª¨
àª¤ àªķàª²
àªµ àª¯àª¨
àªµ àª£àª®
à«ģ ;
Ġàªª àª¢
Ġàªķ àª²àª¨àª¨
ĠàªĨ àªļàª°
ĠàªĨ àªĪàª¡
Ġàª® àª®
Ġàª® àªĺ
ĠàªĽ àª²àªķ
Ġàªħ àªŁàª²
Ġàªħ àª¥àª°
àªľ àªĹàª¢
àª£ àª¬àª¤
Ġàª¹ àª°àªķ
àª¹ àª¯
Ġàª° àª¥àª¨
Ġàª¨ àª®àªķ
Ġàª¬ àª²àª°
àª³ àª¬
Ġàªı àª£
ĠàªŃ àªŁàªķ
àªĸ àªªàª¦
àª· àªªàª£
àª· àªªàª¦
àªŃ àª³àª¤
Ġàªī àª§àª®
Ġàªıàªķ àª®àª¤
àªĪ àªĵàª®
àªĪ àª«àª²
àªı àªıàª®
Ġàª« àª³àª®
àª¯àª¨ àªµ
àª°àªķ àªŁ
àªĿ àª°àª¨
àªĨ àªĪàª¸
àªµàª² àªª
à«¦ à«Ń
àªµàª¨ àªŃàª°
Ġt aken
Ġàª§àª° àªĸàª®
àªªàª° àª¬
à«ĭàªĤ ,
àª·àª£ àª¶
àªĩàª¨ àª¸
Ġàªıàª¨ àªıàª®
ĠàªĿ àª¡àªªàª¨
àªļàª¨ àªĹ
Ġàªħàª° àª¬àª¸
ĠàªĨàª° àªŁ
on st
Ġs he
Ġs il
is ation
Ġàªīàª¦ àªĹàª®
Ġc r
Ġc reat
ed ing
Ġàª¸àª¹ àª¦
à«« à«ª
Ġb o
Ġb ook
Ġm ar
à«§à« §à«
Ġàªħàª§ àª°
Ġàªħàªµ àª§àª¨
à«¬ à«¨
Ġà«§à«¦ à«®
àª²àªµ àª¹
ĠàªĨàª® àª°àª£
Ġà«§à«® à«¦à«¦
ĠA ug
ol it
ĠS ing
Ġl a
Ġl ack
Ġ6 2
Ġn atural
Ġn umbers
res ent
ĠàªĨàªĩ àªľ
Ġàªĳ àªŁ
à¤° à¤£
ul ations
àª¯àª®àª¨ àª¨
àª¯àª®àª¨ àªķàª°
Ġ) .
Ġàªľàª³ àªª
à¦ ¿
Ġpro te
ab ly
Ġ193 7
ĠJ ohn
ive ly
enc ed
Ġ190 6
Ġàªĺàª¨ àª¶
ens is
Ġro ck
ĠAs ian
Ġknow ledge
Ġcons ist
orm ation
Ġdo ctr
ĠàªĨàªī àªŁàª²
Ġtem per
Ġincre ase
Ġàª¹àª¡ àªķàªµ
idd le
Ġappe ar
Ġàªľàª¬àª° àªľàª¸
Ġfore st
Ġword s
iel d
Ġextin ction
Ġinsp ired
Ġtob acco
ĠAug ust
' "
' .
3 20
C O
S E
S R
b it
n ot
o or
o id
r as
r ig
r ist
w are
Û Ķ
Ġ å
àª° àªļàªķ
àª® àª¸àª®àª°
àª¤ àª²àª¨
Ġàªħ àª¡àªµ
àªľ àªľ
àªľ àªµàª°
àª¥ àª¨àª®
àª¦ àªµàª°
àª¡ àªŃ
àª¡ àª¸àª°
Ġàª¹ àª°àª£àª¨
àª¹ àª¨àª®
àª§ àª°àª¨
Ġàª¦ àªĪ
àªļ àªµàª°
Ġàªı àªĨ
Ġàªķàª° àªķ
Ġàªķàª° àªª
àªĸ àª²àª¨àª¨
àª· àª¸àª¨
Ġàª² àª¸àª£
Ġàªĸ àªª
àªŃ àª³àª¨
Ġàªıàªķ àªªàªķ
àªĩ àªıàª¸
àªĪ àªµàª°
àªĪ àª¸àª°
àªĪ àªŁàª®
àªĪ àªĿàª°
àªı àªĹ
àª¶àª¨ àª°àª¨
Ġàªĺ àª°àª¡
àªĿ àª¡àªª
Ġàªīàªª àª®
Ġàª¤àª° àª¬
Ġàªĩ àªıàª®àªľ
ĠàªĨàªª àª²
Ġa st
he t
in ess
àªħ àª¯
àª°àª¦ àª¯àª¨
Ġàªªàª¡ àª¤àª°
Ġàªıàª¨ àªľ
ĠàªĿ àª²àªķ
Ġs ix
àªĹàªµ àª¤àª®
Ġc he
Ġc are
Ġc ause
Ġc ele
ar as
it er
Ġf ive
Ġf urther
Ġb est
Ġb ill
Ġp ar
Ġàª¤àª² àª¸
ic i
ic ot
ic ult
Ġ3 000
as ter
àª®àª² àªķ
à«© à«§
Ġàªľàª® àª¶
Ġto day
Ġh ous
ĊĊĊĊĊĊĊĊ ĊĊ
Ġ18 48
ĠàªľàªĹ àª¡
Ġe ither
Ġà«Ń à«§
Ġl ow
Ġ7 50
àªµàª°àª£ àªµ
Ġà«§à«ª à«¦
ĠC or
ĠM ost
ot t
Ġàªķàª¥ àªķàª²
Ġg e
àªĨàªĩ àª¸
Ġst ars
ĠR udra
Ġàªµàª¨ àª¡
Ġàªħàª¬ àªľàª¨
th a
ere st
ĠL ag
ab ad
aur us
Ġ13 0
Ġàªķàª³ àª£
18 57
The re
Ġà«¯à« ª
Ġà«§à«®à«¯à« ®
Ġcont act
Ġ192 7
Ġun iversity
ass ic
à° ¨
Ġab ove
Ġinclud es
Ġ188 5
ĠAs ia
Ġrec ord
Ġme an
ĠIP v
Ġprodu ction
Ġàªļàª®àªķ àª¤
Ġqu est
Ġoff icial
Ġloc ated
ific ation
àªĶ àª°
Ġbl ack
ĠAmeric a
Ġfollow ed
Ġdevelop ment
Ġeffect s
Ġes pecial
Ġàª¸àª°àªĺ àª¸
Ġdescrib ed
lob al
Ġrep resent
Ġfilmmak ers
Ġavail able
adem y
Ġly ric
Ġespecial ly
E x
I N
T F
T CP
l ike
p x
v iron
w l
Ã Ń
Î ¯
Ï ĥ
Ġ ri
àª¾ à«¢
àª° àª²àª¨
àª° àªĽ
àª¨ àª³
àª¤ àª«
àª¤ àªµàª°
à«ĭ ",
àª¿ âĢĻ,
àª² àªŃàª°
Ġàªª àª¯
Ġàªħ àª°àª£
Ġàªħ àª¦àª²
àªŁ àªŁ
àªŁ àªĽ
àªľ àª²àªª
àª£ àª®àª¤
àª¶ àª¯àª®
Ġàª¹ àªķàª¨
Ġàª¨ àª°àªķàª®
Ġàª¬ àª®
Ġàª¬ àª¤àªķ
ĠàªĨàªµ àª°àª£àª¨
àªļ àª°àª¤
Ġàªķàª° àª¡
àªĸ àª¡àªķ
àªĸ àª¨àªķ
àª¬ àª²àª®
Ġàª² àªª
Ġàª² àªµàª£
àªŃ àª¯
Ġàªī àª¸àªķ
Ġàªĺ àª¸àª¡
àªµàª¸ àª¨àª¤
Ġàªĵ àªļ
àªĨ àªī
àªĨ àªĪàªı
àªī àª¸àª®
Ġàª¤àª° àª²
Ġàªĩ àª¸àª®
Ġàªĩ àª¸àªµ
àªĹàª° àªª
àªĹàª° àª¬
Ġt w
Ġt re
Ġt ake
àª¦àª° àª¸
àª¦àª° àªĸ
àªħ àªŁ
àªħ àª°àª¨
Ġthe rop
àªĩàª¨ àª¥
Ġàª¶àª¹ àª°
Ġs on
Ġc y
Ġc ost
al le
Ġm er
Ġp ut
Ġp ower
Ġàªıàª® àªıàª®
Ġ. "
as te
Ġd one
Ġd anc
Ġd own
à«¬ à«©
àªĨàª° àªıàª®
Ġto ok
le v
Ġ- >
Ġh ome
Ġàªıàª¸ àªı
àª¯àªª àª¶
ol k
Ġl at
Ġth ings
Ġth ought
19 30
ĠC ol
àª¹àª°àª£ àª°
ĠàªĨàªĩ àªıàª¸
Ġàªĳ àª²
à¤° à¤ķ
à¤° à¤®
Ġàª°àª®àª¤ àªĹàª®àª¤
àª²àªª àªŁ
ra ft
ĠG od
her s
ul a
Ġon ce
ĠK ap
ĠF r
Ġàªħàªľ àªĹàª°
ĠE arth
if t
ain t
à¦ ¨
iv id
àªĪàªķ àª²àª¨
osaur s
ition s
Ġà«§à«®à«® à«®
Ġà«§à«®à«® à«¯
Ġà«§à«®à«¯à« ª
Ġ192 5
Ġ190 1
Ġim age
Ġint erest
Ġà«§à«®à«Ń à«¨
Ġ189 6
à«ĩ? "
Ġbec ome
cl op
}} }
Ġsa w
àªĶ àª¦
à«§à«¯à«® à«¦
erv ation
Ġmajor ity
Ġorig in
Ġcur rent
ĠâĤ ¬
omin ated
Ġcour t
Ġhum an
Ġaud iences
Ġhig her
rick et
Ġwk ts
Ġsignific ant
6 00
A F
D U
a f
j ar
l am
n ith
s h
w a
Ï Ģ
Ġ }
Ġ ÃĹ
à«į àª¿
àª¨ àª®àª£
àª¤ àª§
àª¤ àªļàª°
à«ĭ à«¢
àªķ àªı
àªķ àª¤àª°
Ġàªª àª§àª°
Ġàªķ àª²àª¨
Ġàª¤ àªŁàªµàª°
Ġàªħ àªļàª²
àªŁ àª¶
àª£ àª²
Ġàªµ àª®àª³
àª¥ àª¨àª¨
à«ĩ. )
àª¡ àª®àª¨
à«ģàªĤ ".
Ġàª¹ àª°àª®
Ġàª¹ àª²àªµ
ĠàªĹ àª§
àª§ àª¡
àª§ àªµàª°
Ġàª¬ àª¦àª¨
ĠàªĨàªµ àªķàªµ
à«Ĥ àªģ
àªļ àª°àª®
Ġàª¶ àª®àª¨
àªĸ àª°àª®
Ġàª² àª£àª£
Ġàªĸ àª¯
Ġàªıàªķ àªªàª£
àªĩ àªĩ
àª« àª°àªĸ
Ġàªļ àª¡àª¤
Ġàª¡ àª¨
àªı àªıàª²
àª¯àª¨ àª²àª®
àªĺ àªī
Ġàªīàªª àª¶
àªł àª¤àª®
à«ĭ. ..
àªĨ àªĩàª¡
à«¦ à«®
Ġàªĩ àª·
àªĹàª° àªľ
àªĹàª° àªĸ
à¤ ı
àª¯àª® àª°
àªµàª¤ àª¶
àªľàª¨ àªµ
àªªàª° àª¡
àª¯àªķ àª¶
Ġàª¸àª° àª²
àª³àªµ àª¶
ĠàªĪ àª¥àª°àª¨
Ġo pp
àªĹàª² àªµ
Ġàªıàª¨ àª¡
ĠàªĿ àª«àª°àªĸ
Ġs ource
an es
en g
ed ed
ar ly
Ġàªľàª° àª¥
Ġf oc
Ġf und
Ġàªķàª² àª¬àª¨
Ġàªķàª® àª³àª¨
àª¥àªķ àª¤
Ġàªħàªµ àªĹàª£àªµ
Ġd en
Ġàªħàªª àªķ
à«ª à«§
Ġà«© à«¯
Ġà«© à«¦à«¦à«¦
Ġàª°àª¸ àªĸ
àª°àª« àª¨
Ġà«§à«® à««à«¦
Ġ18 70
ur u
Ġ5 8
ĠS id
ĠS ub
Ġàªħàª¡ àªĹ
Ġ6 3
àª¹àª°àª£ àª¨
àª°àª®àª£ àª¥
ig er
Ġ10 5
Ġg old
àªĨàªĩ àªıàª®
ĠH igh
op h
àªıàª² àªı
Ġk g
ere mon
Ġv ir
Ġr ad
Ġde ath
Ġ193 5
Ġà«§à«¯à«§à« §
ard s
Ġàªķàª£ àª¬
199 5
àª¨àªĹàª¢ àª¥
Ġtr uth
ect ed
Ġà«§à«§à« ª
à«¨à«¦à«¦ à«Ń
Ġits elf
Ġà¤ħ à¤Ń
Ġwho le
Ġà¤ľ à¤¯
Ġref lect
Ġgr ound
àªŃàªĹàªµ àª¦
Ġà¤¤ à¤¥
Ġmill imetres
Ġsur v
Ġsur face
Ġdisc overed
Ġchang e
ĠEurope an
Ġàªľàª³àªļàª° àªīàªĽ
Ġinflu ence
Ġàªļàª°àª® àª¸
Ġphilosop hy
ogra p
Ġstart ed
Ġfre quently
Ġestab lished
Ġdiscover y
Ġà¦ľ à¦¯
ivid ual
2 50
A d
R P
W ik
d e
l ing
t t
u ge
w s
Ø ª
àª¨ àª§
àª¨ àªµàªµ
àª¤ àªĹàª¢
àª¯ àª¦àª°
àª¯ àªĹàª¢
àªķ àª³àª¨
àªķ àªħàªª
àª² àª¸àª°
àª¾àªĤ "
Ġàª¸ àª£
Ġàª¸ àª¤àª°
Ġàª¸ àª¬àª³
ĠàªĨ àªĸàª²
Ġàª® àªĹàª¨
Ġàªħ àªĹàª°
àªľ àª¯àª¸
àªª àª°àªķàª®
Ġàªµ àª°àª¤
ĠàªĹ àª°àªľ
Ġàª¦ àª³àª®
Ġàª¬ àª°àªµ
Ġàª¬ àªĹàª²
àªĸ àª¬
àªŃ àªĹàª¤
Ġàªıàªķ àª°àª¨
àªĩ àªķàª°
Ġàªªàª° àªļ
Ġàªļ àª°àªķ
àªı àª¤
àª°àª£ àªª
Ġàª§ àª°àª£
Ġàª§ àª¬àªķ
ĠàªŁ àªļ
Ġàª¯ àª¶àªµ
àª²àª¨ àª¥
âĢ ¦
àªĿ àªµàª£
àªĨ àª¥
àªĨ àª¦àª°
àªĨ àªĿàª®
àªī àª¬
Ġàªµàª§ àª¸
àªľàª¨ àª²
Ġa ver
àª¯àªķ àª¥
àª¤àª¨ àªķ
in ent
in ation
Ġàª®àª³ àª¨
Ġàªħàª® àª°àª¨
àªħ àª¡
àªħ àª°àª¬
àªħ àª¡àª§
at ory
àª°àª¹ àª£àª¨
àªŀ àª®
Ġw ar
Ġf ind
àªªàª£ àª®
Ġb one
Ġm id
Ġàª¸àª¦ àªĹ
àª¡àª° àª°
as a
Ġà«¬ à«¨
à«¬ à««
ĠàªħàªĹ àª£
àª¬àª² àª¡àª¨
àªĿàª¨ àª²
Ġ18 50
ur ch
ĠT amil
ĠS p
Ġàªħàª¡ àª¦àª¨
ct s
Ġn ational
àªıàª® àªıàª¸
19 20
Ġre se
àªµàªŁ àªķàª°
àªľàª¯ àª¥
ĠM o
ĠM ar
Ġg u
Ġ9 00
ĠH is
ĠH IV
Ġ16 0
Ġ17 00
Ġ17 76
Ġal though
ĠN orth
Ġst ruct
ĠK a
ĠK an
ĠK ir
Ġàªıàªļ àªª
um ent
um age
Ġàªį àª«
ri al
ĠàªĨàªł àª®àª¨
àªµàª³ àªĹ
ĠàªĨàª¯àª° àª²
ain ing
à¦ ¬
àªıàªļ àªª
Ġde v
ant i
àª°àª° àªļàª¨
àª§àª£ àªķàª³
our s
Ġà«§à«¯à«¦ à«¨
iz ation
Ġà«§à«§à« ®
Ġàªªàªµàª¨ àªļàªķ
Ġcent re
Ġ188 9
Ġcons um
tern al
ĠÎ Ķ
Ġdes ign
Ġac res
Ġind ividual
Ġreg ard
Ġid ent
Ġadd ition
Ġsing ers
Ġty pe
Ġbu ild
Ġàª¤àªľ àªľ
ogra ph
Ġdise ases
elv es
eng th
ĠSid dis
1 50
D s
D el
F O
M us
S p
b ol
c ont
h am
i as
i us
l ine
m m
o f
r ound
u ck
v a
É ª
Ġ Ã
Ġ ĊĊĊĊĊĊĊĊĊ
àª° àªĺ
àª° àª¬àª°
àª® àª¯àª¨
àª® àª°àªķ
àª¤ àª³àª¨
àª¯ àª²àª®
àª² àªµàª°
àª² àªĿàª°
Ġàª¸ àª¦àª¨
ĠàªĨ àªŁ
Ġàª¤ àª¯
Ġàª¤ àªķàªµ
Ġàª® àª¶àª°
Ġàªľ àª®àª¨
Ġàªľ àª²àª¸
Ġàªľ àªĪàªı
Ġàªľ àª¬àª²àªª
àªľ àª¯àªª
àªª àªķàªµ
àª£ àªĺ
àª¥ àª²àªª
à«ĩ. âĢĻ
àª¡ àªªàª®
àª¡ àªħàª¸
ĠàªĹ àªĹàª¨
Ġàª° àª¯
Ġàª¬ àª¢
Ġàªı àª®àªľ
ĠàªŃ àª®àª°
ĠàªŃ àª°àª¡
Ġàª¶ àªķàª¨
Ġàª¶ àª¤àªķ
Ġàªĸ àª²àª¨
Ġàªĸ àª°àªµ
àªĵ àªĿ
àªĵ àªķàª²
àªĩ àª¹
àªĩ àªĵàª¨
àªĩ àª®àª°
Ġàªªàª° àªµàª¡
Ġàªļ àª¶
àª¯àª¤ àª³
àª°àª¨ àª¨
àª°àª£ àªľ
Ġàª§ àª¬
Ġàª¯ àª¤
àªĿ àª¸
àªĿ àª¥
àª¤àª° àªĹ
àªĨ àª£
àªī àªĹ
àªµàª° àª²
à«¦ à«©
Ġàªµàª§ àªĺàªŁ
ĠàªĨàªª àªĺ
àª°àªµ àª¡
àªķàª° àª¦
Ġa ir
àªªàª° àª¥
àª¦àª° àªľ
àª°àª¸ àª¤
àª¸àª° àªª
er y
àª¸àª® àªķ
àªļàª¨ àª¸
Ġs q
Ġs oul
àª¯àª° àª«
àª®àªķ àªµ
àª°àª¤àª¨ àªª
Ġf em
Ġf ood
Ġf ather
Ġb at
Ġàªµàª¡ àªªàª£
Ġp ub
ic ro
à«® à«©
à«® à«§
Ġd ial
Ġà«¬ à«ªà«¦
ĠàªĨàª¶ àª¯àª¥
Ġh ouse
àª°àª¥ àª®àª¨
ĠI R
ĠA T
àªµàª¡ àª²
à¤¾ à¥¤
ĠB ach
àªıàª¨ àªŁ
im al
Ġàªħàªķ àª¬
ad u
ver t
ĠP at
Ġàª¬àªļ àªªàª¨
ut e
ut t
Ġ10 1
Ġg re
Ġàª¦àª² àªªàª¤
Ġ16 00
ĠK han
Ġàªıàªļ àªıàªı
àª£àªª àª£àª¨
Ġ12 5
Ġv ol
ak i
Ġse ason
Ġha ving
ĠU K
Ġpro ject
ab h
Ġcom b
Ġcom e
ĠO ne
Ġde ep
pt ion
osaur ians
Ġ193 4
à«§à«® à««à«Ń
Ġà«¯à« ®
ĠàªľàªĪ àª¶
te xt
Ġpl umage
ok en
Ġle ast
Ġà«§à«®à«« à«®
com ing
oll o
Ġà«§à«®à«Ń à««
Ġà«§à«®à«Ń à«®
Ġcl ose
ĠàªĨàªīàªŁ àª¡
Ġà«©à«¬ à«¦
Ġinf e
ĠPr adesh
Ġher b
Ġàªľàª¨àª° àª²àª¨
ool s
Ġbir th
ĠàªĹàªł àª¬
Ġcontin ued
Ġsing le
Ġest im
Ġreal ity
Ġass oc
Ġorgan isms
ĠâĤ ¹
Ġbro ther
Ġdise ase
Ġed uc
Th is
Ġwide ly
Ġà¤ı à¤µ
ĠGr oup
Ġàª®àª« àª¤àª®
viron ment
% .
3 80
A I
C om
I t
L ua
a an
b order
f er
g g
h ol
i ar
s elves
x x
z e
{ \
Ã ²
Ġ ir
àª° àª§àª¨
àª¨ àª³àª¦
àª® àªķàª¨
àª® àªķàª²
àªµ àªªàª²
àª¯ àªµàª¨
àª¾àªĤ âĢĻ,
àª¸ àª¹àª¸
ĠàªĨ àª²àª®
ĠàªĽ àª°
Ġàªħ àª³
Ġàªħ àª³àª¶
àªŁ àª§àª°
àªľ àªĸ
Ġàªµ àªĿ
àª¥ àªķàª¨
àª¥ àª°àªµ
àª¦ àªµàªª
àª¶ àªªàª°
Ġàª¹ àªŁàªµ
àª¹ àª®àª¨
ĠàªĹ àªı
ĠàªĹ àªĿàª¨
ĠàªĹ àªłàª¨
àª§ àª¯
àª§ àªľ
Ġàª¬ àª¦àª¨àªķ
à«Ĥ !
àªļ àª¯àª¨
ĠàªŃ àª°àª®
ĠàªŃ àª³àª¤
ĠàªŃ àª¯àª¥
Ġàªķàª° àª®àªļ
Ġàªĸ àª®àª£
àªĵ àª³àªĸ
Ġàªī àªľàª³
Ġàª§ àª°àª®
Ġàª§ àª¨àª¨
Ġàª§ àª®àª§
Ġàª¸àª® àª·
Ġàª¯ àª®àª¨
àª°àªķ àª¥
àªĺ àªŁàªķ
Ġàªīàªª àª¡
àªĨ àª°àª¨
àªµàª¨ àªªàª°
à¤ ³
à¤ Ľ
Ġt urn
àª¯àªķ àª²àª¨
Ġàª¸àª° àª«
ĠàªĪ àª¥
Ġo per
er ve
Ġàªªàª¡ àªĺ
on n
Ġàª¨àªµ àª¦
ĠàªĬ àª£àªª
is ing
àª°àª¹ àªµ
Ġàªħàª² àªµ
an ks
Ġc eremon
al es
Ġàª®àªĹ àª§
Ġàªħàª¸ àªķ
àª¨àªµ àª®
àª¤àªķ àª³
Ġàªķàª² àª°àª¨
Ġin te
Ġm ag
Ġm aking
Ġàªıàª® àª°
àª°àª¬ àªľ
àª¥àª³ àª®
ic a
à«¬ à«Ń
Ġà«§à«¦ à«§
Ġ- -
ĠĊ ĠĊ
Ġà«§à«® à«§à«¯
et re
Ġàª¸àªĹàªµàª¡ àª¤
Ġ18 40
Ġà«® à«Ń
ĠA fter
ĠT ri
ol ars
àª·àª® àª¯
Ġl iving
àª°àªĸ àª¨
Ġn or
Ġn ominated
Ġàªł àªķ
Ġre ven
ĠC an
ĠC up
ce an
Ġàª¢ àª¬àª¨
os s
ĠP e
ĠP l
àªµàªľ àª¤
Ġàª®àª¸ àª²àª¤
ra c
àªĪàª² àªŁ
Ġ16 80
Ġà«§à«¨ à««
un j
un ction
em ber
20 11
ĠF rom
th ing
à¦ °
Ġsu per
Ġse em
Ġha pp
Ġpro f
àªıàªļ àªĵ
ĠO ther
à¤µ à¤°
199 7
Ġsh ort
àªĨàªĪ àªµ
Ġ192 3
à«§à«¦ à«¦
à° ¾
à«¨à«¦à«¦ à«¯
Ġ188 6
Ġwor ks
àªħàªķ àª¬àª°
Ġ186 5
Ġmod ule
Ġam ount
Ġthem selves
Ġstud ents
ĠFilm fare
ĠàªĨàªĩàªı àª¨
Ġdirect ly
àª¨àªµàª¸ àª°
àª¹àª¡ àª®àª¤
Ġcap ensis
Ġbu ilt
Ġanc ient
Ġyou ng
Ġcaus es
Ġlit er
àª£àªµàªŁ àªŃàª°
ĠDev aki
Ġcomple x
Ġcommun ity
Ġproduc ers
ĠAc ademy
Ġpolit ical
Ġstr ong
Mod ule
Ġàªīàª§àª® àª¸
ĠLag aan
Ġaver age
? "
C l
C or
F ootball
O r
b l
d as
h ab
h ib
l er
n ath
p oint
r t
r at
r ing
t ra
v ious
Î »
Ù Ĩ
Ġ ĊĊĊĊĊĊĊ
Ġ vers
àª° àª¯àª¦
àª° àªłàª¨
à«į âĢĻ
àª¨ àªĪàª¨
à«Ģ _
à«ĭ )
Ġàªª àªļàªµ
Ġàª® àªª
Ġàªľ àª¸àª¤
ĠàªĽ àª²
àªĹ àª°àª£
àªĹ àª¤àª°
àªŁ àª¹
àªŁ àª³
àªľ àª¯àªµ
àª¥ àª°àª¥
àª¦ àª¯àª®
Ġàª¬ àªĿ
àª³ àªķàª®
ĠàªŃ àª£àª¤
ĠàªŃ àªµàª¨àª®
àª¬ àª¨àª®
Ġàª² àª°
àªŃ àªķàª°
àªŃ àª£àªķ
Ġàªıàªķ àª®àª®
àªĩ àª¦
àªĩ àªķàª¨
Ġàªļ àª³àªķ
àªı àª²àª°
àªı àª¨àª°
àª°àª£ àª°
à«Ģ. /
àªł àª°
àªµàª° àªľ
à«¦ à«¬
àªĵàª¨ àª²
Ġàª§àª° àªªàªķ
Ġa ward
àª¯àªķ àªķ
àªŁàª° àª¬
ĠâĢ ¦
àªħ àªµàª¸
ĠàªĪ àªĿ
Ġ19 17
Ġàª®àª§ àª®
ĠàªĿ àª®
ĠàªĬ àªªàª¯
is ch
Ġàªīàª¦ àª¯àª¨
Ġc le
al i
Ġw at
Ġw est
or ial
Ġin it
Ġm en
Ġàªķàª® àª¸
àª¥àª³ àª¥
ic y
il le
Ġàªħàªµ àª¤àª°
ing u
Ġà«¬ à«§
àª²àªµ àª¡
àª°àª¯ àªµ
Ġh y
Ġh ow
ĠI f
Ġ18 80
àªŃàªµ àª¨àª¨
Ġe mer
Ġe conom
ĠS oc
âĢĿ .
Ġl og
Ġth ir
19 47
19 73
Ġàªĺàª° àªĨ
ĠC l
ĠB C
Ġàª®àª¤ àª¥
ĠM P
Ġàªīàª® àª°àª®
ĠP art
Ġàªĳ àªªàª¨
àªµàªľ àª¦
Ġg et
ra in
Ġàª¨àªµàª² àª°
Ġàªµàª² àª¯àª¨
un a
un g
Ġk ill
ĠàªªàªĹ àª¦
Ġàª¬àª³ àª¥
à¦ ¤
àªľàªĹ àª¤àª¨
à¤¯ à¤ķ
à¤¯ à¤¶
ate g
Ġex per
Ġex pect
aur opods
àªıàªļ àª¡
ill s
Ġde al
ous and
Ġà«¨à«« à«¦à«¦
Ġà«¯à« ¯
Ġ192 4
Ġ190 7
ĠCh inese
Ġ185 3
Ġab s
Ġad m
Ġà«§à«®à«« à«©
Ġsp an
Ġte lev
Ġà«§à«®à«Ń à«¯
Ġcl aim
Ġ188 8
Ġne ver
Ġrec ent
Ġform s
Ġcol lect
Ġcomp ound
Ġvi ol
àªĸàªª àª¦àª¨
à«§à«¯à«Ń à«¦
Ġacc ount
àª¨àªĸ àª°àª¨
ĠàªŃàªĹàª¤ àª¸
Ġappe al
amp ions
Ġnam es
Ġocc ur
Ġimp act
Ind ian
Ġscient ific
ĠGu jar
Ġresp ons
ĠAp ollo
ĠJan uary
Ġder ived
Ġpack age
ÛĶ ÛĶ
ĠàªıàªĨ àªĩàªľ
Ġhous es
Ġfoc us
ĠKir ti
Ġàª§àª°àªªàªķ àª¡àª¨
" \
A A
A P
A l
B C
N H
O n
m s
n one
o le
p ass
t tp
Û ģ
Ġ æ
Ġ è
Ġ urb
àª¾ âĢ¢
à«ĩ àªĤ,
à«ĩ âĢĻ,
àª° àªłàª®
àª® àªļàª¨
àª® àªªàª¤
àª¯ àªĸ
àª¯ àªĽ
àªķ àªµàª¨
àªķ àªĨàªīàªŁ
àª² àªĹàª¢
Ġàªª àªŀ
àª¸ àªĹàª°
Ġàª¤ àªĨàª²
Ġàªħ àªķàª²
àªľ àª³àª¨
àªª àª¤àª°
àª£ àª¶
àª£ àª®àª¨
àª¦ àª¶àª¨
àª¹ àª³àªµ
Ġàª° àª®àª¨
Ġàª¦ àªŁ
Ġàª¬ àª°àª£
Ġàª¬ àª²àªķ
àªļ àª¯àª®
àª· àªķàª¤
àªĵ àª¯
àª®àª¨ àª®
Ġàªıàªķ àª¹àª¥
Ġàªļ àª¬
àªĪ àªķàª¨
àªı àªŁàª¨
àªı àªıàª¸
àªı àª¨àª¸
Ġàª¯ àªµàª¤àª®
Ġàªīàªª àª°àªķ
àªł àª¡
à«ĭ. âĢĿ
àªĨ àªªàª¨
àªī àªı
àª¾. ..
à«¦ à«ª
Ġàª°àª¹ àª¤
Ġàªĩ àª¡
Ġàªĩ àªŁàª²
Ġàªĩ àª¥àª°àª¨
àªµàª¨ àª§
àª°àªµ àª¦àª¨
à¤ ŀ
àªķàª° àª¸
àªķàª° àªª
Ġ2 20
Ġ" ...
re c
re nc
ĠàªĪ àª¥àª°
àª«àª³ àª¨
at ives
is es
àª°àª¹ àª¥
Ġàªĩàª¨ àª²
Ġc irc
Ġàª¸àª¹ àªµ
ar ing
it es
it ud
Ġf ish
Ġm oney
à«ħ àªĤ
Ġp ort
Ġp ract
àªŁàªķ àªķ
àª¸àªķ àª¥
à«® à«Ń
Ġàªħàªµ àª®
as c
Ġd im
Ġàªħàªª àªĹ
à«¬ à«¯
om an
àªĨàª° àªıàª¨
àªĨàª° àªıàª¸àª¸
àª°àª¯ àª¸
Ġàª°àªľ àª¤
àªĹàª¢ àª¥
Ġh ttp
Ġàªıàª¸ àª¡àª¬àª²
ent ilis
ĠàªĺàªŁ àª¸
Ġà«ª à««à«¦
ol s
Ġe as
ĠS S
Ġà«Ń à«¯
Ġ20 30
Ġl in
Ġl if
Ġl ess
Ġl ove
Ġl ower
Ġth ousand
àªıàª® àªĵ
Ġàª²àª¡ àª¯
ro te
ĠàªĿàª¡àªª àªŃ
ĠB o
ĠB ar
im ages
ce mber
ĠM al
os ed
Ġàª¹àª¸ àª¤
Ġ10 7
Ġg entilis
ĠàªĲ àªķ
ĠH er
Ġàªªàª² àª¯àª®
Ġàª¤àªª àª¶
ĠN ow
Ġst ret
ĠàªīàªŃ àª°àª¤
à¤¿ à¤Ĥ
ĠF e
ĠF l
ĠF estival
Ġàª¬àª³ àª¦àª¨
ak a
Ġse par
Ġex cept
iv il
ĠW ith
ĠW ikipedia
Ġde g
à¤ķ à¤°
pt ember
Ġ193 1
av ing
Ġàª¨àªľàª° àª®
ĠCh rist
Ġ185 6
à«¨à«¦à«¦ à«®
Ġsc ript
ru ction
Ġfe ature
Ġ188 2
Ġform ed
Ġà«©à«¬ à««
ĠX box
Ġprodu ce
Ġdist in
Ġref ere
Ġpr im
Ġà«§à«®à«¬ à«¦
Ġup on
Ġbel ong
Ġàªıàª°àª¬ àª¸àª¨
àªĶ àªªàªļ
Ġsub st
Ġgener al
por a
Ġrele ased
àª¨àªµàª² àªķàª¥
ĠAd dress
Ġmet ers
Ġfeat ures
Ġfeat ured
Ind ia
Ġbus iness
ev a
Ġàªıàª¨àªıàªļ àªıàª¸
ĠSch ool
imate ly
inn ing
Ġentire ly
Ġpot ential
Ġàªīàª£ àªªàª¨
Ġindepend ence
Ġartic le
ĠAustral ia
Ġmedic ine
ici ency
ĠKap oor
ograp hy
Cor iander
Ġtelev ision
"\ ""
Ġurb an
A ll
P N
b o
b re
b and
f act
g ra
m p
m ost
n am
r ia
t ical
Î µ
â ĨĴ
Ġ á
Ġ eth
Ġ _{
àª° àª¶àª¨
àª® àª¸àª°
àª¤ àªĸ
àª¯ àª¶àªķ
àª¯ àªĹàª¡
àªķ àª¸àª®
Ġàªª àªŁàª®
Ġàªķ àªŁàª°
Ġàªķ àª£àª¨
àª¸ àª£àª®
àª¸ àª¤àª¤
ĠàªĨ àªĪàªı
Ġàª® àª°àª¤
Ġàª® àªµàª²
Ġàªľ àª¡àª¬
Ġàªħ àªľàª¯
Ġàªħ àª³àªĹ
àªľ àªŁ
àªľ àª¸àª®
àªª àª¸àª°
àªª àªĹàª¢
àª¥ àª£
àª¥ àª°àª«
àª¦ àªĸ
àª¦ àªªàª°
àª¡ àªªàª¤
àª¡ àªĿàª®
àª¹ àªŃ
àª¹ àª°àª¦
àª¹ àª¸àª®
àª¹ àª®àª¦
ĠàªĹ àª°àª¦
àª§ àªķàª¤
Ġàª° àª¨àªµ
Ġàª° àª¨àª°
Ġàª° àª¤àª²
Ġàª¨ àªı
Ġàª¨ àª°àª¹àª°
Ġàª¬ àª¯
Ġàª¬ àª¦àª°
àªļ àª°àª¬
Ġàªı àªĪàª¡
ĠàªŃ àª¡
Ġàªķàª° àª¸àª¨
Ġàª¶ àª¶
àª¬ àªı
àª¬ àª¸àª¨
Ġàªĸ àª®
Ġàª¥ àª®
Ġàª¥ àª¡àª¨
Ġàªī àª¥àª²àªª
Ġàªıàªķ àª§
Ġàªıàªķ àª¶àª¨
Ġàª¡ àªķ
àªĪ àªªàª°
àªı àªķàª®
àª°àª® àª£àª®
àª°àª® àªķàª¤
Ġàª« àª£àªĹ
àª°àª£ àª¸
Ġàª§ àªľ
Ġàª¸àª® àªĿ
Ġàª¸àª® àªľàª¨
Ġàª¸àª® àªĺàª¨
Ġàª¸àª® àªĺàª¨àª¨
àªĹàª® àª¤àª¨
àª°àªķ àª°àª£àª¨
Ġàªĵ àª¶
Ġàªĵ àª²àªµ
Ġàªīàªª àª¸àª°
àª¤àª° àª¦
àª¨àª¨ àªļ
à«¦ à««
ĠàªĨàªª àª®
Ġt able
àªªàª° àª«
he st
àª¯àªķ àª³
àªŁàª° àª°
àªªàª¨ àªĹàª°
re st
Ġ19 13
er ved
Ġàª¨àªµ àª¯
ĠàªĬ àª¦
en ed
Ġc at
it ive
à¥ ¦
Ġàªµàªļ àª®
Ġàªķàª² àªĹ
Ġb i
Ġb ig
Ġm ission
àª®àª° àª²
Ġà¤ ¥
Ġà¤ §
Ġà¤ «
àª£àª® àª¶
ic on
ou nc
il ed
àªķàª°àª£ àª¥
Ġà«¬ à«¦à«¦à«¦
àªĸàª° àªĸ
Ġto o
àª°àª¶ àªķ
àª²àª¸ àª¤
ĠI d
àª¯àªª àªµàª¨
Ġà«§à«® à«¯à«¦
et imes
àª¬àª¨ àªĹàª°
ĠA ct
ĠA rab
ĠT V
ĠàªĨàª¯ àª°àª¨
Ġe at
ĠS at
ĠS ince
Ġl ab
Ġl ines
Ġl ink
Ġ6 000
19 89
Ġà«¯ à«¦à«¦
àª¬àª¤ àªĸ
àªµàªŁ àª¦
ro c
ce ll
Ġàªīàª® àª°àª¨
Ġàªľàª¯ àª¶
ĠP ur
ĠP unj
od ont
Ġàªıàª° àªŁ
àª®àª¥ àªķàª¨
ch ie
Ġ10 3
ra h
ul f
àª¨àªĹàª° àª¥
ĠN ovember
Ġst op
Ġ| -
Ġàªķàªł àªª
ĠK h
ĠK ar
ĠàªĲàª¤ àª¹
ĠD r
ĠD utt
Ġàª«àª³ àª¸
Ġcon c
th umb
ian t
Ġv ision
àªıàª« àª¡
à¦ ²
Ġse ction
ial ly
ant ic
og le
à¤¸ à¤ķ
Ġ23 0
our ces
Ġà«¯à« §
te e
Ġà¤¸ à¤®
Ġ190 4
Ġ= =
Ġà«§à«§à« ¨
à° °
à¤ª à¤¨
à«¨à«¦à«¦ à«¬
Ġàªħàª¸àª® àª¤
Ġà«§à«®à«Ń à«¦
àª²àª¦ àª¹
Ġne xt
ĠX X
ĠDe cember
cl iff
Ġloc ation
Ġà¦ ¹
à¤ľ à¤¨
lu a
Ġen ough
Ġà«§à«®à«¦ à«©
ĠàªĵàªĹàª£ àª¤
à± į
Ġàª¹àª¡ àª®àª¤
Ġàª²àªŁàªķ àª¤
Ġspec im
Ġsex ually
á¹ ĩ
Ġà¤ĩ à¤¤
Ġfollow ing
Ġbr ought
Ġdevelop ed
Ġser ies
Ġà«§à«Ńà«® à«§
Ġsk ele
Ġcaus ed
Ġexpress ways
Ġsch olars
Ġroad s
Ġfossil s
Ġallow ed
aug h
ĠEx press
had ra
Ġactress es
ĠFore ign
Ġcele br
icot ine
Ġtherop ods
Ġàª§àª®àª§ àª®àª¤
ĠPunj ab
cliff e
B est
C M
F F
I s
M ain
a pe
b ased
f oot
h ind
i os
k ar
k rit
l ight
u ly
v Äģda
y stem
É Ļ
Ï Į
Û Į
Ġ ĠĊ
Ġ Ø§
àª¾ à«į
à«ĩ à«ĩ
à«ĩ ',
àª° àª¢àª¤
àª¨ àª¸àª®
àª¨ àªķàª®
àª® àª¬àª¦
àª¤ àª¹
àª¤ àªı
àªµ àªĹàª¤
Ġàªª àª¨àªµ
Ġàªª àªĸàªµ
àª¸ àª£àª¨
Ġàª¤ àªĸàª²
Ġàª® àªļàªķ
ĠàªĽ àª¤àª¨
Ġàªħ àª°àªķ
Ġàªħ àªĸàª°
àªľ àª«
àªľ àªĹàª¤
àª£ àª¨àª®
àª¥ àªĺàªŁàª¨àª¨
àª¦ àª°àª£
àª¦ àªķàª®
àª¡ àªĿàª¨
àª¹ àªı
Ġàª° àªĹàª¡
àª³ àªļ
Ġàªı àª¡àª²
Ġàªı àªıàª«
Ġàªı àª¬àª°àª¡
ĠàªŃ àª®àª¤
ĠàªŃ àªµàª¨àª¨
àªĸ àªªàª°
Ġàª² àª¹àª¦
Ġàªī àªŁ
Ġàªī àª¦àª°
Ġàªªàª° àª²àªķ
àªĪ àªŁàª°
àªı àªķàª²
àªı àª¨àª®
àªı àª«àª¨
àª°àª® àªľàª¨àªķ
Ġàª« àª¯
àª°àª£ àªĽ
àª°àªķ àª°àª¨
Ġàªĵ àªĩàª²àª¨
àª§àª¨ àª¥
àª¤àª® àª¤
àªł àª¶
àªĨ àª°àª¡
àªĨ àªĪàªŁ
Ġ1 200
àªī àªªàªĹ
àªµàª° àª¦
Ġàªĩ àªıàªª
à¤ Ŀ
Ġt en
àªķàª° àª°
Ġa ut
Ġa uth
àªªàª° àª¹
in i
àª°àª¸ àª¥
Ġàª¦àª° àª¥
àª¢ àª°àªª
àªħ àªĽ
ĠàªĪ àª¡àª²
àª¸àª° àªĹ
Ġthe ory
àª¬àª° àª®àª¨
àªĩàª¨ àª«
er ous
ĠàªĿ àªŃ
Ġàª¨àªµ àªĹ
Ġs elf
ĠàªĬ àªľ
Ġàªīàª¦ àªµ
Ġàªīàª¦ àªķ
àª®àªķ àª®
Ġc ases
al c
al f
ar p
it a
Ġf oot
or ity
Ġàªķàª² àªļ
Ġb ar
Ġp an
Ġp ale
àªıàª¸ àªĩ
ic ated
àªķàª® àª³
à«® à«¯
Ġàªħàªµ àª§àª®
àª®àª² àª¤àª¦
Ġà«§à«¦ à«ª
Ġto wards
Ġh ot
àª¯àª² àªŁ
àª°àªľ àªª
Ġà«§à«® à«¨
Ġà«§à«® à«§à«®
ĠA b
Ġe lect
ĠS an
Ġl aw
àªµàª¡ àª°àª¨
àªļàª® àªļ
19 76
Ġàªĺàª° àªĹàª¥
ĠB ank
ce nd
àªľàª¯ àªĹ
àª°àª®àª£ àªĸ
ot es
Ġàª¢ àª³àª¤
os es
ĠP ri
ch a
Ġàª¸àª®àªľ àª¤
Ġ16 99
Ġ16 84
ĠG e
Ġ17 89
ĠN I
un t
Ġan ti
Ġan aly
ac hed
Ġàªıàª¡ àªľàª¸
ĠD ist
ĠD el
Ġàªıàªļ àªıàªıàª²
ag ed
à¤Ĥ ,
ht ra
ĠU r
ĠW ar
ĠW hile
Ġhe ld
ang l
Ġnot es
àªµàª¦ àª³àª¨
te br
Ġpl ot
gr am
Ġle g
ip iter
Ġcont ain
Ġ192 6
ib er
Ġim m
Ġàªµàª£ àªķàª°
Ġ185 4
à° ¿
Ġab le
Ġdis play
Ġà«§à«®à«« à«¬
Ġàªĵàªµàª° àª¸
Ġte am
Ġte ach
iss ance
à¨ ¾
Ġro le
Ġcomm it
anc er
48 6
Ġàª¹àª² àªļàª²
Ġdist ingu
Ġ186 7
Ġà«§à«®à«¬ à«¯
à«ĭâĢĿ ,
Ġàª· àª·
ĠAn other
Ġen vironment
à«§à«¯à«¯à« ¯
Ġem b
Ġmain ly
ĠSe ptember
Ġamong st
Ġinst itut
Ġset t
Ġsuccess ful
Ġinflu enced
Ġimp ro
apt or
Ġcrit ic
Ġiss ues
osp here
Ġdep art
ĠSidd i
Ġel se
ĠShiv a
Ġàªµàªķàª¤ àªµ
ott om
Ġquest ion
ÏĢ ÏĦ
Ġrese arch
ĠBach chan
Ġàªıàªļàªıàªı àªĨàª°àªŁ
Ġassoc iated
ĠàªĨàªĩàªıàª¨ àªıàª¸
Ġlin ks
Ġstret ch
! !
' '
A àª¨
B y
C àª¨
D D
O S
S t
a a
l o
n u
n al
s elf
u ct
w rit
} =
Ã ¡
Î º
Ï ģ
Ù Ī
Ġ rom
Ġ ens
àª¾ àª¾
àª° àªĨ
àª° àªĸàªµ
à«Ģ ?
à«ĭ !
àª¯ àªľàª¨
àª¯ àªļàªķ
àª¯ àª«àª²
àªķ àªµàª¤
àªķ àªŁàª°àª¨
Ġàªª àªĸ
Ġàª¸ àªµàª²
Ġàª¸ àª¤àª¨
Ġàªķ àªľ
àª¸ àªĺ
ĠàªĨ àª°àª£
Ġàª® àªĽ
Ġàª® àªĹàª¤
Ġàªľ àª¦
Ġàªľ àªĩàªı
ĠàªĽ àª¨
Ġàªħ àªĹàª®
Ġàªħ àª¬àª°
àªŁ àª°àªķàª¨
àª¦ àª³àª®
àª¶ àªļ
àª¶ àªı
à«ģàªĤ ?
Ġàª¹ àªļàª®àªļ
àª¹ àªķàª¤
Ġàªħàª¨ àªª
Ġàª¦ àª®àª¨àª¨
Ġàª¨ àª°àªĹ
Ġàª¬ àªµ
à«Ĥ à«į
àªļ àª®àª¨
Ġàªı àª¡àª¨
Ġàªı àª¥àª¨
ĠàªŃ àª°àª¨
ĠàªŃ àªŃàª°
Ġàª¶ àª°àª¤àª¨
Ġàª² àª¬
Ġàªĸ àª°àª¸
Ġàªĸ àª¡àª¤
àªĵ àªŁàª¨
àªĵ àªĹàª£
Ġàª¥ àª°àª¨
àªĩ àª«àª°àª¨
Ġàªªàª° àª®àª¹
àª« àªĹ
àªĪ àª¡àª®
àªı àª®àªķ
àªı àªªàª²
àª°àª® àª¬
Ġàªĺ àªµ
Ġàª¯ àªµàª¨
Ġàªĵ àª£àª®
àªĺ àª£àª¨
àªĺ àª²àªķ
àªł àª£
àªł àª¬àª³
àªī àª§àª°
à«¦ à«¯
Ġt ax
Ġt onn
Ġa ware
Ġa chie
àªŁàª° àª¶
àªŁàª° àª¬àª°
in ing
àª°àª¸ àªª
àªĹàª¨ àª®
Ġàª®àª³ àª®
Ġàªħàª® àª²àª¨
àªľàªķ àªª
àªħ àªĿ
àªħ àª®àª²
re l
re ct
àª¡àª¨ àª¥
àªļàª¨ àª¥
ĠàªĨàª° àªıàª¨
Ġs ale
Ġs outh
Ġs olar
àª®àªľ àª¯
ĠàªĨàª¦ àª°àª£
Ġc over
Ġc ase
ar ma
Ġw ant
Ġàªĵàª« àª¸
Ġin side
Ġin ternational
Ġm iss
Ġm iddle
Ġàªµàª¡ àª¦àª²
Ġp ri
Ġp ath
Ġàªıàª® àªĨàªĩàªŁ
à«® à«¨
as pora
àª²àª¬ àª¤
Ġd on
Ġd ed
Ġd est
Ġd ry
Ġàªħàªª àª¸
Ġà«§à«¦ à«¨
Ġàªıàª² àªª
Ġàª¸àªŃ àª°
Ġà«§à«® à«ªà«¦
Ġà«« à«®
Ġà«« à««à«¦
et w
Ġ18 71
àªŃàªµ àª¥
ĠA D
ĠA I
ĠA L
Ġàª¹àªľ àª°àª¤
ĠS w
Ġl ook
Ġl iqu
àª°àªĸ àªª
Ġth ing
Ġth ink
Ġn ation
19 48
àª²àª¤ àªª
ot ion
Ġbe gan
Ġbe hav
Ġàªľàª¯ àªµàª°
Ġàªĳ àª¨
ir l
ra g
ĠH ar
ĠH istory
ĠG uru
Ġ17 5
Ġàª°àªļ àª¤
Ġst ri
Ġst ates
ĠR am
àªıàª² àªıàª¸
ĠD ay
ĠD inosaur
ĠD irect
Ġk ing
Ġàªį àªª
ag ue
Ġàªķàª¬ àª°àª®
Ġ12 3
and a
ud eva
à¤¯ à¤¤
ate ly
ht a
Ġpro b
ab ility
ĠW AN
qu ote
ĠV as
ĠàªŃàª°àª¤ àªª
àªĹàªª àªŁ
Ġàª¤àª°àª¤ àªľ
Ġinc or
ort s
Ġàªħàªµàª° àªľàªµàª°
ĠIn st
Ġàªµàªľàª¨ àª®
Ġà«§à«¯à«¦ à«©
Ġà«§à«¯à«¦ à«ª
àª¨àªĹàª¢ àª¨
Ġà«§à«®à«® à«¨
iz ing
ib r
ib et
Ġà«§à«§à« «
Ġà«§à«§à« Ń
àª£àªŃ àªŁ
ĠÂ ½
Ġcent ral
Ġà«§à«®à«« à««
Ġres olution
Ġ188 4
Ġj u
Ġàªħàª¢ àª³àªķ
Ġinf ormation
Ġâ ĨĴ
Ġsy Äģd
Ġ186 6
Ġcol or
Ġqu ality
ĠÎ ²
Ġàªľàª¸ àª¤àª¨
Ġag o
Ġcomp et
Ġunder stand
Ġàª¹àª²àª¨ àªļàª²àª¨àª¨
Ġra p
Ġra re
Ġreg ion
Ġrem ains
Ġsim ple
Ġàª°àª¥ àª¯
Ġacc ess
ĠCom mission
Ġpres ence
Ġhigh way
Ġadd ed
Ġco ins
Ġchang ing
Ġmon th
Ġcap ital
Ġplay ed
Ġposs ess
Ġdi aspora
Ġconst ruct
Ġiss ued
ĠàªŃàªĹàªµàª¤ àª¸
Ġchild ren
Ġscient ists
ĠàªĹàª²àª¨ àª¬
Ġproblem s
itut e
ĠMe hta
ĠĠĠĠĠĠĠĠĠĠĠĠĠĠĠĠ ĠĠĠĠĠĠĠĠĠĠĠĠĠĠĠĠ
Ġmult iple
Ġtopics àª¢
Ġearli er
Ġearli est
Ġsym bol
ĠRad cliffe
Ġtyp es
ĠàªĨàª°àªĵàªı àª®
Ġbill ion
Ġlyric s
Del ta
ĠàªĹàªĹàª¨ àªļ
Ġeduc ation
ĠGujar at
itud e
ĠàªĹàª°àª¦ àª¨àª¨
ĠDel hi
Ġàªĸàª¡àª¤ àª²
Ġtonn es
" '
' t
; "|
c hed
e c
k a
l ess
n ced
Ï ī
à ´
Ġ era
Ġ iron
à«ĩ à«į
àª° àª¯àª¨
àª¨ àª°àª®
àªµ àªĽ
àªµ àª¡àªµ
àª¯ àªŁàª¨àª¨
à«ģ âĢĻ,
àª² àª°àªķ
àª² àª¤àªµ
Ġàª¸ àª¥
Ġàª¸ àª°àª¤
Ġàª¸ àª¬àª°
Ġàªķ àª®àªľ
Ġàªķ àª¬àª°àª¨
ĠàªĨ àª²àª¬àª®
Ġàª® àªµ
Ġàª® àªľàª®
Ġàª® àª°àª£àª¨
Ġàªľ àªĸàª®
ĠàªĽ àª¤àª°
àªĹ àª¤àª¨
Ġàªħ àª¯àª¨
àªŁ àªŃ
Ġàªµ àª£àªµ
àª¦ àªļ
àª¦ àª¡àªµ
à«ĩ. ...
àª¶ àª°àª¨
àª¶ àª²àª¨
à«ģàªĤ /
Ġàª¹ àª°àªª
àª¹ àª°àª¶
àª¹ àªĹàª¢
àª§ àª§àª°
Ġàª¦ àª³àªµ
Ġàª¦ àª¶àª°
Ġàª¬ àª«
ĠàªĨàªµ àªľ
ĠàªŃ àªľàª¨àª¨
Ġàªķàª° àª®àª¸
àªĸ àª®àªķ
àª· àª§
àª· àª®àª£
àª· àªķàª®
Ġàª² àª¡àª¨
Ġàªĸ àªªàª¤
àª°àª¤ àªµàª°
àª®àª¨ àª²
àª®àª¨ àªĹàª°àª¨
àªĩ àª²àª¸
Ġà« ¢
àª« àª¡àª°
Ġàªļ àª°àª£àª¨
àª¶àª¨ àªı
Ġàª§ àª¡àª¨
Ġàª¸àª® àªļ
Ġàª¸àª® àªŃ
Ġàª¸àª® àª¤àª³
Ġàªĺ àª¸àªµ
Ġàªĺ àª¡àª¤
àªĿ àª°àª¡
àª¤àª° àªľ
Ġ1 19
àªī àªªàª°àª¨
àª¿àªĤ .
à«ģàªĤ. ..
àªĹàª° àª¥
à¤ «
àª¯àª® àª¤
àªķàª° àª¬
Ġa ge
àª¤àª¨ àª¥
àªŁàª¨ àª°àª¶
Ġàªµàª¸ àª²
ĠàªĪ àª¦
Ġ19 16
àª¬àª° àª«
àª¸àª® àªľ
ĠàªĿ àª¨
ĠàªĿ àª¬
Ġàª¨àªµ àª¤àª°
is c
Ġàªħàª² àª¬
Ġàªĩàª¨ àª¡
Ġc ou
Ġc am
Ġc oll
Ġf unction
à«¨ à«¦à«¦à«¦
or i
Ġb ound
Ġàªµàª¡ àª²
Ġp a
Ġp ie
Ġp oll
Ġp arent
Ġàªıàª® àªıàª¸
àª¡àª° àªĹ
àªķàª°àª£ àª¶
Ġàª®àª¨ àªªàª¸
Ġàªļàª£ àª¤àª°
àª®àª¦ àªª
Ġàªıàª² àª¡
Ġàªıàª¸ àª¯
Ġàªıàª¸ àªıàªļ
ent ion
àª¯àªª àª¦àª¨
Ġà«§à«® à«§à«Ń
Ġà«« à«Ń
Ġ4 50
et ic
Ġ18 2
Ġ18 76
Ġ18 72
ur a
ur g
ĠA ut
ĠT ibet
ol a
Ġ5 000
ĠS al
ĠS ans
Ġl ength
àª¤àªµ àª¯àª¨
àª§àªµ àªľ
à¤¾ ,
àªµàª°àª£ àª¥
àªĹàª£ àªķ
àªĪàªŁ àª¹
Ġre ason
ro ad
ro wn
am i
am ple
àªıàª¨ àª¡
ĠM y
Ġbe aut
Ġbe coming
Ġbe hind
ver se
od es
ut ure
à¤° à¤¸
Ġg ar
àªĨàªĩ àª¸àª²
ĠH um
ĠG er
Ġal ways
ĠàªŃàªľàªµ àª£
em pt
em por
Ġàªħàª£ àªĹàª®
ĠF I
ĠL anguage
Ġor nith
à¦ §
à¦ ®
à¦ ľ
Ġse ed
Ġr ate
Ġà«§à«© à««
Ġ/ /
qu e
Ġde b
Ġàªĭàª· àªŃ
à¥Ģ à¥¤
Ġà¤ķ à¤²
ik i
av or
Ġnot able
ĠJ uly
à«¨à«¦ à«§à««
ish ing
ap s
ap er
Ġà«¯à« §à«
Ġà«¯à« ¯à«
Ġà«§à«®à«® à««
Ġpl ants
àªĬ àª¨
ĠâĢĻ ,
Ġ= ==
Ġcan not
à«¨à«¦à«¦ à«©
Ġad apt
now n
iss a
Ġ189 5
Ġ189 9
ont olog
rib ution
ĠàªĵàªĹ àª³àªµ
à«ĢâĢĿ .
Ġdist ribut
Ġso ft
Ġover se
Ġpr inc
ĠSh ri
Ġàªļàª®àªķ àª¦
tern et
Ġqu al
àªĪàª¬ àª²àª¨
ne y
à«§à«¯ à«¦à«¦
Ġbel ow
àªĪàªķàª² àª¸àª¨
Ġac ross
Ġà«§à«®à«¦ à«¨
Ġdiff icult
Ġmain t
Ġdirect ed
àª¨àªĸ àª°àª®
àª¨àªµàª° àª¹
hem at
ĠAl though
Ġàª®àªĿ àª¹àª¬
ĠSe c
à«§à«¯à«¬ à«¦
Ġinst ead
Ġsec ret
à«§à«¯à«« à«¦
àª®àªķàª° àª¸
Ġbro ad
Ġsound tra
Ġinter p
ĠAfric an
Ġlit tle
riv ate
ĠAcc ipiter
Ġcour se
ĠTr ans
Ġet c
Ġcolle ction
Ġà¤ĩà¤¸ à¤ķ
Ġreport ed
Ġmusical s
ĠIS O
Ġlevel s
Ġbre ak
Ġsom etimes
Ġemploy ed
àª¡àª°àª¸ àª¨àª¨
Ġsit u
ĠàªŃàªŁàªķ àª¤
aras htra
Ġdanc ing
ĠCol le
Ġstruct ure
Ġpub lished
Ġherb iv
Ġestim ated
Ġwest ern
Ġadm inist
Ġdistin ct
ÏĮ ÏĤ
Ġincor por
ibr ary
Ġsoundtra ck
* |-|
0 83
A S
A T
A ct
E FA
N G
P O
R I
a ign
e al
g en
g ress
h u
l is
n ew
o res
p ite
r im
r ann
u is
w here
x imately
Î ³
Î ¼
Ġ `
Ġ Ð
Ġ é
à«į '
àª¨ àª¦àª°
àª¨ àªĹàª¤
à«Ģ !
àª® àª¹àª°
àª® àªĽàª¤
àª¤ àªŁ
àªµ àªĹàª£
àªµ àª¢àªµ
àª¿ /
àª¸ àªªàª°
ĠàªĨ àª³
ĠàªĨ àª®àª¤
ĠàªĨ àª¡àªª
Ġàª¤ àª®àª£
ĠàªĽ àª£
àªĹ àªı
àªĹ àª§àª°
Ġàªħ àª°àª¦
Ġàªħ àªļàªķ
Ġàªħ àªŁàªµ
àªŁ àªķàª°
àªľ àª°àª¤àª¨
àª£ àª§
àª£ àªŃàªķ
Ġàªµ àª¯àª®
àª¥ àªĩ
àª¦ àª¶àª®
àª¡ àª¬àª°
àª¡ àª¸àª®
àª¡ àª²àª¸
àª¶ àªŃàª°àª¨
ĠàªĹ àªŁ
àª§ àªªàªķ
àª§ àª°àª®àªª
Ġàª° àªķàª¤
Ġàª° àªĸàª°àªĸ
Ġàª¨ àªŃàª¤
Ġàª¬ àª°àª¨
àª³ àªĹàª¢
Ġàªı àªĨàª°àªª
àª· àª°àª®
Ġàª² àªĹàª¨
Ġàª² àª²àªļ
àªŃ àª§
Ġàªī àª°àªĹ
Ġàª¡ àª¯
àªĪ àª¬àª°
àªĪ àª²àª®
àªĪ àªªàª²
àªı àªĪ
àªı àª°àª¬
àªı àªıàª«
àª°àª® àª¹
àª°àª¨ àª¹
àª¶àª¨ àª²àª¨
ĠàªŁ àª¨àª¥
àªµàª¸ àªµ
àª°àªķ àª³
Ġàªĵ àªŁàª²
Ġàªĵ àª£àª®àª¨
âĢ İ
àªĺ àª¤
Ġàªīàªª àªľàª®
àªł àªĹ
àªĨ àªĵ
àªĨ àªľàª¨
àªĨ àªĸàª°
àªī àªµ
àªµàª° àª«
ĠàªĨàªª àªĸ
à¤ ĩ
àª¯àª® àªµàª°
àªľàª¨ àª¬àª¦
àª¦àª° àªĹ
àª¦àª° àªĹàª¢
àª°àª¸ àª®àª£
Ġàª¦àª° àªµàª°
Ġàªħàª® àª°àª¤
Ġàªħàª® àª²àª¸
àªħ àª«
àªħ àª°àª®
re f
re me
er at
àªĹàª² àªĹ
àªķàª² àª°
ĠàªĿ àª¹
àªļàª¨ àªľ
àª®àª¤ àªª
Ġs ay
Ġs ite
Ġs old
Ġs ense
ĠàªĬ àªľàªµ
at or
àª¯àª° àª¥
an j
Ġc ater
ar ies
Ġàªħàª¸ àª²àª®
it ness
Ġw ife
Ġf ru
Ġf uture
or ous
Ġàª¸àª¤ àª²àªľ
Ġb right
Ġb order
Ġm other
Ġm amm
Ġàªµàª¡ àªª
Ġp air
àªıàª¸ àªıàª²
àªķàª¡ àªĸ
Ġà¤ ĺ
Ġà¤ Ľ
Ġàªħàª§ àªµàªļ
àªŁàª® àª¥
àª®àª² àª¯
le x
àªŁàª°àª¨ àª²
Ġh ard
Ġh istor
Ġh alf
àª²àª¸ àªķàª°
Ġà«§à«® à«©à«¦
àª¡àªķ àª£
Ġ18 19
Ġ18 12
Ġ18 77
ĠA ir
ĠA nt
ĠA RP
ĠT em
ĠS a
ĠS am
Ġl ive
àªµàª¡ àª¤
Ġn icotine
àªıàª® àªıàª®
19 11
Ġ7 47
Ġàªł àª²àªµ
ĠC ont
àªıàª¨ àªıàª¸
ĠàªĨàªĹàª³ àª¥
ĠM ore
ĠM ug
ĠM other
Ġbe g
ut ch
Ġàª¸àª®àªľ àª¦
Ġ10 2
àª³àª¤ àª¤
Ġas pect
Ġg lobal
Ġ9 4
Ġàªĭ àª£àª¨
Ġ16 5
ist ics
ĠG TA
Ġ17 0
Ġàª¹àªķ àª¦
Ġal most
ow ers
ĠN am
Ġst ory
ĠR ah
ĠK arn
àª¼ à«ī
Ġan g
em b
ĠD ep
ĠD har
Ġàªıàªļ àª¡
ag ers
Ġwh ose
àª°àªļ àª²àª¨
Ġcon cept
Ġà«§à«Ń à«¨à«©
ĠL a
ĠL ate
Ġv ide
and ra
Ġse qu
Ġ11 00
Ġr ise
ĠU N
Ġpro test
Ġ13 00
àªıàªļ àª¸
ĠW hen
ĠO ct
ill ing
àªħàª¹ àª®àª¦
oc ation
Ġàªĭàª· àªŃàª¦
à¥Ģ à¤Ĥ
se ction
à«ĢàªĤ. "
Ġ25 00
av a
all s
à«¨à«¦ à«§à«¦
199 4
Ġsh are
Ġàªµàªľàª¨ àª¦
Ġà«§à«®à«® à«¬
Ġpl an
àªµàª¹ àª¨àª®
Ġà«¨à«ª à«¦
ib ility
Ġ190 9
à«¨à«¦à«¦ à««
à«¨à«¦à«¦ à«ª
Ġact ive
Ġact ual
àªĩàª¬ àª²àª®
33 3
Ġev olved
Ġsc reen
ĠàªĹàªĿ àª²àª¸
Ġres id
Ġà«§à«®à«Ń à«ª
Ġ189 2
Ġ189 3
Ġ189 7
Ġcomm ission
anc ial
cl us
Ġpr on
ĠSh ah
Ġà«§à«®à«¬ à««
ĠàªĨàªĩàªŁ àª®
àªıàªı àª²àªµ
ency clop
Ġpre vious
Ġtrans mission
à«ĩ) ,
196 6
196 7
55 5
à«§à«¯à«® à«Ń
à«ĩâĢĿ ,
Ġreg ular
Ġsub ject
Ġlarge ly
Ġob t
ather s
Ġdec ades
Ġàª¸àª¡ àªķàª®
ĠàªĨàªĩàªı àªıàª«
Ġdirect ors
idd en
ash ion
arg arh
hem e
Ġadd ress
àªµàª²àª¨ àª¶
Ġsl ight
Ġà¤ī à¤ª
Ġday s
ĠMus eum
Ġvill ages
ĠLe ague
àª®àªķàª° àªª
Ġinv olved
Ġcomple te
Ġlead ing
Ġgrow th
Ġep is
ner gy
ĠTe chn
Ġhel p
Ch inese
Ġtreat ment
ĠKing dom
Ġdem and
ĠàªĨàªµàª¡ àª¤àª¨
Ġrepl aced
Ġrecogn ized
Ġke ep
Ġaccept ed
Ġtemper ature
Ġcare er
Ġregard ed
Ġfem ale
Ġgre ater
Ġlog ic
Ġthir d
Ġexpect ed
Ġeat en
Ġinstitut ions
ĠVas udeva
ĠSans krit
Ġoverse as
B N
H M
H e
S ince
U EFA
a it
b at
b ru
e arch
f or
h ra
i am
l ack
m in
m ir
n is
o z
o ly
o ber
p ly
p ot
r ated
v i
w al
w ing
w id
Â ²
Ð µ
ï ¿
Ċ ĠĊ
Ġ q
Ġ ç
Ġ 00
àª° àªľàªµ
à«į "
à«į àªĤ
àª¨ àªļàª°
àª¨ àªħàª¨
àª¨ àªĵàªµàª°
àª® àª¸àª®
àª® àª§àª°
àªµ àªł
àªµ àª§àª¤
àªµ àª¶àªķ
à«ĭ ',
àªķ àª¡àª¨
àª² àªĪ
Ġàªª àªŁàª°
Ġàªª àªŁàª£
Ġàªķ àªķàª¡
Ġàªķ àª«àª¨
àª¸ àª¸àª¨
àª¸ àªŁàª¨
ĠàªĨ àªĹàª°
ĠàªĨ àª³àª¸
Ġàª® àªĸ
Ġàªľ àª²àªµ
Ġàªľ àª³àªķ
Ġàªľ àª¸àªµ
Ġàªľ àª¶àªµ
ĠàªĽ àª¡
ĠàªĽ àª³
àªĹ àª¬àª°
àªĹ àª®àª¨àª¨
Ġàªħ àª³àª¸
àªŁ àªµàª¡
àªľ àª¶àªķàª°
àªª àªķàª°
àª£ àªĸ
Ġàªµ àª·
àª¥ àª¬
àª¥ àª²àª¨
àª¡ àªĸ
àª¶ àª°àª£
à«ģàªĤ '
Ġàª¹ àª²àªļ
àª¹ àª¤àª®
àª¹ àªŃàª°
ĠàªĹ àªª
ĠàªĹ àª¬àª¡
àª§ àª¹
àª§ àªľàª¹
Ġàª° àª¥àª®
Ġàª° àª£àªª
Ġàª¦ àªĪàª¨
Ġàª¬ àª¶
Ġàª¬ àªľàª°
àªļ àªķàªµ
Ġàªı àª¬àª°
Ġàªı àªıàª¸
ĠàªŃ àª°àª¥
Ġàªķàª° àª¯
Ġàªķàª° àª¦
Ġàª¶ àª¯àª¨
Ġàª¶ àª®àª¶
àªĸ àª°àª¤
àª¬ àª²àªµ
àª· àª°àªľ
àª· àª°àª§
Ġàª² àªļ
àªĵ àªĨàª°
àª®àª¨ àªŃ
àª®àª¨ àªµàª®
Ġàªī àªķàª³
Ġàªıàªķ àª¸àªª
àªĩ àªªàª²
àª« àªµ
Ġàªļ àªĹ
Ġàªļ àªķàª¤
Ġàª¡ àª°àª¥
àªĪ àªľàª°
àªĪ àªķàª°
àªı àª¡àª®
àª¶àª¨ àª¯
àª¶àª¨ àªĹ
àª°àª£ àª¤
àª°àª£ àª¯àª¨
à«ĩ, ,
Ġàª¸àª® àª¢
ĠàªŁ àª¬
à«Ī -
Ġàªĵ àª¶àª¨
Ġàªĵ àªµàª²
Ġàªĵ àªķàª¸
àªĿ àªĹ
àªł àª¸
àªĨ àª¦àª¤
Ġàª®àª¹ àª¤àª®
Ġàªĩ àª¤àª¨
àªµàª¨ àªļàªķ
àª®àª£ àªĹ
àª®àª£ àªª
àªªàª° àª¯
Ġàª¦àª° àªŃ
àªªàª¨ àª¹
àªħ àª¨àª¨
àªħ àª³àªµ
Ġthe at
Ġo il
àª¡àª¨ àª°
à«ĩàªĤ .
àªķàª² àª®
àªķàª² àª¬
Ġà«¨ à«¨à«¦
Ġàª¸àª®àª¯ àª¸àª°
Ġàª¨àªµ àªĺàª£àª¨
Ġs n
Ġs ent
Ġs ac
Ġs auropods
ĠàªĬ àªª
at s
is k
àªŀ àªµ
es ides
Ġc ub
ed y
Ġàª¸àª¹ àª°
àª¨àªµ àª¶
àª¨àªµ àª¶àª°
it ect
Ġàªľàª¨ àª®àª¤
Ġw ww
Ġw rote
Ġf a
Ġf ree
Ġf ail
Ġf inal
Ġb orn
Ġb ones
Ġm outh
ĠàªµàªĹ àª¡
Ġp ast
Ġàªıàª® àªıàª¸àªıàª¨
àªķàª¡ àªķ
àªĩàªŁ àª¸
àªĩàªŁ àª²àª¨
àªľàªµ àª³
ic ient
Ġàª¸àª¦ àª®
Ġ3 40
àª¥àªķ àª°àª£àª¨
Ġà«¬ à«¯
om atic
Ġto ll
Ġto get
Ġàªľàª£ àª¸
ĠàªĨàª® àª³
Ġàªıàª² àªľ
àªĹàª¢ àª¡
ĠàªĨàªķ àª²àª¨
Ġh it
Ġàªıàª¸ àªµ
Ġàªıàª¸ àª¸
Ġàªıàª¸ àª¡
ĠI T
àª¡àªķ àªŁ
Ġà«® à«¯
ĠA C
àªľàª® àª¹àª²
ol ic
Ġ5 50
ĠS m
ĠS ur
Ġ20 16
Ġl ost
ĠàªĨàªľ àª¥
Ġ6 50
Ġàª¨àªĹàª° àª¥
Ġn ove
19 82
19 83
19 84
19 87
àªĹàª£ àª¤
Ġàªł àªªàªķ
ĠC on
ĠB ur
ĠB el
àªıàª¨ àªıàª²
im um
àªĩàª® àª¥àªķàª¨
ĠM ac
ĠM ount
ĠM ovember
res h
ot ing
id ge
ĠàªĨàªĩ àªµ
Ġ8 7
Ġ8 9
ĠàªĲ àª¯àª°
Ġ16 20
ĠG rand
Ġ17 70
ow s
Ġfor mer
Ġst ru
Ġàªľàª³ àª¬
ĠR oy
un k
àª¸àª¦ àª¸àªŃ
ĠD NA
um mer
ri end
àª£àªª àªŁàª¨
Ġcon n
Ġà«§à«Ń à«¦à«¦
ĠE d
ĠE n
à¤¨ à¤ķ
Ġ11 2
à¤¯ à¤®
Ġex ists
Ġà«§à«© à«ª
ht m
àª³àªŃ àª³
ĠW ill
Ġde cl
ĠàªŃàª¯ àªľàª¨àªķ
ĠV ij
Ġhe art
pl ic
ous ly
ĠJ une
ther n
our nal
ĠIn ternet
àª¨àªĹàª¢ àª®
Ġà«§à«®à«® à«©
Ġàª¨àª« àª°àª¤
Ġch ance
Ġàª¨àªľàª° àªķ
à¤² à¤ķ
Ġàªħàªļ àª³
ĠàªĨàªĪ àª°
Ġ% ,
ric ts
Ġà«§à«§à« ¯à«
à° ¦
aj a
und red
Ġev olution
Ġàª¤àª£ àªĸ
Ġsp ace
Ġ189 4
Ġ189 8
ond on
àª°àªľàª¨àª¨ àªķ
ĠAs s
àª°àªµàªļàª¨ àª®
Ġ186 1
Ġmus eum
Ġqu ick
Ġfl u
Ġout side
Ġàªĸàª¡ àªķàª¨
Ġàªıàª¸àªıàª®àªıàª¸ àª¸
Ġval ue
== =
Ġstud io
ĠFilm s
à«§à«¯à«¯à« ¨
à«§à«¯à«Ń à«§
Ġacc ording
Ġsur round
Ġview point
ĠàªħàªŁ àªªàªŁ
Ġcult iv
ict ion
Ġorig ins
Ġtra vel
Ġcur renc
Ġshow n
Ġshow s
ĠMah arashtra
Ġbelie ve
form ation
Ġanim al
amp aign
àªľàª®àª¹ àª²àª¨
Ġgreat est
Ġàªħàª¸àª¹ àª®àª¤
hys ics
me nd
Ġwork ing
Ġsk in
Ġhim self
ĠOr gan
Ġàª¶àª°àª® àªľàª¨àªķ
Ġcond ition
Ġgen re
ify ing
Ġret urn
Ġes c
ĠIs lam
àª£àªªàªŁ àª¦àª°
Ġdef in
ĠàªĨàªĿàª® àªĹàª¢
ĠGandhi ji
ĠSom nath
Ġlay er
Ġunivers al
Ġdoctr ine
Ġtw ent
ĠTri assic
ĠDist rict
ĠsyÄģd vÄģda
Ġrap id
ĠAut o
ĠGer man
ĠColle ge
Ġmamm als
ĠMug hal
ĠOct ober
bru ary
wid th
Ġtoget her
A R
C I
D V
F or
M any
R ef
b ed
c ce
c hes
c urs
d ia
f e
f erred
k ed
m en
n ers
o o
o red
r m
r s
r um
s is
s es
w orld
y n
y right
y der
} ,
Å Ľ
Î ·
à ¶
Ġ ĊĊĊĊ
Ġ ess
Ġ encyclop
à«ĩ âĢĶ
àª° àªľàª¨àªķ
àª® àª°àª¸
àª® àª¯àª¦
àª® àªļàªķ
àª¤ àªĵàª®
àª¤ àª¸àª°àª¨
àªµ àª«
àªµ àª¡àªª
àªµ àª¦àª°àª¨
àªķ àªĵàª«
àª¿ âĢĿ
àª² àªĺàª°
Ġàªª àª¥àª¨
Ġàª¸ àª¬àªķ
àª¸ àª¤àª¨
Ġàª® àª¥àª¤
ĠàªĽ àªĽ
Ġàªħ àª£àª¸
àªª àª¥àª®
àªª àª²àª°
à«ĩ. âĢĻâĢĻ
àª¡ àªªàª°
àª¶ àªķàª¤
Ġàª¹ àªĹ
Ġàª¹ àª¸àª®
ĠàªĹ àª¬
àª§ àª²àª¶
Ġàª° àªª
Ġàª¬ àª¬àª²
Ġàª¬ àª°àªĸ
Ġàªı àª¯
Ġàªı àª¸àªª
ĠàªŃ àª¯àª®
àªĸ àªªàª¤
Ġàªĸ àª³àªŃàª³
àªĵ àªµàª°àª¨
àª°àª¤ àªŃ
àªŃ àª£
Ġàªī àª¬àªķ
Ġàªī àªķàª³àª¤
Ġàªī àªĿàª¬
Ġàªıàªķ àªŁ
àªĩ àª¸àª®
Ġàª¡ àª°àª¨
àªĪ àª®àª¨
àªĪ àª®àª°
àªĪ àªķàª³
àªı àªµàª°
àª°àª® àª¸
àª°àª® àªľ
àª¯àª¨ àª¬
àª¶àª¨ àªķ
àª°àª£ àªķàª°
Ġàª§ àª¤
Ġàª¸àª® àª¦
àª²àª¨ àªķ
Ġàªĵ àªµàª°àª®
àªĿ àª¡
àª¤àª° àª¬
àª¤àª° àªŃ
àªĨ àª¯àª¨
àªĨ àª¦àª®
àªī àª¸àª°
Ġàª¤àª° àªĸ
àª¨àª¨ àª³
Ġàªĩ àª¨àª®
Ġàªĩ àªıàª®
à¤ ĵ
àª¸àª¨ àª°
àª¸àª¨ àªª
Ġt it
Ġt ri
Ġt ree
àªķàª° àª¶
àª®àª£ àª¥
àªľàª¨ àªª
àªŁàª¨ àªĹàª°àª¨
Ġ" .
Ġàªħàª® àª°àªķ
Ġàªħàª® àª°àªľ
àª¦àª¨ àªª
àª¢ àªªàª£
àªħ àª¥
àªħ àªµàª°
àªħ àª²àª¬àª¤
ĠàªĪ àª®àª°
àªĩàª¨ àª²àª¨
àª°àª¦ àª¯àª®
Ġo pt
Ġàªķàª¹ àª¤
àª¸àª® àª¢
àªķàª² àªķ
ĠàªĿ àªĿ
ĠàªĿ àª¯àª¨àª¬
Ġàª¨àªµ àªª
Ġs ens
Ġs ources
ĠàªĬ àªĹàª¤
at aka
Ġàªħàª² àªķ
an ch
an pur
Ġàªªàª¦ àª®
Ġàª¸àª¹ àªķàª°
it t
it ch
Ġw ind
Ġin se
Ġm inist
àªĸàªµ àªŁ
àªıàª¸ àªĨàªĩàªıàª¸
àªķàª¡ àª®
àªĩàªŁ àª¹
àªŁàª® àª¸
Ġd u
Ġd ivers
à«© à«¦à«¦
àª¬àª² àª¡
Ġh our
Ġh uge
Ġh undred
Ġàªıàª¸ àªıàª²
àª¨àª¸ àª¨àª¨
Ġà«§à«® à«§à««
Ġà«§à«® à«ªà««
àªļàª° àªļ
Ġ18 33
Ġ18 73
ur rent
ĠA mit
ĠT y
ĠT ra
ol id
ĠS o
ĠS ong
19 74
Ġre ach
ĠC E
ĠC ity
ĠC ricket
ĠC utch
ĠB as
àªıàª¨ àª¬
us h
ĠM ang
ay an
Ġàªĳ àªµàª°
Ġàªıàª° àª°
ir aptor
Ġg ave
àªĨàªĩ àªĨàª°
ra v
ĠH T
ĠThe ft
ĠG o
ĠG ree
ĠG DP
Ġ17 87
Ġ17 04
ul ated
Ġal tern
ĠN ep
ĠN iger
Ġàªµàª³ àªĹàª¤
à¥ĩ à¥¤
Ġàªıàª¡ àªĹàª°
ĠD V
ĠD il
à¤¤ à¤°
Ġk ind
est ig
Ġwh ite
ĠE U
Ġv ia
àªıàª« àªŁ
àªıàª« àªı
Ġ14 4
à¦ ķ
Ġat m
Ġsu ff
Ġsu cce
àªľàªĹ àª¤àª®
Ġ11 5
à¤¯ à¤¨
Ġr ul
ab or
Ġcom pos
Ġcom posed
qu ad
ĠO S
se quently
ĠàªŃàª¯ àªĹ
ĠàªĨàªļ àª°àªµ
18 70
Ġàª¸àª¬ àªª
Ġhe ro
du c
Ġàªīàªł àª¤
à¤® à¤¨
Ġ21 00
Ġus ing
Ġsh ift
Ġàªµàªľàª¨ àªµ
14 0
Äģ hav
Ġcont ains
ell ing
Ġàªµàª£ àªĿ
Ġ185 9
à«¨à«¦à«¦ à«¨
ĠTh ough
Ġà«§à«®à«« à«ª
Ġsc en
ĠàªĹàªĿ àªµàª¹
Ġàªĵàªµàª° àª¡
Ġàª¤àª£ àªĸàª²
Ġcons ervation
ĠDe velop
Ġdist ricts
Ġref ract
Ġy outh
ĠàªħàªĽ àª¤àª¨
ever al
Ġà«§à«®à«¬ à«§
Ġqu ant
àªĳ àªķ
àªĳ àª«
àªĳ àªĹàª¸
Ġpo et
Ġpo ly
Ġear th
à¤ļ à¤¨
à«§à«¯à«ª à«¬
Ġstud ies
old s
Ġen g
Ġind ic
Ġrem ain
Ġbl ood
à§ ģ
Ġsim ply
ĠEur o
Ġcre w
Ġnum erous
Ġvar iety
arg in
Ġsmall er
Ġàªħàª°àª¸ àªªàª°àª¸
ron om
ĠÏ ĥ
Ġàª¦àª® àª£àªµ
Ġchang es
àª¨àªªàª£ àª®
ĠMah i
Ġrupe es
Ġàªªàª²àªŁ àª£àª®
Ġser ved
Ġocc as
Ġàª®àªĹàª° àªµ
ĠAnd hra
ĠOr issa
Ġele ments
Ġprov ide
Ġàª¹àªł àª¯
ren ch
Ġprom inent
Ġret ina
ĠBudd ha
ĠAm b
Ġdiv ision
Ġsuggest ed
Ġaud ience
Ġhig hest
Ġmat ter
Ġà«ł àª£
Ġmult i
ĠPal anpur
ĠRuss ia
Ġvis it
Ġappro ximately
ĠRes earch
ĠBuddh ist
ĠBuddh ism
Ġter rit
à§ĩ ,
Ġstand ard
Ġarg ued
Ġexp and
Ġàªķàª°àªķ àª¸àª°
Ġmean ing
olk ata
Ġopp os
Ġdial og
Ġcomb ined
Ġinfe ction
Ã² àª¤
Ġceremon y
Ġreven ue
Ġseem s
Ġprof ess
Cl ar
hib ition
Ġemer g
Ġrespons ible
Ġàªªàª²àª¯àª® àªķ
ĠFe bruary
augh ter
Ġàªħàª¬àª° àª¹
etw ork
Ġliqu or
empor ary
hemat ics
ĠARP AN
ï¿ ½
Ġcub ic
Ġnove l
Äģhav Ä«
ĠDevelop ment
% ;
5 30
6 76
: -
B A
D O
E S
L S
O ne
S ome
T O
a res
b on
c le
d a
g o
g red
g color
h and
i eth
j p
p an
r ol
r ay
t oc
u x
u an
ä ¸
à« ¥
Ġàª ŀ
àª¨ àªĩ
àª¨ àª¹àª°
àª® àª³àª¤
àª¤ àªŃàª°
àªµ àªķàª³
àªķ àª¶àª¨àª¨
àªķ àª¶àª¨àª®
àª¿ àªģ
àª¿ ',
à«ģ /
àª² àªŁàª¨
Ġàª¸ àªĹàªµ
àª¸ àªµàª²àª¤
àª¸ àª°àª£àª¨
àª¸ àªľàª¨àª¨
ĠàªĨ àª£àªµ
ĠàªĨ àª¸àª°
ĠàªĨ àª¬àª°
ĠàªĨ àªľàªµ
ĠàªĨ àªĪàª²
ĠàªĨ àª¯àª¨àª¨
Ġàª® àª°àª®
Ġàª® àª¦àª°àª¸
Ġàªľ àª¤àª¨
Ġàªľ àª¡àªµ
àªĹ àª¸àª°
àªĹ àª³àª®
àªľ àª¸àª¨
àªľ àª¯àª°
àªª àª¦àª°
àªª àª²àª®
àª£ àªµàª°
Ġàªµ àªŁàª²
àª¥ àªķàª®
àª¦ àªĺ
àª¦ àª¤àª¨
àª¦ àªĹàª²
à«ĩ. -
Ġàª¹ àª¦àª¨
àª¹ àª§
ĠàªĹ àª¨àª¨
ĠàªĹ àª³àªµ
àª§ àª°àª£
àª§ àªķàª°
Ġàª¦ àªĩ
Ġàª¨ àªª
Ġàª¨ àªĹàª£
àªļ àªķàª²
àªļ àª®àª°
àªļ àªķàª¤
àªļ àª¯àªª
àªļ àª¦àª¶
Ġàªı àª²àª¨àª¨
àªĸ àªĹ
àªĸ àª°àª£
àªĸ àª°àªµ
Ġàª² àª§
Ġàª² àª¯àª¨
Ġàª² àªķàªµ
àªĵ àª°àªķ
àªŃ àªł
àªŃ àªľàª³
Ġàªī àªłàªµ
Ġàªıàªķ àªķ
Ġàªıàªķ àª°àª®
àªĩ àªĵàª®
Ġàªªàª° àª¹
Ġàªªàª° àª£àªµ
àª« àª£
Ġàªļ àª¯àª¨
àªĪ àª¬àª²
àªı àªľàª¨
Ġàª§ àªµàª²
àªķàª¨ àª°
àªĽ àªł
àªĽ àª°àª¡
àªĿ àª®àª®
àªł àªµàª¤
Ġàªµàª° àªµ
à«Į ,
àªĨ àª°àª¬
àªĨ àªµàªķ
àªī àªªàª£
àªµàª° àªļàªķ
à«ģàªĤ. âĢĿ
à«¦ à«¨
Ġàªĩ àª¯àª°
àª°àªµ àª£àª¨
Ġt iss
àªķàª° àª²
àªľàª¨ àª°
Ġa im
àª¯àªķ àª®
àªŁàª° àª¦
àªŁàª° àª¹
àª¤àª¨ àªµ
àª°àª¸ àª°àª¤
Ġàª¸àª° àª§
Ġ" ,
àª¢ àª°
àªħ àªļ
àªħ àª®àª¨
àªħ àª²àª¨
àªħ àªªàª¨
àª¸àª° àª³
àª¥àªµ àª£
àª°àª¦ àª¹
er i
Ġàªıàª¨ àª²
ĠàªĿ àªķàª°
ĠàªĿ àª¬àªķ
Ġà«¨ 00
Ġàª¸àª®àª¯ àª¦àª°
àª®àª¤ àª³
on y
Ġs ought
at ur
àª¡àªµ àª£
àª¡àªµ àª¡
is ible
àª°àª¹ àªŁ
àª°àª¹ àª¸àª¨
àª¯àª° àª¶
ĠàªĨàª¦ àª®àª¨
àª®àªķ àª¥àª¨
àª®àªķ àª°àª£àª¨
àªķàª¸ àª¨àª¨
Ġc ross
Ġc ode
Ġc ivil
Ġàª¸àª¹ àªħàª¸
ar m
ar v
àª¨àªµ àª£
ĠâĢĺ âĢĻ
Ġàªĵàª« àª°àª¨
Ġf r
Ġf ull
Ġf resh
Ġb and
Ġb ase
Ġin hab
Ġin gred
Ġm el
Ġm akes
Ġp ur
Ġp ig
Ġp ress
Ġàªıàª® àªµ
Ġàªıàª® àªı
àªıàª¸ àª¡àª¬àª²
Ġàª«àª° àª¶
àªķàªµ àªļ
àª¹àª¨ àª°
àªľàªµ àª°àª¨
ic o
ic les
ic ians
à«® à«¦à«¦
as ons
àª²àª¬ àª°àª¨
Ġàª®àª¨ àª¹àª°
Ġà«§à«¦ à«©
le y
àª°àª² àª¯
Ġàªªàª¤ àª³
Ġh p
àª¨àª¸ àª²
ent h
Ġà«§à«® à«¨à«¦
Ġà«§à«® à«¨à«§
àªļàª° àª°
Ġàª¨àªķ àª²àª¨
Ġ18 49
Ġ18 74
Ġàª¸àª² àªĹàª®
Ġàª¸àª² àªĹàª®àª¨
ly ing
ĠA US
ĠA ST
ĠS uch
ĠS DU
Ġàª®àª¥àªķ àª¥
àªķàªª àªŁ
Ġ20 17
Ġl o
àª°àªĸ àª¡
àª°àªĸ àª¬àª°àª¨
àªµàª¡ àª¦àª²
19 10
19 14
19 88
ĠàªĶ àª¡
àªĹàª£ àªªàª¤
Ġre ad
àª¬àª¤ àªª
ĠB r
ĠB ut
àªıàª¨ àª¯
àªıàª¨ àªĨàªĩ
àªľàª¯ àªĹàª¢
ĠM oh
ĠM AC
ĠP ers
ĠP and
Ġ10 8
à¤° à¤¹
àªµàªŃ àªķ
Ġg mail
ĠàªĨàª« àª¤
Ġ16 42
op t
op es
Ġal read
Ġà«§à«¨ à«¬
àªķàª£ àªľ
ĠR s
Ġàªµàª² àª¯àª®
un ic
Ġan t
ĠD i
ĠD is
Ġk ey
Ġàªį àª²àª¨
Ġàªį àª¨àª²
ag ar
Ġwh om
àªĩàªĿ àª°àª¨
ĠF ools
à«§à«¯à« ¯à«¦
Ġà«§à«¬ à«¦à«¦
ĠL ondon
ak h
à¤¨ à¤¤
à¤¨ à¤¯
Ġàª¬àª¸ àª¸
Ġsu p
Ġse ven
Ġàªħàª¸àª°àªķ àª°
Ġpro gress
Ġde pend
Ġàªħàª« àª§
Ġà¤ķ à¤¹
ĠV PN
ars h
à«ĪàªĤ |
Ġhe av
àªľàª² àª¸àª®
à¤µ à¤¤
à¤¸ à¤°
à«¨à«¦ à«§à«ª
ap es
Ġus es
ĠIn c
Ġàª¬àª°àª« àªµàª°
ok es
Ġle arn
ip al
Ġ27 0
Ġim press
Ġun its
ple ment
Ġàª®àªł àª®
Ġà«¨à«Ń à«¦
aj i
und argarh
Ġper man
àªĨàªĩàªı àª¨
ber t
40 4
ens ive
Ġà«§à«®à«Ń à«©
Ġà¤ħ à¤ªà¤¨
Ġspe ct
Ġme as
àªħàªķ àª¬àª°àª¨
Ġàª°àª®àª£ àª²
Ġà«©à«¬ à«¬
àª°àª«àª³ àª¨
Ġsy n
Ġref er
Ġrel ations
Ġy et
Ġ186 2
Ġ186 9
Ġpr int
Ġcol our
Ġmod el
Ġpe ak
Ġloc ations
ĠPr ime
Ġent ry
196 1
196 2
Ġnew sp
à«§à«¯à«ª à«¦
à«§à«¯à«ª à«®
ĠàªľàªĹàª¤ àªŃàª°àª®
Ġàªħàª¹àª®àª¦ àª¶
à«§à«¯à«¯à« ®
Ġrem ained
ĠII àª¨
âĢį àª¿
ĠâĢį âĢį
Ġindust ries
Ġà¤Ĩ à¤µ
ĠAr ist
Ġpos ition
ĠCom m
Ġatt ract
Ġatt ribut
Ġatt empt
ollow ing
nc es
Ġmark ed
Ġcommon ly
ict ure
Ġà¥ §
á¹ ĥ
à«§à«¯à«¬ à««
Ġsl ow
Ġway s
Ġmem ber
Ġbr ing
ĠLAN àª¨
ex ample
ix ed
Ġold er
Ġconst ruction
Î± ÏĢÏĦ
Ġphilosop h
ĠAnd re
Ġconf lic
Ġrelig ion
ĠBengal i
aim ed
ĠAm ong
osp ital
Ġfre qu
Ġgrow ing
med i
Ġcommun ities
Ġà¤ı à¤ķ
Ġproduc er
Ġestab lish
Ġarch itect
ĠIPO àª®
Ġfin ancial
ĠRuss ian
Ġdet erm
ĠST Is
An other
Ġbas is
Ġstat ement
Ġàªķàª¥àª³ àª¤
Ġàª¨àª¯àª¨ àª°àª®
Ġtour ism
Ġenc ou
Ġtest s
Ġsil ver
ĠSing h
Ġlat ter
Ġsurv ived
àªŃàªĹàª¤ àª¸
ĠKan tha
Sp oken
Ġir rig
ĠCan ada
ĠSoc iety
àª·àªķàª¤ àª¤
Ġdim in
Ġeas ily
Ġdeg ree
ounc il
Ġpale ontolog
ĠPri ze
tebr ates
Ġimpro ve
àªıàª°àª¬ àª¸
Ġaspect s
ĠKarn ataka
ĠARPAN ET
ÄģhavÄ« ra
jp g
Ġingred ient
Ġalread y
8 13
A ward
B I
C SR
E C
H indu
L ang
M ost
T e
c ing
d inosaur
e ar
e or
m at
p arent
r ang
r ast
s er
t ime
u fact
w er
x c
y al
y ing
| }
} +
Ã ¤
â ģ
Ġ ^
Ġ ^{
Ġ ille
Ń ¦
àª¾ à«ĩ
àª° àª°àª¨
àª° àªĹàª¨
àª¨ àª¤àª¨
àª¨ àª¡àª¨
àª¨ àªķàª²
àª¨ àª¯àª°
àª® àª¯àª®
àª® àª«àª³
àª¤ àª¬àª°
àª¤ àªĭàª¤
àªµ àªļàª°
à«ĭ }
à«ĭ àªģ
àªķ àª°àªķ
àªķ àªªàª°
àªķ àª¦àª¨
àªķ àªķàª¸
àªķ àª®àª°
àªķ àª¬àª¸
àªķ àª²àª¨àª¨
àª² àª£àªª
Ġàªª àªĹàªµ
Ġàª¸ àª¦àª°
Ġàª¸ àªķàª²
àª¸ àª²àªķ
àª¸ àªµàª¡
àª¸ àªĺàª¨
ĠàªĨ àª·
Ġàª® àª®àª¤
Ġàª® àª°àª¡
Ġàª® àª¦àª®
Ġàª® àªĸàª¦
Ġàª® àª¤àª®àª¤
Ġàªľ àª²àª¨
Ġàªľ àª¡àª®
Ġàªľ àªłàª°
ĠàªĽ àª®
àªĹ àªŃàª°
Ġàªħ àª¦àª¨
Ġàªħ àª¦àª®
àªª àª¡àªµ
àª¥ àªŃ
àª¦ àªı
àª¦ àª¤àª®
àª¦ àªµàª¡
àª¡ àª¡
àª¡ àªĹàª¢
àª¡ àªıàªķ
àª¶ àª¤àªķ
àª¹ àªļ
àª¹ àª£àª¨
Ġàªħàª¨ àª²
ĠàªĹ àª°àªķ
àª§ àª®àª¨
àª§ àªĺ
àª§ àª°àªµ
Ġàª° àª°
Ġàª¨ àª®àª¤
Ġàª¬ àª¸àª®
Ġàª¬ àª«àª°
àª³ àª²
àªļ àªļ
àªļ àª²àª®
àªļ àª²àª°
ĠàªŃ àª¥
ĠàªŃ àª³àªµ
àª¬ àªĸ
àª· àª¯àª°
Ġàª² àª¨
àª°àª¤ àªŃàª°àª¨
Ġàªī àªµ
Ġàªī àªĹàª°
Ġàªī àªķàª°àª¡
àªĩ àª°àª¨
àªĩ àª«àª¨
àªĩ àª«àªŁ
Ġàªªàª° àªĸ
àª« àª¤àª¨
àª« àª°àª¨àªĹàª°
Ġàªļ àª£àªµ
Ġàª¡ àª«
Ġàª¡ àªļàª¨
àªĪ àª¦
àªĪ àªµàª¨
àªĪ àª¡àª²
àªı àªķàª¸
àªı àªĨàª°
Ġàª§ àª¨àª¤
àªĹàª® àªĹ
àªĹàª® àª¥
ĠàªŁ àªŁ
Ġàªĺ àª¡àª¨
Ġàªĵ àª¯
Ġàªĵ àªı
Ġàªĵ àª°àª¸
Ġàªĵ àªľàª¸
àªĿ àª°àª®
àªĿ àªµàªµ
àªĿ àª¡àª¨
àª¤àª® àªª
àªĨ àªµàª¤
àªĨ àª¸àªª
àªī àª°àªķ
àªµàª² àª¯
Ġàª¶àªķ àª®
Ġàªĩ àª¦
Ġàªĩ àªıàª¡
àªĹàª° àª¡
àª°àªµ àªļàª¨àª¨
àª¸àª¨ àª¥
Ġt ied
àªµàª¤ àª¸
àª®àª£ àªķ
àªľàª¨ àª¤
àªªàª° àª¶
he red
Ġàªķàªª àªŁ
Ġ" '
àª¦àª¨ àª¥
àª¢ àª¯
ĠàªĪ àªŁàª°
ĠàªĪ àªĹàª²
àªĹàª² àª¥
ĠàªħàªŃ àª£
ĠàªĨàª° àªı
ĠàªĨàª° àªıàªıàª®
Ġs out
ĠàªĬ àª·
ĠàªĬ àªªàª¸
ĠàªĬ àª¤àª°àªµ
at om
àª°àª¹ àªķ
Ġàªĩàª¨ àª°
àª°àª¤àª¨ àªªàª°
Ġc it
Ġc ook
Ġc hem
àªĸàª¤ àªª
ar row
Ġw r
Ġw alk
Ġf u
Ġf ield
Ġf riend
Ġàªµàªļ àª²
Ġàªµàªļ àª¨àª¨
Ġàªķàª² àª®àª¨
Ġàª¸àª¤ àªµ
Ġb rain
Ġàª¸àª°àªķ àª¤
Ġàª¸àª°àªķ àªµ
Ġm il
Ġm ess
Ġm ount
Ġm edia
Ġp ain
Ġp hy
Ġp hen
àªŁàªķ àª£
àªĩàªŁ àª¡
Ġà¤ ĸ
àª°àª¬ àª°àª¨
Ġàªµàªĸàª¤ àª¥
ic ed
Ġàª¶àª¬ àªªàª°
àªķàª® àª²
àªĥ -
il a
il ities
Ġàªħàªµ àª¬
as aurus
Ġd oc
Ġd aughter
Ġà«§à«¦ à«Ń
Ġàª®àª° àªľ
Ġàªļàª² àª¤
Ġà«© à«¨à«¦
Ġà«© à«§à«©
Ġh or
Ġà«§à«® à«¨à«ª
et ed
Ġ18 25
Ġ18 45
Ġ18 78
àªŃàªµ àª¶
ol es
Ġe ight
Ġ20 50
Ġl b
Ġàª¨àªĹàª° àªľ
Ġn orth
19 4
19 17
19 78
19 72
19 52
ĠàªĶ àªĺ
àªķàªŁ àªĹ
Ġàªł àª³
Ġre b
Ġre d
Ġre ve
Ġà«§à«ª à«¨
am eter
ĠC P
us ed
àªĪàªı àª²
ĠM H
ĠM a
ĠM at
ĠM arch
id ae
Ġàªīàª® àª°àªµ
ĠàªĨàªĩ àªĵàªıàª¸
ĠP ublic
ĠP DU
ch ar
ch ange
Ġ10 9
ir a
ir th
Ġg rand
àªĩàªľ àª¹
ĠH el
Ġ16 07
op er
Ġal t
Ġst re
Ġst ep
Ġà«§à«¨ à«Ń
ĠK e
àª¼ à«ĭ
un i
ĠD es
um T
um e
Ġàª¸àª« àª°àª¨
ĠàªĨàªł àªµàª²
ĠF ound
Ġà«§à«Ń à«Ńà«¯
ĠL in
ĠE nd
ĠE gy
ĠE arly
ĠE nergy
Ġàªħàªĸ àª¤àª°
Ġor d
àªıàª« àªķ
àªıàª« àªıàª®
ak ers
àªµàª³ àª¥
ud g
ter y
à¦ Ļ
Ġ11 1
àªķàª°àª¨ àª¨
iv ity
Ġr out
Ġr ange
ab les
Ġ13 7
Ġ13 57
Ġcom position
Ġàª°àª£ àª¥
àªıàªļ àªıàª¸
àªıàªļ àªıàª«
ĠO cean
Ġàª¬àªĹ àª¡àª¤
Ġàªľàª² àª§
Ġhe at
Ġ25 6
og en
Ġàª¬àª² àª¦
av ed
Ġ0 2
à¤¸ à¤®
à¤® à¤°
à«ĢâĢĻ -
Ġ22 1
ish a
Ġus ers
16 0
ore cept
ĠIndian s
Ġàª¬àª°àª« àª¥
à«ĭ" .
cc an
ry ing
ub e
àªĤ. -
Ġtr ue
ĠCh ar
ĠCh ief
ĠCh urch
Ġim ages
Ġàªµàª£ àªľ
Ġà«§à«§à« ©
à° ²
Ġà¤® à¤¨
ĠàªĨàªŃ àª¡àªĽ
Ġper f
ĠÂ ±
Ġad vert
ens ity
Ġsp read
Ġres ist
Ġte nd
Ġte ac
à¤Ĺ à¤¤
Ġpop ulations
Ġà«§à«®à«Ń à«§
ĠàªĨàªīàªŁ àª«
Ġ188 7
Ġkilom etre
Ġà¤µ à¤¸
Ġàª¤àªŁ àªª
Ġrec ently
Ġà¤¨ à¤¹
ĠX I
Ġlar ger
Ġrel ated
Ġy our
Ġà«§à«®à«¬ à«¬
Ġup per
Ġfl avor
ĠÎ ±
ĠY ash
ĠY ork
Ġàª· àªŁ
38 9
Ġpre vent
Ġthrough out
à«ĩâĢĻ âĢĻ
Ġà«©à«Ń à«¦
à«§à«¯à«¯à« ¬
Ġrem ake
ook s
ĠFTP àª¨
Ġeff orts
Ġbl ock
ĠàªĨàªī àªŁàª¨
Ġcor ru
rop ical
Ġdec ade
Ġview s
Ġincre ased
Ġid lis
Ġàª¹àª¡ àª¸àª¨àª¨
Ġ180 1
por ation
Ġàª®àª¡ àª¦
àªį àª°
ick el
Ġappe ars
Ġwrit ings
lim ited
Ġpol icy
Ġbelie f
ĠàªħàªĿ àª°àª¬
Ġav oid
Ġplay back
land s
Ġocc up
ĠZ eal
Ġconsid er
hip s
iqu e
Ġsch ool
Ġgiv es
Ġactiv ities
Ġperson al
Ġgo ogle
Ġàªĩàª®àª° àªľàª¨
Ġevery thing
Î¹ Ïĥ
Ġcop ies
Î¿ ÏĤ
Ġcolle ges
Ġver tical
Ġdet ail
Ġàªıàª¸àªıàª¸ àªĨàª°àªĨàªĩ
Ġproper ty
Ġrespect ively
ĠAustral ian
Ġcontribut ions
Ġrece ived
Ġprote ct
Ġdoctr ines
Ġge ograph
Ex ternal
Î¯ Î±
Ġri ver
Ġcy cl
alle l
ĠSub hadra
âĢ¦ .
Ġmag az
Ġsuper position
Ġeconom ic
Ġthousand s
Ġspecim en
ĠUr du
Ġprob ably
ĠÎ² Î±ÏĢÏĦ
Ġparent s
erat ops
Ġfru it
Ġepis ode
htm l
Ġquick ly
Ġcultiv ated
Ġaltern ative
ĠArist ot
âģ Ħ
ĠEgy pt
ĠZeal and
/ -
3 10
3 50
7 17
A fter
B M
E ng
F ilm
H CO
L A
M F
N I
O SI
O DI
P l
P ro
R A
R T
d ition
f ree
f rac
g a
h n
h ai
k yl
o ch
o IP
p a
r ans
s q
s ig
t ic
w ide
x b
y ed
{ //
Â ·
Â º
Ã ¦
Ã ³
Ë Ĳ
Ï ħ
Ð °
Ø ¯
à Ń¦
á ¸
Ċ ĠĠ
Ġ ĊĊĊĊĊĊ
Ġ ill
Ġ ult
Ġ ĊĊĊĊĊ
àª° àªĩ
àª° àª°àª¹
àª° àªīàªªàª¯
àª¨ àª¯àª®
àª¨ àªķàª°àª£
àª¨ àª°àª²
àª¨ àª¬àª³
àª® àª²àª¨
àª® àª°àªµ
àª® àªµàª¤
àª¤ àªªàª¦
àªµ àªĿ
àªµ àª³àª®
àªµ àª¬àª³
àªµ àªĹàª¡
àª¯ àª¹àªµ
àªķ àªŁàªķ
àªķ Ã²àª¤
àª² àª¸àª®
àª¾àªĤ '
Ġàªª àª¡àª¨
Ġàª¸ àª¬àª®
Ġàªķ àª£àªµ
àª¸ àª£àªµ
àª¸ àªħàª¨
ĠàªĨ àªķàª°àª£
Ġàª¤ àª°àª¨
Ġàª¤ àª³àªµ
Ġàª® àªķàªµ
Ġàª® àª²àªķ
Ġàªľ àª¯àª°
Ġàªľ àªĹàªµ
ĠàªĽ àªķ
ĠàªĽ àªľ
àªĹ àª¹àª°
Ġàªħ àªľàª¨
Ġàªħ àªķàª³
àªľ àª®àª£
àªľ àª¯àªķ
àªª àª§
Ġàªµ àªµ
àª¥ àª¹
àª¦ àª¸àª¨
àª¡ àª°àªµ
àª¹ àª¶
àª¹ àªĸ
àª¹ àª®àª£
àª¹ àª¤àªķ
àª¹ àªļàª°
Ġàªħàª¨ àª§
ĠàªĹ àª°àªµ
ĠàªĹ àªµàª¡
ĠàªĹ àª®àªĹ
ĠàªĹ àªµàª³
àª§ àª°àªª
Ġàª° àª¸àªķ
Ġàª¦ àª¸àª¨
Ġàª¨ àª®àª¨
Ġàª¨ àªŁàªµàª°
Ġàª¬ àª°àª¬
àª³ àª²àªĹ
àªļ àªŃ
Ġàªı àª°àª¨
Ġàªı àªµàª²
ĠàªŃ àª®
ĠàªŃ àª·
ĠàªŃ àª£àª¸
Ġàªķàª° àª¡àªµ
Ġàªķàª° àª£àªª
àª¬ àªĹàª°
àª· àªķàªµ
Ġàª² àªĩàªı
àªĵ àª²àª®
àª°àª¤ àª¤
àªŃ àª¶
Ġàªıàªķ àª²àª¤
àªĩ àªµàª¸
àªĩ àªªàª¨
àªĩ àªµàª®
àªĩ àªħàªª
Ġàªªàª° àªĹ
Ġàªªàª° àª¬àª¨
Ġàªªàª° àª²àªĸ
àª« àª¥
àª« àªŁàªµ
Ġàªļ àªķàª°
Ġàªļ àª²àª¨àª¨
Ġàª¡ àª°àª¤
àª°àª® àªĸ
àª¯àª¤ àªĺ
Ġàª« àª°àª¹
àª¯àª¨ àª°
àª°àª£ àª¹
àª°àª£ àª¸àª°àª¨
Ġàª§ àªĸ
à«Ģ. '
Ġàªĺ àª°àªµ
àªµàª¸ àª°
àª²àª¨ àª¸àª®àª¯
àª°àªķ àª¸
àªķàª¨ àªµ
Ġàªĵ àª¸àª¨
Ġàªĵ àª¤àªª
Ġàªĵ àªµàª°àª¨
àªĽ àª¬
àªĿ àª¤
àªĿ àª°àª£
àªĿ àª²àª¨
àªĨ àªŁ
àªĨ àªł
àªĨ àªªàªµ
àªĨ àªĹàª³
àªī àª¥àª¨
àªī àªŁàª°àª¨
àª¾. âĢĿ
Ġàª¤àª° àª¹
Ġàª®àª¹ àª²àª¨
àª£àªµ àªŁàªª
àªµàª² àªķ
àªĹàª° àª¸
àªµàª¨ àª¤
àª°àªµ àªķàª¤
à¤ Ĩ
00 1
àªķàª° àª¥
àªµàªµ àª®
Ġ2 60
àªªàª° àª°
àªªàª° àª²
àªªàª° àªª
àªªàª° àª¸àª¨
àª¤àª¨ àªĹàª°
in et
in ter
àª°àª¸ àª°àªµ
Ġàª¸àª° àª¯
Ġàª¸àª° àªŃ
àª¢ àª®
àªħ àª¸àª¨
àªħ àªªàª°
àªħ àª²àªķ
àªħ àªµàª§
àªħ àª¬àª¡
ĠàªĪ àª·
ĠàªĪ àª«
ĠàªĪ àª°àªµ
àª·àª£ àª¤
àªĩàª¨ àª¹
er ic
àª¸àª® àª¤
ĠàªĿ àª«àª°àª¨
àªļàª¨ àª¤
Ġà«¨ à«§à«¦
Ġàªħàª° àªł
àª®àª¤ àªµ
àª®àª¤ àª²
on ents
Ġs al
Ġs am
Ġs ays
ĠàªĬ àªªàªµ
àªĹàª¤ àªª
at ors
Ġàªħàª² àªŃ
Ġàªīàª¦ àªŃàªµàª®
àªķàª¸ àª°àª¨
Ġc ab
Ġc ell
Ġc ust
Ġc ite
Ġc ool
Ġc inem
Ġc ave
Ġc ateg
al ed
Ġàª®àªĹ àª°àª¨
Ġàª¸àª¹ àªīàª¤
ar i
àª¨àªµ àªĹ
it i
it ants
Ġw itness
Ġàªĵàª« àª²
Ġf av
Ġf ashion
or al
or ph
Ġb an
Ġm as
Ġm ax
ĠàªµàªĹ àª¦
Ġp en
Ġp rivate
àª®àª° àªª
ic er
àª¸àªķ àª¤
Ġàªµàª¹ àª¨àª¨
as ay
Ġd ou
Ġd ia
Ġd ub
Ġd ire
Ġd oll
Ġd ark
Ġd omin
Ġd ried
Ġàªħàªª àª¶
Ġàªħàªª àª°àª£
Ġàª®àª¨ àª°
Ġàª®àª¨ àª¥
à«ª à«¦à«¦
Ġà«§à«¦ à«¬
àª°àªª àª¡
àªĵàªı àª²
Ġto ward
Ġàªıàª² àªıàª²
àªĿàª¨ àª°
Ġà«© à«§à«¦
Ġà«© à«§à««
Ġh istory
Ġàªıàª¸ àªĩàª¸
àª²àª¸ àª¨àª¨
àª²àªķ àª¬àª³
Ġà«§à«® à«©à«®
Ġà«§à«® à«ªà«¯
et a
Ġ18 32
Ġ18 41
ur i
ur am
ur ies
ur ai
ĠA g
ĠA wa
ĠT o
ĠT wo
ĠàªľàªĹ àª¦àª²àªª
ol i
ol ve
ĠS er
ĠS il
ĠS im
ĠS aur
ĠS ala
st ream
Ġàª¹àª° àª°
Ġàª¹àª° àªĹ
Ġn om
Ġn av
Ġn uc
àªıàª® àªµ
àªıàª® àª¡àª¬
àªķàªŁ àª¥
àªĪàªŁ àª¸
Ġre v
Ġà«¯ à«¦à«¦à«¦
am ent
ĠC I
ĠC N
ĠC ouncil
ĠB y
ĠB all
us ion
àª¸àª² àªª
ĠM od
ot ted
id ing
ad ed
ĠàªĨàªĩ àªĨàª°àª¸
ĠP ort
ĠP ya
ch and
Ġàª¸àª®àªľ àª£àª¨
àª®àª¸ àªŃ
Ġàª°àª®àª¤ àªĹàª®àª¤àª¨
ir s
Ġ15 5
ĠàªĲ àª°
Ġàªĭ àªļ
ĠH o
ĠH em
Ġ16 28
Ġ16 05
Ġ16 93
ĠThe ir
ĠG ener
ĠG reat
ĠG ov
Ġ17 8
Ġ17 60
àªľàª¸ àª¤
Ġal le
Ġfor ce
el ian
el lect
ĠN Z
ĠN or
ĠàªīàªŃ àª¯àªľ
Ġà«§à«¨ à«¨
Ġà«§à«¨ à«®
Ġà«§à«¨ à«¦à«¦à«¦
Ġàªľàª³ àªªàªķ
ĠR a
ĠR ang
ĠR ale
ĠR ena
ĠK ash
ĠK olkata
Ġàª¦àª³ àª¦
Ġàªµàª² àª£àª®
àª¼ ,
un ge
ac es
em i
à¤¤ à¤µ
ag iar
Ġcon ve
Ġà«§à«¬ à««
Ġà«§à«Ń à«¯à«¯
Ġ12 8
ĠL ata
ĠE DV
àª²àªŃ àª¤
àªĪàª¡ àª°àª¨
Ġ14 9
if ul
à¦ Ń
àªĨàª¨ àªķàª¨
à«ĩ." .
Ġ11 3
Ġ11 4
à¤¯ à¤µ
Ġex te
Ġr ice
ĠU FO
Ġ13 8
Ġcom es
Ġcom put
11 5
ĠàªĨàª¦àª° àªª
ĠW hat
ĠO pen
ĠàªŃàª°àª¤ àªķ
art ment
art ial
so ft
Ġhe alth
og ram
av as
av ian
Ġ0 1
ĠJ ap
à¤® à¤Ĺ
à«¨à«¦ à«§à«¨
Ġàªķàª£ àªľ
ap ers
Ġsh all
àªľàª¯àª¨ àªĹàª°àª¨
Ġpl agiar
à«Ģ' .
Ġch ief
Ġà¤¸ à¤°
Ġà¤¸ à¤¹
ry a
iz ations
ind a
Ġtr ade
ĠCh ic
ĠCh ampions
Ġ185 5
àª¤àª¸ àª°àª®
Ġàªļàª¢ àª¤
ĠâĢĿ .
Ġpart ial
ath a
à¤ª à¤°
àª¨àª¶ àª°àª¤
Ġàªīàª§ àª°àª¸
Ġact ually
ĠTh us
Ġev ents
ens ion
Ġàªĵàªµàª° àª¹
Ġsp ir
com àª¨
oll ed
Ġ189 1
Ġcl os
à¤¶ à¤¨
Ġ188 1
Ġ188 3
Ġme chan
Ġà«©à«« à«¦à«¦
ĠDe ccan
Ġinf ected
àª¶àª³ àª¦
Ġprodu cts
Ġdist ribution
Ġrel ative
Ġrel atives
Ġ186 3
Ġ186 4
àª®àª°àª£ àª¶àªķ
Ġà«§à«®à«¬ à«©
àªĪàª¬ àª²àª®
ĠàªµàªŁ àª¹
Ġfl ower
ĠUS AF
Ġdes cend
Ġthere fore
li ament
Ġpre par
Ġlike ly
Ġàªĸàª¡ àªķàª®
xt ure
Ġwe ather
Ġà¤Ĺ à¤¯
old en
ann ing
Ġà«§à«®à«¦ à«Ń
ĠàªľàªĹàª¤ àª¸
à«§à«¯à«® à«¨
row span
ĠBh ag
ĠBh att
Ġext reme
han a
79 4
rop s
Ġdec ided
à± ĩ
Ġà¤Ĩ à¤¦
ĠAr j
Ġru le
arn ation
ĠàªĹàªł àª°
Ġà¤¬ à¤¨
Ġappe ared
ĠAl so
Ġcontin ent
Ġcontin ental
á¹ Ń
Ġexam ples
Ġchang ed
ĠMah at
Ġmem orial
à«ĩ! "
Ġsystem s
Ġmed ical
Ġà«§à«¨à«¦ à«¬
Ġà«§à«Ńà«® à«©
Ġàªĸàª¤ àªªàª¤
Ġcrit ical
Ġà¤¯ à¤¹
US D
ĠQ u
ĠDev das
ĠJain ism
Ġpass es
Ġàª¸àª°àªĺ àª¸àª®
Ġdiv ided
aug ht
ream s
Ġmass ive
Ġmeth ods
Ġà° ¨
Ġincreasing ly
Ġhel ped
Ġappro ved
Ġredu ced
ĠMad h
Ø± Ø§
Ġfall s
Ġrepl ace
Ġright s
Ġindepend ent
iver se
Ġobs erved
ĠàªĨàª¥àª® àª¤
Ġàªµàª¸àª¨ àªľ
Ġve get
ĠàªĨàª°àªĵàªı àª®àª®
ĠShe ed
Ġrecord ed
Ġcurrent ly
Ġfund ing
àªĨàªĩàªıàª® àª¡
Ġvir t
Ġaddition al
ĠPe ople
Ġliter ature
Ġaward ed
Ġkill ed
Ġbelong ed
Ġsubst ance
Ġanaly sis
Ġelse where
writ ers
Ġrom antic
Ġbehav ior
ĠInst itute
Ġcam era
Ġqual ifying
Ġinterp ret
ĠRah man
emb ly
ĠDep artment
Ġvide os
ĠTechn ology
ĠWill iam
ĠAmit abh
ĠBas anti
Clar ify
Ġinhab itants
Ġpur pos
ĠFound ation
Ġgoogle mail
Ġmagaz ine
sig ma
asay at
ĠAwa ara
ĠSala am
ĠPya asa
ellect ual
ĠRale gan
ĠRena issance
ĠKash mir
ĠEDV AC
Ġplagiar ism
! "
) )
1 000
1 20
2 78
7 50
: "\""
A t
A cc
C A
C S
D inosaur
G T
K odaikanal
L àª¨
L ine
M P
O Y
P asayat
S c
T S
b um
b ottom
e ed
e enth
h r
h as
h ood
h idden
i i
i ary
i ya
j a
j e
k y
k nown
l ocation
m aint
m argin
p ers
p read
r d
s s
s pe
u ity
u ous
v isible
w ith
x d
} ^{
³ Øª
Î ¬
Ï į
à ®
à ·
â Ļ
Ġ ub
à« Ĳ
àª¾ àª¿
àª° àªĹàª°
àª° àª²àª®
àª¨ àªķàªµ
àª¨ àª¡àª®
àª¨ àªŃàª°
à«Ģ +
à«Ģ |
àª® àªĽ
àª® àªĸàª²
àª¤ àª²àªµ
àª¤ àª¦àª¶
àªµ àª°àª¤
àªµ àªµàª¤
àªµ àªªàªķ
à«ĭ âĢĵ
àª¯ àª¬àª³
àª¯ àª¯àª¨àª¨
àªķ àª·
àªķ àªĽ
àªķ àªķàª²
àªķ àª«àª°
àªķ àª¯àª°àªļàª¨
àª¿ ;
àª¿ à«į
àª¾àªĤ )
Ġàªª àªĹàª°àªĸ
Ġàª¸ àª¸àª°
Ġàª¸ àª¨àª®
Ġàª¸ àª¨àª¸
Ġàªķ àª¤àª°
àª¸ àª¤àª°
ĠàªĨ àª¸àª®
Ġàªľ àª¯àª¨
Ġàªľ àª°àª¦
Ġàªľ àª®àª°
ĠàªĽ àª¥
ĠàªĽ àªŁàª£
Ġàªħ àª£àª®
Ġàªħ àªĹàªµàª¡
àªľ àªĺ
àªľ àªĹàª¦
àªª àª³àªµ
àªª àªĹàª²
àªª àª¡àª¤
àªª àªªàªŁ
àª£ àª¯àª®
Ġàªµ àª¯àª¥
àª¦ àªµàª¤
àª¶ àª§
à«ģàªĤ âĢĿ
à«ģàªĤ âĢĻ,
Ġàª¹ àªµàª¨
Ġàª¹ àª°àª¹
àª¹ àª°àª¤
àª¹ àª²àª¤
ĠàªĹ àªĹ
àª§ àªµàª¨
Ġàª° àªŁ
Ġàª¦ àª°àªķ
Ġàª¦ àª¢
Ġàª¨ àªķàª³
Ġàª¬ àª¥
Ġàª¬ àª°àªķ
ĠàªĨàªµ àª°àª¤
à«Ĥ "
àª³ àª£àªķ
Ġàªı àªŁàª®
Ġàªı àªĨàª°àªıàª®
Ġàªı àª¹àª®àª¦
àªĸ àª³
àªĸ àª°àª¡
àª¬ àª£
àª¬ àª¶
àª¬ àªľàª¨
àª¬ àª³àª®
àª· àªŁ
àª· àªĺ
àª· àª°àª¸
àª· àª°àª¬
Ġàª² àªµàªľ
àªĵ àª¨àª¨
àªĵ àª«àª¨
àª°àª¤ àªª
àªŃ àªľ
àªŃ àªµàª¨àª®
Ġàª¥ àªª
àªľàª° àª¹
àªĩ àª°àª¸àª¨
àª« àª²àªķ
Ġàªļ àª¬àª°
Ġàªļ àªªàª³
àªĪ àªĿàª¨
àªı àª¨àªµ
àªı àª¨àªª
àªı àªķàª²àªµ
Ġàªķàª°àªµ àª®
àª°àª® àª¬àª¦
àª¯àª¤ àª°
àª¯àª¤ àªķ
Ġàª« àª«àª¡
àª°àª£ àªĹ
Ġàª§ àª°àª¨
ĠàªŁ àªµ
ĠàªŁ àª¹
àª°àªķ àª®àª¨
Ġàªĵ àª°àª²
à«ĥ à«į
àªĺ àª§àª¨
àªĿ àª¶
àªł àªµàª°
àªł àªķàª¥
àª¤àª° àª§
àª¤àª° àªĸ
àªĨ àª°àªķ
àªĨ àªŁàª²
àªī àª§àª®
àªµàª° àª¹
àªµàª° àª§
àª¨àª¨ àª«
à«ģàªĤ. ,
Ġàª°àª¹ àª¨
Ġàªĩ àªµàª¨
Ġàªĩ àª¡àª°àª¨
à¤ ħ
Ġt aste
00 000
àª¯àª® àª²
àª¯àª® àª¬àª¦
àªķàª° àªı
àª®àª£ àªľ
Ġ2 80
àªľàª¨ àª¸
Ġa way
Ġa wards
àªŁàª° àªı
àªŁàª° àª¸àª¨
àª¤àª¨ àª§
àªŁàª¨ àªŁ
àªŁàª¨ àª¥
Ġàª¦àª° àª¦
àª¢ àª¸
àª¢ àª£
àªħ àª°àª£
àªħ àªµàª²
àªħ àª°àªľ
ĠàªĪ àªĵàª¨
àª¸àª° àª¹àª¦
àª·àª£ àª¸
Ġàª®àª§ àªª
àª¸àª® àªª
à«ĩàªĤ -
àªĹàª² àªªàª°
Ġàªıàª¨ àªıàªıàª¸
ĠàªĿ àª¡
ĠàªĿ àª¨àªķ
ĠàªĿ àªĹàª¡
àªļàª¨ àª°
àªļàª¨ àª²
àªļàª¨ àªª
Ġàªħàª¹ àª²
Ġàªħàª° àª¡
ĠàªħàªŃ àª°
àª«àª³ àª¦
ĠàªĨàª° àªĿ
on or
on se
Ġàª¨àªµ àª°àª¤
Ġs w
ĠàªĬ àªĽàª³
ĠàªĬ àªªàªĸ
at id
at ures
Ġàª¬àª¹ àª°
Ġàªħàª² àªĹàª¤
Ġàªīàª¦ àªĹàª®àª¸
en ne
àªĪàª¨ àª¬àª°
Ġc ig
Ġc apt
Ġc overed
à«¦à«¦ à«¦à«¦
Ġàª¸àª¹ àªħàªŃ
ar c
ar ia
ar gest
àª¨àªµ àª¦
àª¨àªµ àªļ
it at
Ġàªľàª¨ àªķàª¨
Ġw ides
Ġf ine
Ġf ast
Ġf olk
Ġàªķàª² àª°àª®
Ġàª¸àª¤ àª°àª®
àªªàª£ àª¥
Ġb en
Ġb it
Ġm al
Ġàª²àªĹ àªŃ
Ġp resid
Ġp urch
àªıàª¸ àªľ
àªıàª¸ àªıàª«
Ġà¤ Ĳ
Ġàª¤àª² àª¤
àª°àª¬ àª¨
ic us
àª¯àª¦ àª³àª®
Ġ. .
àª¶àª® àª¯
àª¾àªĤ. "
il it
Ġàªħàªµ àªľ
Ġàªħàªµ àª¹
Ġàªħàªµ àª³
Ġd om
Ġd am
Ġd otted
àª®àª² àªª
àª¦àª® àª¯
à«¬ à«¦à«¦
Ġà«§à«¦ à««
Ġà«§à«¦ à«¯
Ġàªľàª® àª¦àªĹ
àª°àªª àªµ
àªĵàªı àª®
Ġto ler
le t
Ġàªıàª² àªı
àªĹàª¢ àªµ
Ġh om
àª°àªľ àª¤
Ġàªıàª¸ àªĨàªĪ
àª°àª¥ àª²
àª²àª¸ àª£
àª¨àª¸ àª°àªķ
ĠI X
ĠI BM
àª²àªķ àª¤àª®
àª²àª¯ àª¥
àª¡àªķ àª¶àª¨
Ġà«ª à«¦à«¦à«¦
Ġàª¨àªķ àªķ
Ġ18 15
Ġ18 38
Ġ18 42
Ġ18 79
Ġ18 44
Ġà«® à«¦à«¦à«¦
ur assic
ĠA A
ĠA k
ĠT w
ĠT al
ĠàªľàªĹ àªľ
Ġe ver
Ġe ast
Ġe gg
ĠS ri
ĠS te
ĠS up
ĠS undargarh
st ood
Ġà«Ń à«¦à«¦à«¦
Ġà«Ń à««à«¦
Ġ20 9
Ġ20 18
Ġl oss
àª·àªķ àª¥
ĠàªĶ àª²
Ġre cept
Ġre ached
àªĩàª¡ àª¥
àªĩàªı àª²
àª®àªĹ àª§
ĠC am
ĠB i
ĠB lack
àªıàª¨ àªıàª«
im b
us e
àªľàª¯ àªŃ
ĠM T
ĠM ak
ĠM ath
ĠM ÄģhavÄ«ra
ot or
Ġàª¢ àª¸àª¡
ĠàªĨàªĩ àªĩàªĩ
ĠP C
ĠP S
ĠP o
ĠP re
ĠP ale
Ġàª¸àª¨ àª¸àª¨
Ġàªĳ àª¬
àªµàªľ àª¸
ir med
Ġ15 4
àªľàªª àª¤àª°
ĠH yder
10 3
ĠG hat
ĠG CM
Ġ17 2
her n
op od
ul s
ul es
el es
Ġon es
ĠN et
ĠN ations
Ġst ated
Ġst orm
Ġàªµàª³ àªĹàª£
ĠR ich
ĠR ep
ĠR oman
ĠK ah
un n
Ġan atom
à«¯à« §à«
à«¯à« ¯à«
ac char
àªıàª² àªŁ
ĠD A
Ġàªıàªļ àªĨàªĪàªµ
um in
Ġàªį àªľ
Ġàªį àª¥
ag ing
ag ement
Ġàª¸àª« àª²
àªĩàªĿ àª®àª¨
ĠF rench
Ġà«§à«¬ à«©
Ġà«§à«Ń à««
Ġà«§à«Ń à«©à«¦
ian ce
Ġ12 4
ak ed
ak ar
à¤¨ à¤µ
Ġ14 8
if orm
àª¬àªĩ àª¥
Ġr hy
Ġr ural
Ġr isk
Ġà«§à«© à«ªà«Ń
ĠU nder
ĠU tt
Ġpro p
Ġpro posed
Ġàªķàª¸ àª°àª¤àª¨
Ġ13 2
Ġcom edy
ĠW TA
qu otes
ill ars
Ġà¤ķ à¤°à¤¤
Ġàª¨àªµàª¸ àª°
ĠV a
ĠV ik
ĠV II
ĠV TP
pt iles
Ġàª¸àª°àª¹àª¦ àª¥
osaur ids
Ġhe lic
pl it
pl ied
Ġ|| |-|
Ġàªħàª¬àªľ àª¥
ĠJ ust
àª¶àª² àªªàª°
à«ĢâĢĻ âĢĻ
12 5
àª¯àªŃ àª°àª®
ap ed
Ġàªħàªµàª° àªľàªµàª°àª¨
ĠIn formation
Ġ24 0
Ġpl aced
14 4
80 2
Ġch ampions
Ġàª¬àª°àª« àª®
Ġà¤¸ à¤¦
à¤² à¤¤
ok e
iz es
ĠàªĨàªĪ àªıàª®àªŁ
ell ig
Ġim plement
Ġun c
Ġint ellectual
Ġà«¨à«© à«¦
Ġàªīàªªàª¨ àª¯àª¨
Ġpart ners
aj ol
Ġàªıàªķàªµ àªļàª¨
à¤ª à¤¯
àªĨàªĩàªı àªı
Ġad j
à¤Ĺ à¤²
Ġà«§à«®à«Ń à«Ń
Ġà«§à«®à«Ń à«¬
Ġfe athers
ove re
à¨ ¿
à¨ Ĥ
Ġà¤µ à¤°
Ġro t
Ġne g
Ġne igh
75 6
Ġj oint
Ġform ation
Ġme et
Ġà«©à«« à«¬
ob i
ĠSt ate
Ġâ Ī
Ġsy nt
Ġref uge
Ġso on
àª¥àª¸ àªŃàª°
cl ass
Ġà«§à«®à«¬ à«®
Ġcol on
àªĳ àª¨
ĠÎ ¼
Ġ] ]
Ġpo or
Ġtrans parent
|- !
ific ations
Ġunder stood
eth ing
196 3
àªĩàªªàª° àªŁ
Ġra ised
ann ed
à«§à«¯à«® à«§
Ġreg ional
à«§à«¯à«¯à« §
à«§à«¯à«¯à« ª
à«ĩ' .
ven i
Ġàª¬àª³àª¤ àª£àª¨
Ġcre ate
ĠAr t
ĠCom p
Ġpartic ip
Ġapp arent
ĠàªĹàªľ àªªàª¤
àªį àª¨
ick ets
angu ages
á¹ £
Ġtradition s
Ġmon aster
col span
ĠPro toc
à«§à«¯à«© à«¦
Äģnt a
ram atic
Ġser ious
Ġà«Ńà«© à«§
ged y
"" '"
àªīàªĿ àª°àª¨
Ġcrit ics
Ġexpress ed
Ġexpress way
Ġcond uct
Ġà«§à«§à«¦ à«¦
Ġcontr ol
Ġcontr ast
Ġalong side
Ġcop yright
à© Ģ
Ġz one
Ġcolle ge
Ġnear ly
hel p
Ġà«ł àª¤
Ġpred ic
àªĵàªĹ àª·
ĠRes erve
Ġdem onst
Ġredu ce
Ġartic les
Ġancest ral
Ġcontribut ed
Ġsym pt
ĠFore st
Ġperform ed
Ġve h
Ġàªļàªª àª³àª¤
Ġserv ice
Ġphys ical
ĠSI G
Ġphot orecept
Ġide as
Ġconsist ing
Ġappear ance
het ic
Ġorigin ally
Ġvir us
ĠMo on
Ġindividual s
Ġbuild ing
icro soft
Ġinte gr
Ġamount s
Ġoccur red
ĠSS H
Ġsepar ate
"\"" "'
rest rial
Ġ|- |
Ġàªīàª¦àªķ àªľàª¨
Ġcommit tee
Ġsett led
Ġcover s
Ġpri or
Ġded icated
ĠAL T
Ġàªķàª°àª®àª¸ àª¦
Ġpa ise
Ġàªıàª¸àªıàªļ àªľ
Ġbeaut iful
Ġresid ents
Ġcomplete ly
Ġàª¹àª²àªļ àª²àª¨
Ġcurrenc y
curs or
ĠHT TP
estig ation
Ġatm osphere
duc ation
Ġoccas ion
Ġdialog ue
Ġprofess ional
ĠàªĿàªķàª° àª¬àª°
Ġspect ac
Ġirrig ation
Ġpaleontolog ists
ĠàªĨàª°àªı àªıàª®àª¨
Ġwr ong
Ġphen omen
Ġperf ect
ĠAristot elian
sq rt
Ġdoll ar
Ġdescend ants
:"\"" "\"""'
Ġwides pread
ĠHyder abad
Ġneigh b
""'" }.
:"\"""\"""' ""'"}.
" )
, '
. :
1 30
5 50
8 33
A G
B E
E TA
F DD
G angtok
G rand
I D
I d
M àª¨
M ah
N a
N o
N ET
O T
P S
S up
W orld
a ction
a edia
b ar
c Äģ
c ode
d ate
e qu
g mail
j oy
k ÄģntavÄģda
l a
l ife
m as
m ol
m ons
n ic
o ff
o ice
o inted
p es
p ing
r in
s on
w an
x a
x e
x y
y ond
z er
{ /
{ {
Â ³
Ã ¼
Ä Ģ
Î ´
Ð ¾
à µ
Ġ à«ģ
Ġ ur
Ġ 000
Ġàª ¾
àª° àªµàª²
à«į à«¥
àª¨ àª°àªľ
àª¨ àªĶàªªàªļ
àªĤ àªĤ
àª® àª°àª¤
àª® àª®àª¨
àªµ àª¹àª°
àª¯ àªļàª°
àª¯ àªµàª¨àª®
àªķ àªļàª¨
à«ģ âĢĿ
à«ģ àª¼
àª² àªµàª¤
àª² àª¡àª¨
àª² àªĸàª®
àª¾àªĤ ',
Ġàªª àªŁàªķ
Ġàª¸ àª¡àª¨
Ġàª¸ àªĹàª°àª¨
àª¸ àª¹àª¨
àª¸ àªıàª®
àª¸ àªıàª²
ĠàªĨ àªķàª¡
ĠàªĨ àª¸àªµ
ĠàªĨ àª¬àªķ
Ġàª¤ àª¦àª¨
Ġàª¤ àªĺàª²
Ġàª® àªķàª¨
Ġàª® àª§àª¨
Ġàª® àª¤àªķ
Ġàª® àª®àª°
Ġàª® àªłàªµ
Ġàªľ àª¬àªķ
Ġàªľ àª¡àª¤
ĠàªĽ àª¦
àªĹ àª¤àª®
àªĹ àªķàª£
àªĹ àªµàª¤àª¨
Ġàªħ àªķàª°
Ġàªħ àªĹàª¨
àªŁ àªŃàª°
àªľ àª®àª¨
àªľ àª²àªķ
àªª àª¥àª¨
Ġàªµ àª§àª¨
Ġàªµ àª¤àª¨àª¨
àª¥ àª°àª¸
àª¦ àª¢
àª¦ àªĹàª¢
àª¦ àª¯àª¥
àª¡ àªµàª°
àª¡ àªĸàª°
àª¶ àª¯àªµ
Ġàª¹ àª¦àª¯
àª¹ àª¤àª°
àª¹ àª°àª¹
àª¹ àª¤àª¤
ĠàªĹ àª¹
ĠàªĹ àª°àª¨
àª§ àª¦
àª§ àªªàª°
Ġàª° àªĸàªµ
Ġàª° àª£àªķ
Ġàª¨ àª¸àª®
Ġàª¬ àªŁàª°
Ġàª¬ àª°àª¸
Ġàª¬ àª²àªŃ
àªļ àª°àªķ
àªļ àª³àª¨
Ġàªı àªĵ
Ġàªı àªŁàª¨
ĠàªŃ àªŃ
Ġàª¶ àª¯
Ġàª¶ àª«
àªĸ àª¯
àªĸ àªŁ
àªĸ àª°àª¬
àªĸ àª¨àªª
àª· àª²
àª· àª°àª¶
àª· àªľàª¨àªķ
Ġàª² àªµàª°
Ġàª² àªĪàªı
Ġàªĸ àªļ
Ġàªĸ àªļàªķ
àªĵ àª¤
àªĵ àªĸ
àªĵ àªªàª¨
àªĵ àª¢
àª°àª¤ àª°
àª°àª¤ àª¯
àª®àª¨ àªĹàª°àª®
Ġàªī àªĹàªµ
Ġàªī àªĿàª°àª¡
Ġàªıàªķ àªĿ
àªľàª° àª¡
àªĩ àª®àª®
àªĩ àªµàª¨
àªĩ àª¦àª³
àª« àª¹
àª« àª°àªª
Ġàªļ àª°àªµ
àªı àª¤àª¨
àª°àª® àª¯
àª°àª® àª¤àªµ
àª°àª¨ àª¸
Ġàª« àª°àª¨
Ġàª§ àªŁ
Ġàª¸àª® àªľàª®
ĠàªŁ àª³
Ġàªĺ àª°àª¥
Ġàª¯ àªŁ
Ġàª¯ àª®àª°
Ġàªĵ àªŁàª¨
Ġàªĵ àªĪàª²
âĢ ī
àªĺ àª¸
àªĺ àªŁàª¨àª®
àªĿ àªŁ
àªĿ àª¦
àªĿ àª¹àª¨
àª¤àª® àª¸
Ġàªīàªª àªµàª¨
àª¤àª° àªļàª¨
à«ĭ. ,
àªĨ àªŃ
àªĨ àª®àª¤
àªĨ àªĪàª¡
àªī àªħàª°
àª¾. ,
àªµàª° àªŃ
àªµàª° àªĹàª¢
Ġàª¤àª° àªµàª°
Ġàªĩ àª²àª¸
Ġàªĩ àª¸àª²
Ġàªĩ àª¸àª¨àªª
ĠàªĨàªª àª¸
àªµàª¨ àª¸àª¨
àª°àªµ àª§
à¤ ¢
àª¸àª¨ àª³
Ġt im
Ġt rib
00 2
àªµàª¤ àª¤
àªķàª° àªľ
àªķàª° àªļàª²
à«ĢàªĤ à«¤
àªľàª¨ àª¶
àªľàª¨ àªķàª°
àªªàª° àªĵàª°
àª¦àª° àª°
àªŁàª¨ àªĹàª°àª®
àªĹàª¨ àª¯àª¨
à«ĭ, "
àªħ àª°àª¡
àªħ àªľàª®
àªħ àªµàª³
re ed
re eding
ĠàªĪ àª¨àªµ
Ġo v
Ġo mm
Ġàªīàªªàª° àªĽàª²
Ġàªªàª¡ àª®
àªĹàª² àª¬
Ġàªıàª¨ àªı
àªķàª² àª¥
ĠàªĿ àªª
ĠàªĿ àª°àªĸ
Ġà«¨ à«§à«Ń
on a
Ġàª¨àªµ àªķ
Ġs us
Ġs overe
ĠàªĬ àª¤àª°àª¤
is ions
ĠàªĨàª¦ àª¤àª¨
an ation
Ġàªīàª¦ àª°àª®
Ġàªīàª¦ àª¯àª¸
àª²àª® àª°
àªĪàª¨ àª¸
àª®àªķ àª¬àª°
Ġàªĩàª¨ àª¬
àªķàª¸ àª¶
àªĹàªµ àª¶
âĢĻ .
Ġc ast
Ġc able
Ġc uring
Ġàªªàª¦ àªļ
Ġàªªàª¦ àª®àª¶
à«ī ,
Ġàª¸àª¹ àªľàª¤
ar ct
ar ian
ar ious
ar ily
ar ayan
àª¨àªµ àªµàª¸àª¤
it or
it led
Ġàª¥àªĪ àª¶
Ġw ild
Ġw inning
Ġf ight
Ġf ire
Ġf air
àª¤àªķ àª¤
Ġàªķàª² àª¬àª®
Ġb ur
Ġb ip
Ġb gcolor
Ġm ig
Ġm ere
Ġm ight
Ġm ind
Ġm ph
Ġm icro
Ġm ention
Ġàªµàª¡ àª¤
Ġp ir
Ġp elv
Ġàª«àª° àªľàª¨
Ġàª«àª° àª«àª°
àª®àª° àªļ
àªĩàªŁ àªµ
àªīàª¨ àª¸
àª£àª® àª¯
ic le
ic ian
àª¾àªĤ. ..
Ġ3 30
Ġàªħàªµ àªĹàª¤
as th
Ġd a
Ġd ances
Ġàªĸàª° àªĹ
àª°àªª àª¦
àª°àªª àªŁàª®
àª®àª¦ àª¦
Ġàª®àª° àª¶
àª°àªŃ àª°
àª°àªŃ àª°àª®
Ġàªªàªķ àª¡àª¨
Ġà«© à«©à«¦
àªķàª³ àªĹ
Ġàª°àª¸ àª¦
Ġh us
Ġh ill
àª°àªľ àª®
àª°àªľ àª²
ent ed
ĠI FA
ĠI ran
Ġà«§à«® à«¨à«©
Ġà«« à«¨à«©
ĠàªĪàª¨ àª«
àª¶àªķ àª°àª¨
Ġàªķàªµ àªļàªµ
Ġ18 75
Ġ18 03
ĠA B
ĠA re
àª¯àª¸ àª¨àª¨
Ġe c
ĠS ant
ĠS ind
ĠS RI
ĠS quad
ĠS everal
Ġl ent
Ġl ies
àªµàª¡ àªĹ
àªµàª¡ àª¦
àªªàª¦ àª³
Ġn ay
Ġn orm
Ġn etwork
Ġn arrow
àªļàª® àª¢
19 00
19 35
19 57
Ġ7 67
à¤¾ à¤ģ
Ġàª°àªķ àª®àª®
àªķàªŁ àª¸
Ġàªł àª°àª¤
Ġre com
Ġre ptiles
ĠàªĹàª° àªĹàª¡
àª¦àªķ àª°àª¨
àªµàªŁ àªª
Ġà«§à«ª à«©
ĠC H
ĠC ount
ĠC ann
ĠC inema
ĠB ra
ĠB ant
ĠB angl
àªĩàª® àª¸
ĠM ed
ĠM et
ĠM ill
ot ed
ot ional
Ġbe yond
ad h
ad i
Ġàªīàª® àª°àªķ
ĠàªĨàªĩ àª¯
ĠàªĨàªĩ àªµàª°
os ition
ĠP M
ĠP an
ĠP olit
od ai
Ġàª²àª¶ àªķàª°
àª¡àª² àª¥
Ġàªĳ àªķàª¸
Ġàªĳ àª¨àª²
à¤° à¤§
ir ing
Ġg iant
Ġg angl
Ġ15 3
Ġ15 90
Ġ15 85
Ġ15 95
àªĨàªĩ àªĨàª°àª¸
àªĨàªĩ àªĨàªĩàªıàª®àªı
ĠH ence
10 2
Ġ16 34
Ġ16 65
ĠThe n
ĠG erm
ĠG hol
Ġ17 30
Ġ17 95
op ing
àªµàª¨àªĹàª° àª¥
ĠN atural
Ġà«§à«¨ à«¯
Ġàªħàª¦ àª¶
Ġàªľàª³ àª§
Ġà«§à«« à«¨à«¬
ĠR SA
ĠK al
Ġàªµàª² àªŃ
àª¼ à«ĭàªĤ
ĠàªĬàªŃ àª°àª¤
un ar
àª¸àª¦ àªŃàªµàª¨
ac hes
Ġàªħàª£ àª¬àª¨
Ġàªħàª£ àªĺàª¡
Ġàªıàªļ àªıàª®
Ġàªıàªļ àªĵàªľ
est er
est ed
ag o
ri f
Ġàª¸àª« àªµ
àª°àªļ àª²àª¨àª®
àªĩàªĿ àª¨àª¨
Ġcon clus
ĠF in
ĠF ormation
ĠF IN
Ġà«§à«¬ à«¬à«§
Ġà«§à«Ń à««à«¦
Ġàªħàªľ àª®àª²
ĠàªĨàª¸ àªµàª¨
Ġ12 2
Ġ12 6
ĠE nc
ĠE ducation
pe e
àªĹàª³ àª¶
àªµàª£ àªĽàª°
àªīàª¸ àª¹
àªµàª³ àªľ
àªµàª³ àªĹàª¤
Ġ14 00
Ġ14 98
Ġse g
Ġse at
Ġse ct
Ġse vent
Ġ11 6
Ġex c
Ġex act
Ġex cell
iv en
iv ism
Ġà«§à«© à«¦à«¦
Ġpro pos
ĠW ild
ĠW TF
Ġàªīàªķ àª³àªµ
ĠàªĨàª¹ àª²
ik a
ĠV I
ĠV id
ĠV ish
Ġàªľàª² àªªàª°
à¤ķ à¤®
18 90
18 77
ong ress
Ġ25 5
ĠJ ay
ĠJ urassic
àª¾âĢĻ âĢĻ
12 8
Ġ22 5
ight s
Ġsh ops
Ġsh ape
Ġsh arp
à«§à«® à«Ńà«¨
à«§à«® à««à«®
Ġàª¦àª°àªľ àªľ
ge nd
Ġà¤¸ à¤¬
Ġàªħàª°àªľ àª¦
Ġàªħàª°àªľ àª£àªľ
Ġle gal
Ġàªħàªļ àª°àªľ
ĠàªĹàª¢ àª®
ub s
Ġà«¨à«¨ à««
ĠàªĨàªĪ àªĿ
àªĨàªĪ àªıàª®
Ġar my
ib l
Ġtr ig
ĠCh ak
Ġim per
Ġim pr
Ġim medi
àª¤àª£ àªĸ
à«§à«¦ à««
àª¤àª¦ àªķàª²
ĠàªŃàª£ àª¤àª°àª¨
Ġà«¨à«© à«¬
Ġà«§à«§à« §
à° ®
à° Ĥ
Ġà«¨à«Ń à««
Ġàªīàª§ àªĩ
ĠÂ ¼
Ġdis hes
Ġwhe ther
à¥Ī ,
Ġsc iences
act ers
ens us
Ġsp ice
Ġàª«àª² àª¶
28 4
Ġkil ogram
àªªàªľ àª¤
Ġcl imate
ĠàªĵàªĿ àª¤
Ġà¤ħ à¤¤
Ġspe aking
ond s
Ġmost ly
75 4
Ġàª¸àª¹àª¨ àª¶àªķ
Ġform ula
Ġcons ists
35 7
Ġdist ance
Ġref orm
Ġ186 8
cl aimed
àª°àªĹàª¢ àª®
àªıàª¸àªıàª® àªıàª¸àª¨
ĠSh arma
Ġà«§à«®à«¬ à«¨
àªĳ àª°
àªĳ àª¸
Ġàª¯àª¶ àª¶
Ġdes pite
Ġà¤° à¤¹
Ġtrans l
Ġà¤Ĺ à¤Ī
196 4
196 5
196 9
Ġàª²àª¸ àª£àª¨
ĠAn and
== ==
Ġra il
ann er
Ġà«§à«®à«¦ à«§
à«ĩ... "
àªĩàª¸àª¨ àªª
à«§à«¯à«¯à« Ń
ĠàªĨàª°àª¸ àª®
ank ed
Ġeff iciency
Ġext ract
ĠâĢį ,
ĠàªĨàªī àªŁàª°
à«§à«¯à«Ń à«¨
à«§à«¯à«Ń à«©
à«§à«¯à«Ń à«¯
Ġdec re
Ġdisc uss
Ġgener ated
mit tee
ĠCom mittee
Ġ180 4
Ġ180 8
Ġx xx
Ġcult ures
Ġà¤¬ à¤²
Ġtra gedy
Ġsing er
à«§à«¯à«¬ à«¨
à«§à«¯à«« à«¨
iet ies
ĠMah ar
Ġart ist
form at
Ġàªıàª«àªı àªĵ
Ġsuccess es
à«§à«¯à«© à«¯
Ġcap able
Ġgreat ly
Ġàª¡àªĿàª¨ àª¬
àªļàªµàª£ àªŃàª°
ĠâĤ ¨
Ġà¤² à¤Ĺ
Ġeffect ive
vent ion
Ġdi verse
Ġsug ar
ĠFor ce
Ġphilosop her
iqu es
Ġsch olar
Ġback d
riv ing
Ġgiv ing
Ġconf irmed
à«§à«¯à«¨ à«¦
à«§à«¯à«¨ à«©
Ġhand s
Ġele ment
Ġprov ides
Ġcomple ted
Ġiss ue
Ġgo es
Ġclass ical
Ġsimilar ities
Ġterm s
ĠTr uth
Ġcontr ad
ops ins
Ġbus es
Ġevent ually
Ġsuggest s
Ġdep th
à«§à«¯à«¦ à««
à«§à«¯à«¦ à«§
amb ar
Ġextin ct
Ġlens es
Ġver tebrates
ĠPar allel
ĠST Ds
Ġfilmmak er
au er
ĠBe g
Ġann ual
Ġvis ible
ĠSidd hi
Ġobject s
ÙĦ ÙĦ
Ġste ep
Ġà«§à«§à«¬ à«¬
Ġrecogn ition
Ġter restrial
Ġaff il
Ġobs erv
Ġlim it
Ġserv ices
Ġlay ers
Ġrequ ired
Ġtechn ical
Un ited
Ġide a
Ġbook s
Ġla id
Ġast ronom
àªĨàªī àªŁàª¨
alle y
Ġlat est
Ġcourt es
anes e
Mus lim
Ġdial ect
Ġinfe ctions
Ġliter acy
Ġvers ion
Ġhy pot
Ġget ting
Ġexcept ions
ĠChrist ian
Ġrefere nce
Ġrefere nces
à¥¦ à¥¦
Ġskele ton
ĠØ§ Ø
Ġdistingu ished
Ġachie ved
irl s
ĠDirect or
Ġdeb ate
Ġsitu ated
HM S
bat ten
ĠIT U
ĠMount batten
ĠVij ay
ĠTra ps
ĠSong s
ĠGree k
Ġrefract ive
Ġpoet ry
Ġtiss ue
Ġpress ure
Ġperman ent
Ġphilosoph ical
Ġsout hern
Ġdoc ument
ĠHel en
Î¹Ïĥ Î¼
Ġàª¸àª¬àª® àª¶
Ġalle ged
ĠNZ L
ĠArj una
Ġàªļàª¬àª° àªĸ
Ġcig are
Ġben ef
ĠMath ura
acchar um
Ġveh icles
cÄģ rya
Ġomm atid
Ġhus band
ĠIFA B
ĠBant u
ĠGhol ap
ÙĦÙĦ Ûģ
0 80
1 10
5 28
; "
= '
A M
A z
B S
B e
B al
B quote
C ont
C SI
D DI
G C
H P
M U
P A
R C
S ee
V M
[ [
a ff
a Éª
c an
c ript
c iation
d ance
e ff
f l
g n
g han
g Ä«
h ing
h im
h ich
i pe
m ing
m ith
m ers
m ark
n i
o ids
p at
p ath
r ish
r oup
r ative
s l
s Äģ
t d
t op
u ing
w en
w est
w ell
w ise
y t
y th
y les
Ã ´
Ã Ĵ
Å «
É ĳ
Ð ¸
Ð ½
Ù Ĥ
Ú ©
ä »
Ġ (
Ġ ËĪ
àª¾ ?
àª¾ à«Ģ
àª¾ âĢį
àª¾ ).
à«ĩ âĢ¦.
àª° àªµàª¸
àª¨ àªħ
àª¨ àªĸàª²
àª¨ àªµàª¸àª®
àª¨ àªĪàª¥
àª¨ àªīàªªàª¯
àª® àª¶àªķ
àª¤ àªĺàª°
àª¤ àªªàª°
àª¤ àª¬àª²
àª¤ àª²àªķ
àª¤ àªľàª¨àªķ
àªµ àª®àª¤
àªµ àª¡àª®
àªµ àªŃàª°
à«ĭ ),
àª¯ àªĹàª¤
àª¯ àªħàª¨
àªķ àª§
àªķ àª®àª®
àª² àª¤àª°
àª² àªķàª²
àª² àªĸàª¤
àª² àª¹àª°
Ġàªª àªŁàª²àª®
Ġàª¸ àªµàª°
Ġàª¸ àª¨àª¨
Ġàª¸ àª¢
Ġàª¸ àª¡àªµ
Ġàª¸ àª¬àª²
Ġàª¸ àªķàª³
Ġàª¸ àª¨àª°
Ġàªķ àª®àª¨
Ġàªķ àªĽ
Ġàªķ àªŁàª²
Ġàªķ àª¥àªķ
àª¸ àªŁàª°
àª¸ àª¦àª°
àª¸ àª¯àª£
ĠàªĨ àª°àª®
ĠàªĨ àª¥àªµ
ĠàªĨ àªĩàª®
Ġàª¤ àª°àª¤àª¨
Ġàª® àªŁàªķ
Ġàªľ àª°àª¨
Ġàªľ àªµàª°
Ġàªľ àª¯àªķ
Ġàªľ àª®àª¤
Ġàªľ àªªàª®
ĠàªĽ àª¤àª°àªª
àªĹ àªĿàª²
Ġàªħ àªµàª¨àªµ
àªŁ àªĹàª¨
àªŁ àª¬àª°
àªŁ àªĿàª°
àªŁ àªĨàªīàªŁ
àªľ àª§àª°
àªľ àª¤àª¦
àªľ àª¦àª°àª¬
àªª àª«
àªª àª¶àª¨
àªª àª¤àª®
àªª àªķàªŃ
àªª àª²àª¬
àª£ àªķàªª
Ġàªµ àªĽ
àª¦ àª®àª£
àª¦ àª¸àª°
àª¦ àªĺàª¨
à«ĩ. âĢľ
àª¡ àªµàª¨
àª¡ àª°àª¬
àª¡ àª²àªµ
àª¡ àª²àª°
àª¶ àª£
àª¶ àª°àª®
à«ģàªĤ àªĤ
Ġàª¹ àªķàª®
Ġàª¹ àª®àª²
àª¹ àª«
àª¹ àª¤àªµ
Ġàªħàª¨ àª°
Ġàªħàª¨ àªµ
Ġàªħàª¨ àª¶àª¨
ĠàªĹ àª®àª¨
ĠàªĹ àª¨àª¸
ĠàªĹ àª¨àªª
àª§ àª°àª¸
àª§ àªķàª³
Ġàª° àª£àªµ
Ġàª° àªŁàª£
Ġàª¦ àª§
Ġàª¨ àªĪ
Ġàª¨ àªĿ
Ġàª¨ àªµàªµ
Ġàª¨ àª¬àª°
Ġàª¨ àª³àª¨
Ġàª¬ àªĿàª¨
Ġàª¬ àªķàª¹
ĠàªĨàªµ àª°àª¦
ĠàªĨàªµ àª°àª£àª®
ĠàªĨàªµ àª¨àªľ
à«Ĥ '
àª³ àªĹàª¤
àª³ àªµàª¤àª¨
àªļ àª«
àªļ àªµàª®
Ġàªı àª¤
Ġàªı àª°àª¸
Ġàªı àªľàª¬
Ġàªı àª¸àªķ
Ġàªı àª²àª¬
Ġàªı àª¹àª¸
ĠàªŃ àª²àªĹ
Ġàª¶ àª¤àª°
Ġàª¶ àª¬àª°
Ġàª¶ àª°àª£àª®
àª¬ àªķàª¨
àª¬ àªĿ
àª¬ àªķàª¤
àª¬ àª¨àª¸
àª· àª°àªª
àª· àª¯àªµ
àª· àª¯àªª
àª· àªŃàª¨
Ġàª² àª²àªķ
Ġàª² àªµàªķ
Ġàª² àª¹àª°
Ġàªĸ àª¸àª¤
Ġàªĸ àªĸàª¡
àªĵ àª¸àª®
àªĵ àª®àªķ
àª°àª¤ àªµ
àª°àª¤ àª²
àªŃ àªµàª¸
àª®àª¨ àª¤
Ġàªıàªķ àª¸àªļ
à«Ģ, ,
àªĩ àªĸ
àªĩ àªĨàª°
àªĩ àª¦àª³àª¨
àª« àª¸àª¨
àª« àªŁàª¨
àª« àªķàª¸àª°àª¨
Ġàªļ àªµ
Ġàª¡ àª®àª°
àªĪ àªĸ
àªĪ àª²àª°
àªĪ àª¦àª³
àªı àªļàª¨
àªı àª¬àª²
àª°àª® àª¤àª¨
Ġàª« àª¤àªµ
àª¶àª¨ àªª
Ġàª§ àª¨àªª
Ġàª§ àª¨àªľ
Ġàª§ àª¡àª¥
Ġàª¸àª® àªµàª¯
àªĹàª® àª£
ĠàªŁ àª¸
à«Ī "
àªµàª¸ àª¨àª¨
Ġàª¯ àª¯
Ġàª¯ àª®àª¨àª¨
àª²àª¨ àª¸
àª°àªķ àªĹ
àª°àªķ àªª
àª°àªķ àªªàª£
Ġàªĵ àªķàª¨
Ġàªĵ àª¸àª°
Ġàªĵ àª®àª°
Ġàªĵ àª°àª¬
Ġàªĵ àªĩàª¸
âĢ ļ
àªĺ àª¥
àªĺ àª¬
àªĿ àª°àªµ
àª¥àª® àª¤
àª¤àª® àª¦
àªł àª²àªľ
Ġàªµàª° àªĸ
àªĨ àªµàª¨
àªĨ àª¨àª®
àªĨ àª²àª®
àªī àª¥àªµ
àªī àª¡àª¤
Ġàª¬àª¨ àªµàªµ
àª£àªµ àªŁàª¥
à«ģàªĤ. '
Ġàªĩ àª®àª¦
Ġàªµàª§ àªĺàªŁàª¨
àªµàª¨ àª²
àªµàª¨ àªĹ
àªµàª¨ àª°àªķ
àª°àªµ àª¦
àª°àªµ àª¶
à¤ ½
àª¸àª¨ àªķàª°
Ġt ur
Ġt all
Ġt aking
Ġt ropical
Ġt aught
Ġt ickets
àª¯àª® àªŃ
Ġa ck
he ed
àª¯àªķ àª¥àª¨
àª¯àªķ àª°àª£àª¨
àª¦àª° àª¦
in y
àª°àª¸ àªĸ
àªŁàª¨ àª¶
Ġàª¸àª° àªĹ
Ġàª¸àª° àªľ
Ġàª¸àª° àª¥
Ġàª¸àª° àªļ
Ġàªħàª® àª°àªª
àª¦àª¨ àªµ
àª¦àª¨ àªĹàª°
àªħ àª¹àª®
ĠàªĪ àªª
ĠàªĪ àª¯àª°
ĠàªĪ àª²àª®
àª·àª£ àª¯
Ġthe rm
Ġàª¶àª° àª¦àª¬
àªĩàª¨ àª°àª¨
àª°àª¦ àª¶
àª¡àª¨ àª¡
àªķàª² àªª
àªķàª² àªļ
nd ing
Ġàªħàª° àª§
on c
on ic
Ġs at
Ġs ales
Ġs ummer
Ġs olid
ĠàªĬ àª²
ĠàªĬ àªªàª°àª¨
àªĹàª¤ àª²
is hes
an z
an ia
an up
en nis
àª²àª® àª¬
àªķàª¸ àªª
àªĹàªµ àª¦
Ġc as
Ġc ro
Ġc ore
Ġc ricket
Ġc roc
Ġc alc
Ġc ampaign
ed ding
Ġàªªàª¦ àª¸
Ġàªħàª¸ àª¬
àª¨àªµ àª¡
it able
Ġàªľàª¨ àªªàª¦
Ġw ent
Ġw ors
Ġàªĵàª³àªĸ àªªàª¤
Ġf er
Ġf estival
Ġf rag
Ġb ow
Ġb anc
Ġb ank
Ġm ist
Ġm anner
Ġp il
Ġp ull
Ġàªıàª® àªıàª«àªŁ
àªıàª¸ àªĨàª°
àªıàª¸ àªĨàª°àªŁ
àªķàªµ àªĸàª¤
àª¹àª¨ àªª
Ġàª¤àª°àª« àª¦
ou d
Ġ3 70
Ġ3 75
il om
àª¡àª° àª¡
Ġàªħàªµ àª·
as is
àª°àª¡ àªķ
Ġd ream
àªķàª°àª£ àªª
Ġà«¬ à««à«¦
à«¬ à«®à«¦
Ġ' ='
om ach
om orph
àªĸàª° àª²
àªĨàª° àªĵ
àªĨàª° àªĿ
àªĨàª° àªıàªļ
Ġà«§à«¦ à«¦à«¦à«¦
Ġàªľàª® àª£àªµ
àª¥àª¨ àªĹàª°
Ġàªıàª² àªıàªª
àª¬àª² àªķ
àª°àªŃ àªµ
àª°àªŃ àªķ
àª¯àªµ àªķ
Ġàª°àª¸ àªľ
Ġh un
Ġh old
Ġh ope
Ġh ours
Ġh ills
Ġàªıàª¸ àªıàª¨
ĠI r
ĠI ET
ĠàªĺàªŁ àª¶
Ġà«§à«® à«¨à«¨
Ġà«§à«® à«©à«Ń
Ġà«§à«® à«ªà«¬
Ġà«§à«® à«ªà«¨
Ġà«§à«® à«©à«¯
Ġ4 000
Ġ4 20
Ġ4 80
et t
et ers
Ġàªķàªµ àª¯
Ġ18 20
Ġ18 14
ur ity
ĠA pp
ĠA uth
ĠA gra
ĠàªľàªĹ àªª
ol f
ol ute
àª¯àª¸ àª£
Ġ5 15
ĠS y
ĠS on
ĠS ound
ĠS ight
ĠS ank
Ġl ake
Ġl ane
Ġl iber
Ġl anguages
Ġl unar
ĠàªĨàªľ àª¦
àª°àªĸ àª¬àª°àªķ
Ġàª®àª¦àª¦ àªĹ
àªµàª¡ àª¯
àª¨àª° àªļàª¨
19 5
19 13
19 45
19 32
19 31
19 85
19 79
19 58
19 54
19 81
Ġ7 74
Ġ7 87
à¤¾ à¤ĥ
ĠàªĶ àª¤
ĠàªĶ àª¸
àªµàª°àª£ àª¤
Ġàªł àªª
Ġre new
àª¯àª£ àªľ
àªĩàªı àª«
ro yed
Ġà«§à«ª à«¦à«¦
Ġà«§à«ª à«¬
Ġà«§à«ª à«§à«§
àª®àªĹ àª«àª³
àªļàªķ àªķ
ĠC ancer
ĠC ongress
ĠB rah
àªıàª¨ àªıàª®
im p
im als
àª¿. ,
àªľàª¯ àªľ
ĠM ic
ĠM em
àªķàª¥ àªķàª²
id as
id ent
Ġàªīàª® àª³àªķ
ig uri
ĠàªĨàªĩ àª¸àªķ
os le
ĠP O
ĠP a
ĠP ark
ĠP hys
à«ĩ: -
àªªàª² àª§àª°
Ġ8 000
Ġàªĳ àªª
ut s
ut ta
ch ing
àªīàª¦ àª¯àªª
Ġ10 6
Ġg overn
Ġg ained
Ġàª®àª¸ àª³
àªĨàªĩ àª¬
Ġ9 000
Ġ9 59
àªľàªª àª¥
ra el
àªĽàª² àª¥
ĠH ill
ĠH ome
ĠH ai
ĠH imal
Ġ16 50
Ġ16 72
Ġ16 03
Ġ16 79
ĠG ulf
Ġ17 11
Ġ17 27
Ġ17 05
Ġ17 01
Ġ17 88
Ġ17 61
Ġàªªàª² àª³
àª£àª¸ àª°àª¨
Ġal ter
àªħàª² àªķàª¨
Ġàª°àªļ àª¶
ĠN ut
ĠN um
ĠN adu
ĠN AT
Ġst im
Ġst age
Ġst ories
Ġà«§à«¨ à«§
Ġà«§à«« à««
ĠR oh
ĠR iver
ĠK ab
ĠK odai
Ġàªµàª¨ àªµàª°
un ciation
Ġan s
ac claimed
ĠàªŃàªľàªµ àª¶
ĠD o
ĠD ancer
à¤¤ à¤®
Ġàªıàªļ àª¬
àª¤àª°àª£ àª¥
ri e
ri ef
ĠàªªàªĹ àª°àª£
àª£àª¯ àª¥
Ġcon ver
ĠF ollowing
ĠF DDI
ĠInd epend
Ġà«§à«Ń à«¦
Ġà«§à«Ń à«®à«¦
Ġà«§à«Ń à«¬à«§
Ġàª¬àª³ àª¦àªĹ
ere nced
Ġ12 1
Ġ12 7
ĠL and
ĠL oc
ĠL aw
àªıàª« àªĨàªĩ
Ġàªıàª« àªıàªı
ound s
Ġ14 2
Ġ14 3
Ġ14 5
ud get
Ġ11 7
Ġex ception
Ġex change
Ġr ates
Ġà«§à«© à«¬
Ġà«§à«© à«§
ĠU R
Ġ13 3
Ġcom ment
ĠàªĨàª¦àª° àªŃ
ĠW GC
àª¦àª³ àªĽ
Ġde ad
Ġàªħàª« àª¸
àª¾' .
ĠV e
ĠV i
ĠV oIP
à¤ķ à¤²
à¤ķ à¤¹
18 03
18 54
ant a
Ġàª¸àª¬ àª¡
pl ed
pl og
ang a
Ġàª¹àª³àªµ àª¦àª¨
Ġnot hing
ĠJ h
à¤µ à¤¨
Ġàªªàªķàª¡ àª®
12 7
Ġ22 3
Ġ21 4
Ġàªµàª¤àª¨ àª®
ap ur
ap hysics
ĠIn val
16 7
ĠIndia àª¢
à«§à«® à«Ńà«Ń
gr adu
Ġàª¨àªľàª° àª¥
Ġle t
Ġle mon
Ġà«¨à«¨ à«¦à«¦
ip s
ind ia
àªĬ àªŃ
àªĨàªµ àªķàª¨
Ġcont emporary
Ġar c
Ġar rang
ast ic
ell ow
ĠCh a
Ġun ion
Ġàªµàª£ àªīàªķ
à° ¤
ĠàªĹàª³ àª§àª°
Ġà«¨à«Ń à«®
Ġab road
ust er
Ġàªıàªķàªµ àªĸàª¤
Ġper ception
pp ed
Ġdis put
ft p
Ġcent uries
33 8
Ġà«§à«®à«« à«¨
Ġà«§à«®à«« à«¯
Ġsc heme
Ġsp ices
Ġres ign
ĠàªĨàªĹàª®àª¨ àª¥
Ġte h
à¤Ĺ à¤°
à¨ °
Ġspe ed
Ġspe ctr
ĠàªŁàªª àªķàª¤
Ġro yal
Ġmov ing
Ġne ither
Ġne eded
anc ed
àª°àªľàª¨àª¨ àª¨
àª¯àª°àª¸ àª¥
Ġrec overed
Ġrec onst
ĠàªŃàªľ àªµàª¨
Ġà«©à«« à««
Ġà«©à«« à«¯
ob el
àªĩàª« àª²àª¨
Ġàª¸àªĹ àªªàª£
à«ĢâĢĿ ,
Ġref ers
ll or
àª¾âĢĿ .
Ġà«©à«¨ à««
cl es
Ġà«§à«®à«¬ à«Ń
Ġà«§à«®à«¬ à«ª
Ġqu e
àªıàª¸àªı àª²àª¨
ug g
ug ues
Ġàªµàªĺ àªĩàª¥
ne kÄģntavÄģda
Ġfl at
Ġfl ow
ĠY ear
àª°àªµàª£ àª¬
Ġ] ,
ĠUS D
Ġà«¨à«¯ à«¦
Ġent er
Ġent ers
Ġent ertain
Ġcomp an
Ġcomp ar
Ġunder world
Ġwhere as
Ġ36 5
196 8
Ġsa pt
ĠAn na
Ġà«©à«© à«¦à«¦
Ġac uity
àªĶ àª·àª§
Ġap ple
ann y
Ġind ex
à«§à«¯à«® à««
à«§à«¯à«® à«¯
ĠàªĨàª°àª¸ àª¥
Ġeff icient
Ġbl ind
Ġcor rect
Ġcre st
Ġmain stream
Ġà¤Ĩ à¤¹
no v
Ġgener ation
ĠAr my
ĠàªĬàªªàª° àª¥
ash ik
Ġ73 7
Ġvar ieties
Ġàªµàª¡àª¨ àªĹàª°àª®
Ġmark ets
ict ory
Ġrele ases
à««à«« à««à««
Ġà¤¬ à¤¹
Ġcontin ues
Ø§ Ø
Ġàª°àª¤àª¨ àªªàª°
Ġàª®àªĿ àª¦
Ġàªħàª°àª¸ àªªàª°àª¸àª¨
Ġpers pect
ĠSe a
à«§à«¯à«¬ à«§
Ġco in
Ġtradition ally
esh kar
Ġwrit e
ĠBen e
à«§à«¯à«« à«¬
Ġshow ed
àªıàª¸àªıàª¸ àªĨàª°
Ġset ting
Ġbr anch
Ġinflu ential
Ġass embly
à«§à«¯à«© à«¨
à«§à«¯à«© à«ª
Ġvill agers
Ġàª²àª¯ àª¬àª¦
Ġmet eor
Ġcar bon
Ġbro wn
AC K
ĠEng land
Ġimport ance
Ġdi ameter
Ġany thing
Ġfeat uring
ĠSik h
Ġà«¯à«« à«¦
àª°àª¢ àªªàª£
àª¯àªªàª° àªŁ
ĠàªĽàªŁàªķ àªµ
Ġback ground
ential ly
riv al
Ġanek Äģnta
Ġsoc iety
Ġprov ided
ĠàªĸàªŁ àªªàªŁ
Ġprom in
Ġà«¬à«® à««
Ġàª¸àª°àªĺ àª¸àª¨
Ġcontr olled
Ġà¤ķà¤° à¤¨
ĠàªĹàª¡ àªĹàª¡
Ġcop ied
ĠRo bert
Ġallow s
Ġdep ict
inc arnation
Ġresult ing
Ġmat hematics
ĠIS BN
ĠIPO àª¨
Ġpred ators
Ġsupport ed
irc raft
Ġresp onse
Ġsom ething
Ġsun g
Ġopen ing
Ġmi xture
Ġàª¦àª« àª¨àªµ
Ġste el
Ġexist ence
Ġexpl anation
Ġancest ors
Portal par
Ġtour ists
Ġdr ama
Ġpost ers
Ġke pt
ĠàªĨàª¥àª® àª£
Ġequ al
Ġrequ ire
Ġtechn iques
Un ref
net ic
Ġcr ust
Ġcreat ures
ĠCor poration
Ġquest ions
Ġrepresent ing
ÃŃ àª²
Ġri vers
Ġtre nd
Ġtre es
ĠFr ance
Ġàªķàª²àª¨ àª¶
Ġàª¡àª¨ àª«àª°
ĠHigh way
ĠHigh ways
Ġconsum er
Ġdesign ed
Ġbat ter
ĠAT M
AI DS
gg le
Ġinte nded
Ġnor thern
Ġreven ues
isch ia
Ġwat ers
Ġpract ice
Ġá ¼
Ġeth ics
Ġbi ology
ĠId li
ĠPur ana
Ġauth ors
Ġàªīàª¦àªķ àªľàª¨àª¨
Ġelect ric
gram me
Ġteach ing
Ġcritic ism
ĠàªħàªĹàª® àªļ
Ġaware ness
ĠAI DS
Ġju ice
Ġcou ple
Ġbound ary
Ġpie ces
ĠHum an
Ġà«¯à«§à« ¯
Ġdistribut ors
Ġprinc iple
Ġmaint ained
ĠTrans port
Ġherbiv orous
àªħàª« àªĺ
ĠàªĬàªľàªµ àª£
ĠAnt arct
ĠTem ple
ĠNam aste
Ġpron unciation
Ġslight ly
vi ew
Ġàªıàª®àªıàª¸àªıàª¨ àª¬
ĠAC K
ĠOrgan ization
Ġdefin ition
Ġtri ang
Ġinse cts
ĠTy rann
ĠMang eshkar
ĠNiger ia
ĠDV Ds
Ġsucce eded
Ġcompos er
Ġscen es
Ġmel od
Ġà¥§ à¥
Ġencou ra
Ġille gal
Ġstre ng
ĠChar les
Eng lish
Ġdire ction
ĠPort ugues
ĠJap an
Acc ording
Ġub iqu
ĠMT V
ĠàªĨàªĩàªĩàªĩ àªĩ
ĠGCM MF
ĠRich ard
ĠRep ublic
Ġconduct ed
Ġsympt oms
ÄĢ cÄģrya
ĠCann es
ĠBangl adesh
ĠGerm any
Ġimpr ison
Ġommatid ia
Az am
ghan istan
Ġack now
ĠIET F
erenced section
plog roup
ĠInval id
Ġspectr um
Unref erencedsection
, \
- ,
. '
. âĢĻ
/ ,
0 50
2 17
2 33
4 50
5 36
8 90
A L
A c
A r
A ir
B h
B ombay
B reeding
C quote
E R
E nd
E nc
F in
H S
I T
I f
K C
K ey
L ife
L argest
N ational
R e
T o
U p
U FO
U rs
W W
W e
Y N
b rit
b les
c er
c ast
c ause
c raft
d ra
e on
f n
f ilm
f all
h ot
h ite
h pur
h aps
k ey
l ab
l oy
m o
m àª¨
m ic
m ath
n n
p olit
s ized
t v
t an
t ion
u ation
u ff
v oc
v ant
¶ Ïī
Â £
Ä §
Å į
É ¡
Î ¶Ïī
Ð º
Ñ Ģ
Ñ ģ
ä º
å ı
Ġ Å
Ġ er
Ġ err
Ġ Ùħ
à« ł
Ġàª ¿
àª° àª°àª¤
àª° àª²àªµ
àª° àªļàª°
à«į à«ĩ
àª¨ àªľàª¨
àª¨ àª¯àªķ
àª¨ àª°àª¹
àª¨ àª«àª°
à«Ģ ).
à«Ģ ),
àª® àªĹàª°
àª® àª¸àªµ
àª¤ àªªàª¨
àªµ àªľàªµ
àªµ àª£àª¸
àªµ àªļàª¨àª®
àª¯ àªĹàª°
àª¯ àªªàª¨
àª¯ àª¦àª¨
àª¯ àªľàª®
àªķ àª¢
àªķ àª£àª¨
àªķ àª¥àª¨
àªķ àª¬àª¦
àªķ àª£àªķ
àª¿ à«ĭ
à«ģ ",
àª² àªĵ
àª² àª®àª£
àª² àª¢
àª¾àªĤ /
Ġàªª àª¸àª¨
Ġàªķ àª£àªķ
àª¸ àªķàª²
àª¸ àª²àª°
àª¸ àª°àª£àª®
àª¸ àª¹àªľ
àª¸ àªıàª®àªıàª²
ĠàªĨ àªŁàªķ
ĠàªĨ àª¯àª²
ĠàªĨ àªĪàª®
ĠàªĨ àª²àª®àªª
Ġàª¤ àªĵ
Ġàª¤ àª²àª¨
Ġàª® àª²àª®
Ġàªľ àªĹàª®
Ġàªľ àª¸àªª
Ġàªľ àªľàª®
àªĹ àªĩ
àªĹ àªĪ
àªĹ àªĲàª¤
àªĹ àªĽàªŁ
Ġàªħ àªĹàª²
Ġàªħ àªļàª¨
àªŁ àª£àªµ
àªŁ àªĿàª¨
àªľ àªĿ
àªľ àªªàª®
àªľ àª¸àªµ
àªľ àª¦àª°àª¨
àªª àªĿ
àªª àªªàª°
àªª àªŁàª®
àªª àªķàª®
àªª àª¦àª®
àªª àª²àªµ
àªª àª²àª¸
Ġàªµ àªµàª¸
Ġàªµ àª¨àªķ
àª¥ àª¦
àª¦ àª²àª¨
àª¦ àª£àª¨
à«ĩ. ;
àª¡ àª¦àª°
àª¡ àªªàª£
àª¡ àª¯àª¨àª¨
àª¶ àª°àªª
àª¶ àª¹àª°
à«ģàªĤ ",
Ġàª¹ àª«
Ġàª¹ àª¡àªķ
Ġàª¹ àª¬àª¸
Ġàª¹ àª°àªķàª¤
àª¹ àª°àª¸
àª¹ àª®àª¤
àª¹ àª¸àªķàª¥
Ġàªħàª¨ àª¬
Ġàªħàª¨ àª«
Ġàªħàª¨ àªµàª°
Ġàªħàª¨ àª¹àª¦
ĠàªĹ àª¦àª°
àª§ àª§
Ġàª¦ àªĩàªı
Ġàª¨ àª¸àª¨
Ġàª¨ àªķàª¸
Ġàª¨ àª¸àªķ
Ġàª¨ àªŁàªĸ
àªļ àª¦
àªļ àª¹
àªļ àª³àªµ
àªļ àª¡àªµ
àªļ àªĹàªµ
Ġàªı àª¦
Ġàªı àªĩ
Ġàªı àª¯àª°
Ġàªı àª²àª®
ĠàªŃ àªľàª¨àª®
Ġàªķàª° àªļ
Ġàª¶ àªĸ
Ġàª¶ àª°àª¤àª®
Ġàª¶ àª¯àª¦
Ġàª¶ àª²àªŃ
àªĸ àªµàª¨
àª¬ àªļàª¤
àª· àª¯àª¸
àª· àªŃàª°
àª· àªªàª²àªŁ
Ġàª² àªŁ
Ġàª² àª°àªķ
Ġàª² àªī
Ġàª² àªµàª²
Ġàª² àª®àª£
Ġàª² àªļàªķ
Ġàª² àª¥àª¡
Ġàªĸ àª°àª¤
àªĵ àª¹
àªĵ àªĵàª¨
àª°àª¤ àªªàª£
àªŃ àªļ
àªŃ àª°àª£
àªŃ àª°àªµ
àªŃ àª¡àªķ
Ġàªıàªķ àªª
Ġàªªàª° àª²
Ġàªªàª° àª¬àª§
àªĪ àªĪ
àªĪ àª®àª®
àªĪ àªŃàª°
àªĪ àªĿàª®
àªı àª°àª¨
àªı àª¡àªµ
àªı àª¨àª²
Ġàªķàª°àªµ àª¨
àª°àª® àªļ
àª°àª® àª¸àª°
àª¾, ,
àª°àª¨ àªĹàª°àª¨
Ġàª« àªľ
Ġàª« àª£
Ġàª« àª°àªķàª¤
àª°àª£ àª¦
àª°àª£ àª¯àªķàª¥
Ġàª§ àªĹàª§
Ġàª¸àª® àª¡
ĠàªŁ àªķàªµ
àªµàª¸ àª¨àª®
àªµàª¸ àªŃàª°
Ġàª¯ àª°àª¨
Ġàª¯ àª¶àª¸
Ġàª¯ àª¶àªª
àª²àª¨ àª¶
àª°àªķ àªµ
àªķàª¨ àª¶
àªķàª¨ àªĹàª°
Ġàªĵ àª²àª°
Ġàªĵ àª¢àªµ
àªĺ àªļ
àªĺ àª¡àª¤
àªĿ àª£
àªĿ àªĸ
àªĿ àªĺàª¡
àªĿ àªķàª¯
àª§àª¨ àªŃ
Ġàªīàªª àªľàª¨
àªł àª²àª°
àªł àª²àªª
àªĨ àªµàª°
àªĨ àªĵàª¨
àªĨ àªħ
àªĨ àªłàª®
àªī àªªàª²
Ġàª¤àª° àª²àª¤
àªŁàª² àªµ
àªµàª² àªľ
à«ģàªĤ. âĢĻ
Ġàª°àª¹ àªµ
Ġàªĩ àªı
Ġàªĩ àª¤àª°
Ġàªĩ àªŁàª°
àªĹàª° àª¹
ĠàªĨàªª àª¸àª®
àª°àªµ àªļàª²
Ġt ou
Ġt arg
Ġt alk
àª¯àª® àªı
àªµàª¤ àª¥
àªķàª° àªŃ
à«ĢàªĤ ;
àªľàª¨ àª¯
àªľàª¨ àªĹàª°
Ġa hi
àªªàª° àªĹ
he ast
àª¦àª° àªµàª¨
in f
in ary
in dust
in cess
àª°àª¸ àª«
àªľàªķ àªµ
Ġàªªàª¹ àª²àªµ
àªħ àªµàª¤
àªħ àª²àª®
àªħ àª²àªµ
re al
àª¸àª° àª¬
àª·àª£ àªª
Ġthe ore
àª¬àª° àª¦
àªĩàª¨ àªķ
Ġo cean
er f
àª¸àª® àª²
àª¸àª® àªĺàª¨
àª¡àª¨ àªµ
àª¡àª¨ àª¹
àª¡àª¨ àª¬
ĠàªªàªĽ àª¡
àªĹàª² àª¸
àªĹàª² àª¦
àªĹàª² àªĸ
Ġàªıàª¨ àªĹ
Ġàªıàª¨ àªª
ĠàªĿ àª³
ĠàªĿ àª°àª¤
ĠàªĿ àª¡àªªàª®
nd s
ĠàªĨàª° àªıàª¸àªı
àª®àª¤ àª¤
on ym
Ġàª¨àªµ àª¥
Ġàª¨àªµ àªļ
Ġs ake
Ġs plit
ĠàªĬ àª®
ĠàªĬ àª¹
ĠàªĬ àª¨àª¨
at us
àª¡àªµ àª¦àª°
is l
àª¯àª° àª¬
àªŀ àªª
Ġàª¬àª¹ àª®
àª¨àª® àª¯
an ish
en ge
àª®àªķ àª£
Ġàªĩàª¨ àªµ
Ġàªĩàª¨ àª«
Ġc od
Ġc red
Ġc up
Ġc arn
Ġc eratops
Ġàª¤àª® àª¸
al ter
ed al
Ġàª¸àª¹ àª¤
Ġàª¸àª¹ àª°àª¸
Ġàªħàª¸ àª¤àª¤
àª¨àªµ àª¹
it is
it ual
it als
it ution
Ġàªľàª¨ àªķàª²
Ġw id
Ġw ond
Ġw ood
Ġàªĵàª³àªĸ àª®
Ġf if
Ġf ace
ĠàªĹàª£ àªĹàª£
àª¤àªķ àª°àª£
or a
Ġb od
Ġb ag
Ġb ath
Ġb anned
Ġm is
Ġm ale
Ġàª²àªĹ àª¡
Ġp it
Ġp ist
Ġp ortal
Ġàªıàª® àªıàª²
Ġàªıàª® àªĨàª°àªŁ
àªıàª¸ àªĨàªĩ
àªķàªµ àªļàª¨
àª¹àª¨ àª¸
àªĩàªŁ àª¨àª¨
àªľàªµ àª£
àª°àª¬ àª¹
Ġàªķàª® àª°àª¨
Ġàªķàª® àª²àªª
Ġàª¸àª¦ àªŃ
Ġ. :
ou nced
àªķàª® àªĹàª¢
Ġ3 25
à«Ń à«¦à«¦
àª¡àª° àª¥
Ġàªħàªµ àªĹ
Ġàªħàªµ àª¯àªµàª¨
àª²àª¬ àª§
Ġd ig
Ġd oses
àª®àª² àªľ
Ġàªħàªª àªµàª°
ing ly
om a
ĠàªĨàª¨ àª°
Ġà«§à«¦ à««à«¦
ĠàªĨàª® àª¦àª°
le g
Ġàªıàª² àªķ
Ġàªıàª² àª®àª¨
àª¬àª² àª°
àªŃàªĹ àªµàª¤
Ġà«© à«ªà««
àªķàª³ àªª
Ġàª°àª¸ àªµ
Ġh all
Ġh oly
Ġh arv
Ġh ospital
àª¯àª² àª°
àª¯àª² àª¸
Ġàªıàª¸ àªıàª¸àªª
àª¨àª¸ àª«
àªªàªķ àª¥
ĠI N
Ġà«§à«® à«§à«¨
Ġà«§à«® à«§à«¬
Ġà«§à«® à«¨à«¯
Ġà«§à«® à«©à«©
Ġà«§à«® à«ªà«®
ĠàªĪàª¨ àª°
Ġ4 40
àªŁàª£ àª¥
àª¶àªķ àªķ
àª¶àªķ àªĹàª£
et ween
Ġà«ª à«¨à«¦
Ġà«ª à«®à«¦
Ġàªķàªµ àªļàª¨
Ġàª¸àªĹàªµàª¡ àªŃàª°
Ġ18 4
Ġ18 28
Ġ18 22
Ġ18 36
Ġ18 47
Ġ18 39
Ġ18 21
Ġ18 46
Ġà«® à««à«¦
ur d
ĠA v
ĠA st
ĠT or
ĠT od
ĠT ime
ĠT LS
Ġàªħàª¸àª° àª°
Ġe igh
Ġe rect
ĠS n
ĠS ir
ĠS FTP
ĠS ystem
ĠS accharum
ĠS YN
st ar
àªķàªª àª¡àªµ
Ġ20 7
Ġ20 8
àª³àªķ àª¥
Ġl ists
Ġl ibrary
ct ive
àª·àªķ àª¦
ĠàªĨàª² àªĹ
Ġàª¨àªĹàª° àª¸
Ġth ick
Ġth riving
Ġn erv
Ġn aked
àªĩàª² àªŁ
àªıàª® àªıàª«
àªıàª® àª¡àª¬àª²
19 2
19 40
19 39
19 03
19 46
19 08
Ġ7 000
Ġ7 70
Ġà«¨à«¦ à««
àªķàªŁ àªµàª°
Ġàªł àª¸
Ġàªł àªĹ
Ġàªł àª°àªµ
àª¨àª² àª¶
àªĩàª¡ àª²
àªĩàª¡ àª¸
àª¯àª£ àªª
ve c
Ġàªīàªļ àªķ
ro vers
Ġà«§à«ª à«®
Ġà«§à«ª à«§
àª®àªĹ àªľàª¨
am es
ĠC our
ĠC ope
ĠC ivil
ĠC alc
ĠC urrent
ĠC erf
ĠB od
Ġàª®àª¤ àªªàª¤
im edia
àª¹àª° àªĹàª¢
ce ment
ĠM on
ĠM en
ĠM il
ĠM art
ĠM ont
ĠM ani
ĠM icrosoft
Ġàª¬àª° àªĽàªŁ
ot eric
id n
id ity
Ġbe ings
Ġàªľàª¯ àªŃ
à«ĭ: '
os ion
ĠP ol
ĠP eter
od on
àªªàª² àªª
Ġ8 65
Ġàª¸àª¨ àª¶
ut ney
Ġàª¸àª®àªľ àª£àª®
Ġ10 23
à¤° à¤¯
Ġàª°àª®àª¤ àª¥
Ġas ked
Ġà«¨à«¦à«§à« ¯
ir st
àªĸàª¨ àª¥
Ġg all
Ġg one
Ġàªĵàª° àªĽ
Ġ15 9
Ġ15 26
Ġ15 99
Ġ15 59
Ġ15 56
àª£àªķ àªķ
àªĨàªĩ àªĿ
ĠàªĲ àª¯
ĠàªĲ àª¹
Ġ9 11
Ġàªĭ àªĹàªµ
àªĪàª² àª§
Ġ16 30
Ġ16 39
Ġ16 23
Ġ16 66
Ġ16 69
Ġ16 04
ist ed
ist em
ĠThe oph
ĠG h
ĠG ur
ĠG overn
ĠG ram
ĠG mail
Ġ17 40
Ġ17 26
Ġ17 32
Ġ17 77
Ġ17 65
Ġ17 91
Ġ17 81
her ical
àªľàª¸ àª®àª¨
àªĩàª¸ àª¬
ow ed
Ġfor th
el a
el ur
àªŁàª¨àª¨ àª¨
ĠN A
ĠN i
ĠN on
ĠN ic
ĠN KC
Ġst or
Ġst one
Ġst reams
Ġst yles
ĠàªīàªŃ àª¯
Ġàª¨àªµàª² àªĸ
à¤¿ ,
Ġàªľàª³ àªĹ
Ġà«§à«« à«®
Ġà«§à«« à«©
Ġà«§à«« à«©à««
ĠR C
ĠR an
ĠR ed
ĠR os
ĠR ule
ĠK as
ĠK am
ĠK ajol
un ity
Ġan na
Ġan kyl
ac he
ĠD h
ĠD uck
ĠD anny
Ġk n
um n
um p
um ents
um ati
est iv
Ġàªį àª°àªķ
ag em
ag ore
àªµàªļ àª¨àª¨
Ġàª¸àª« àª²àª¤
ĠàªĨàªł àª¥
àªĩàªĿ àª¡
Ġcon vent
àªŁàª¸ àª¨àª¨
th i
Ġà«§à«¬ à«¬
Ġà«§à«¬ à«ª
Ġà«§à«¬ à«Ńà«ª
ĠInd ust
Ġà«§à«Ń à«Ń
Ġà«§à«Ń à«¯à«¬
Ġà«§à«Ń à«Ńà«¨
Ġà«§à«Ń à««à«©
ian a
àªµàª°àª¨ àªĹàª°
ĠL y
ĠL ax
ĠL ibrary
ĠL td
ĠE S
ĠE ll
Ġv ess
àªĹàª³ àª¸
Ġfilm ing
Ġor al
àª¦àª¶ àª¹àª°
Ġàªıàª« àªŁ
Ġàªıàª« àªĨàªĩàªı
Ġàªıàª« àªĨàªĩàªĨàª°
and er
à¤¨ à¤®
Ġ14 30
Ġàªĵàª² àªĸ
àª¤àª² àª¸àª°
Ġha ir
Ġex pos
Ġex ternal
ĠU TC
Ġ13 9
Ġcom ing
àª³àªŃ àªĹàª¤
Ġàª°àª¦ àª¬
àªıàªļ àªŁ
ĠW ik
ĠW ind
ĠO m
ĠO ver
se c
ĠV ed
18 67
ant ial
art icle
Ġ50 9
àª®àª§ àª°àª¬
ĠàªĺàªŁàªķ àª®
osaur ian
Ġhe ct
Ġ25 4
pl ified
ang am
ous in
Ġàª¸àª°àª¸ àªµ
Ġàª¸àª°àª¸ àª£
Ġnot ed
àªľàª² àª¸àª¨
Ġ0 3
ĠJ ains
à«¨à«¦ à«§à«©
Ġàªªàªķàª¡ àª¤
The y
Ġ23 2
Ġàª§àª¨ àª¶
12 3
Ġ21 5
ap or
Ġus age
à¥ģ à¤Ĥ
Ġàªµàª¯ àªľ
Ġsh aped
ĠIn v
16 6
16 67
àª¸àªŃ àªķ
Ġàª¦àª¶ àª°àª¥
Ġ24 1
gr icult
à«Ģ' ;
ans a
Ġch ann
Ġch arg
Ġàª¨àªľàª° àª¬
17 77
17 91
àªķàª²àª¨ àª¬
Ġle af
Ġà«¨à«¨ à«¬
Ġà«¨à«¨ à«§
ine ering
ĠàªĨàªĪ àª¸àª²
Ġcont rovers
Ġar m
Ġar ri
ell ed
Ġim pos
Ġun it
up hem
Ġà¤¹ à¤®
Ġà«¨à«¬ à«¨
à«§à«¦ à«¬
ĠàªŃàª£ àª¶
', '
Ġ185 1
Ġà¤ª à¤¦
ult ural
ass ad
ass eri
à° ¯
à° µ
Ġàª¹àª³ àª¦àª°àª®
Ġpart ition
Ġà«¨à«Ń à«©
Ġà¤® à¤¹
ĠàªĶàª· àª§àª¨
Ġàªªàªµàª¨ àª¥
Ġ28 5
ah ar
Ġàªĸàª¬àª° àª¦
act s
26 4
Ġàª®àª¥ àªķàª®
Ġsp oken
ost s
àªĩàªŁàª² àª®
à«ĭâĢĻ âĢĻ
Ġàª¤àª¦ àªīàªªàª°
Ġà«¦ à«©
à«ĩ? ,
Ġro ot
ĠAs if
ĠAs ha
Ġform ally
Ġà«©à«« à«ª
Ġ75 9
ĠSt ud
Ġfir m
na issance
Ġrel at
Ġrel ation
Ġfound ation
ĠIt s
Ġpr ime
Ġpr ince
Ġpr inted
Ġpr ison
àªıàª¸àªıàª® àªıàª¸
Ġcol d
Ġam b
Ġqu ite
àª°àªł àª¥
ĠÎ ´
Ġoff ering
Ġpe ace
38 6
Ġ? âĢĻ
Ġ? âĢĻ,
Ġpre y
Ġpre val
Ġpre ferred
man n
Ġtrans port
ĠàªĨàªµàª°àª£ àªµ
Ġwe e
Ġent r
Ġà¦ ®
Ġcomp any
àª®àª¤àª¨àªĹàª° àª¥
Ġnew er
àªīàª® àª°àªķ
Ġac qu
Ġen joy
à«§à«¯à«® à«ª
Ġà¤Ń à¤Ł
Ġà¤Ń à¤°à¤¤
ĠBh rig
ĠBh osle
àªļàª³ àªķàª¤
Ġcall s
Ġem ph
Ġindust rial
Ġdec ision
àªĹàª« àª¯
Ġcre ation
Ġman if
Ġà¤Ĩ à¤°
ract s
ĠAr ch
Ġdirect or
Ġatt ack
Ġru f
err ing
Ġvar ies
Ġapp ointed
Ġend other
Ġname ly
Ġcult ural
Ġsmall est
co hol
Ġà¥ ¨
Ġà¥ ©
àªį àªķ
àªį àª«
àªħàª®àª° àªª
Ġcontin ue
à«§à«¯à«¬ à«ª
Ġinst rum
ĠAf ghanistan
ĠÏ Ĩ
à«§à«¯à«« à«©
Ġfollow s
ĠPro du
Ġmed ium
àª¨àªµàª² àªĹ
Ġàª¡àªĿàª¨ àª¥
Ġplay er
Ġmet re
udd en
Ġocc urs
Ġwork ed
omin ations
ĠOr nith
ĠQ OT
à«§à«¯à«¨ à««
Ġfamil ies
Ġele v
Ġprov ince
Ġàª°àªĿ àª³àªª
àª«àª°àª¸ àª¨àª¨
Ġgo al
Ġgo ing
Ġlead s
Ġclass ic
Ġprom oting
Ġpass ed
ĠTr adition
ĠØ ¹
ĠIs rael
Ġhum ans
ĠSc reen
Ġdescrib e
Ġdescrib es
Ġtown s
Ġresult ed
Ġdef ined
à±ģ .
ĠàªĨàªĿàª® àªĹàª¢àª¨
ĠRe c
à«§à«¯à«§à« §
Ġhead ed
ĠIS P
Ġarch osaurs
Ġdel iver
Ġàª®àª« àª¤àª¨
àª°àª¬àª¦ àª²àª¨
Ġdra ft
Ġvis ual
Ġappro ach
ĠàªīàªĽàª³ àª¤
Ġsun light
Ġadv ances
Ġpresent ed
Ġfar mers
Ġbas al
Ġbas ic
Ġstat istics
Ġstar red
Ġexpl ain
Ġancest or
ĠMuslim s
Ġpat tern
ĠNe ar
Ġlim ited
Ġmin ority
Ġphys ically
Ġphot osphere
àªıàªıàª® àªĪàªıàª²
Ġprote ction
Ġtemper atures
Ġcele brit
Î¯ Î¶Ïī
ĠàªĨàªĩàªıàª¸ àªĵ
ĠFr anc
Ġfund s
Ġden y
Ġreflect ing
Ad dress
tt es
Ġconsum ption
Ġident ified
cont inent
ĠIR àª¨
Ġàª¦àª²àªªàª¤ àªŃ
rac y
Ġhapp en
bl og
Ġcle ar
Ġcle arly
Ġinit ial
Ġinit ially
Ġexper im
Ġclaim ed
Ġviol ent
Ġviol ence
ĠSS L
ĠBo yle
Ġpotential ity
bre eding
Ġcat ch
ĠSat y
Ġconc ern
Ġconc lud
Ġspecim ens
ĠExpress way
Ġteach ings
rel ated
Ġwant ed
Ġdest royed
Ġcompet ition
Ġunderstand ing
Ġrare ly
Ġmonth s
Ġàªħàª¯àª¨ àªķ
Ġàª¦àª¶àª° àª¥àª¨
Ġàªĺàª¡àª¤ àª°àª®
Ġpie ce
ĠTibet an
ĠSal ai
Ġbroad cast
Ġherbiv ores
Ġbeg inning
Ġconcept s
ĠLa ud
Ġsequ ences
Ġprevious ly
Ġobt ained
ĠBel g
Ġstru ggle
ĠRoy al
Ġconn ected
Ġflu ids
ĠIslam ic
Ġtwent ieth
Ġsens itive
Ġàªıàª¸àªıàª² àªıàª®
ĠNep al
Ġquant ity
Ġterrit ories
Ġoppos ite
Ġemerg ence
Ġpig ment
opt ers
unic ipal
Ġlearn ing
Ġmeas ure
Ġnewsp apers
á¹ĥ sÄģ
Ġslow ly
Award Best
rast us
Ġàª®àª¦àª® àª¹
Ġcook ed
Ġchem ical
Ġmess age
Ġrout e
Ġoccup ied
Ġgeograph ical
ĠÎ²Î±ÏĢÏĦ Î¯Î¶Ïī
dition ally
Ġfav our
Ġnom ine
Ġnuc le
Ġexte nded
ĠBhag av
ĠMahat ma
ĠBi har
ĠDA RP
Ġhelic opters
Ġchampions àª¢
Ġmonaster y
Ġpredic ted
Ġphotorecept or
Ġàª¤àªĺàª² àªĸ
Ġsovere ign
Ġrecom mend
Ġexcell ent
ĠVish nu
ĠMahar aja
ĠâĤ¨ .
Ġbackd rop
ĠBeg um
Ġcigare ttes
Ġtherm al
Ġcas ual
Ġcroc od
Ġwors hip
Ġcompan ies
Ġacknow led
Urs us
loy d
Ġàª¨àªŁàªĸ àªŁ
Ġahi á¹ĥsÄģ
Ġeigh th
ĠMart in
ĠTheoph rastus
ĠQOT D
Ġcelebrit ies
" ;
% âĢ¢
, -
0 33
2 10
2 20
2 15
2 32
3 25
4 20
6 48
8 50
A B
A b
A v
A ust
B ooks
C C
D A
F rom
G olden
H istor
I S
I m
L V
O ther
O xford
P re
R N
S C
S ub
T rans
W ikipedia
W hile
a fter
b c
c y
e h
g u
g ent
h il
h om
h ru
i ol
i pt
i ations
i ples
k ilom
l on
l ong
m atic
n ing
n ickel
o ved
p y
p in
p ro
p and
p hi
r ate
r ical
r ho
s k
s y
s àª¢
s et
t im
t xt
t ons
w ord
y ar
y clop
} \
¿ ¥
Â ½
Ã ±
Ã ī
Ã ł
Ä ĵ
Å ĭ
Ñ ĸ
à ¯
æ ĸ
è ¯
Ġ ×
Ġ ign
ħ gÄ«
àª ½
à« Ħ
àª¾ =
àª¾ âĢĵ
àª¾ âĢľ
à«ĩ àªģ
àª° àªľàª°
àª° àª¯àª®
àª° àªħàª¨
àª¨ àª¯àªµ
àª¨ àªŃàª¦
à«Ģ âĢĶ
àª® àª¯àª¤
àª® àªĨ
àª® àªī
àª¤ àªĿ
àª¤ àª¹àª°
àª¤ àªŃàª°àª®
àªµ àªĸ
àªµ àª¯àª®
àªµ àª¡àªķ
àªµ àªªàª¦
àªµ àª¹àª¸
à«ĭ à«į
à«ĭ à«¤
à«ĭ âĢĶ
à«ĭ ).
àª¯ àª¡àª¨
àª¯ àª¡àª°
àª¯ àª¬àª²
àª¯ àª¬àªľ
àª¯ àª¶àªµ
àª¯ àª§àª£
àªķ àªªàª¤
àªķ àª¶àªķ
àª¿ àª¼
àª¿ à«¢
àª² àªµàª¸
àª² àªĹàª°
àª² àªļàª¨
àª² àªĸàªµ
àª² àªļàª°
àª² àª§àª°
àª² àªŃàªµ
àª¾àªĤ âĢĿ
Ġàªª àª¬àª®
Ġàªª àªµàª¨àª®
Ġàª¸ àª®àª®
Ġàª¸ àªķàª¨
Ġàªķ àªŁàª¨
Ġàªķ àª¸àª°
Ġàªķ àª³àª¨
Ġàªķ àªļàªµ
àª¸ àªĿ
àª¸ àªŁàª¸
àª¸ àª«àª³àª¤
àª¸ àªıàªŁàª²
ĠàªĨ àª¨àª¨
ĠàªĨ àª®àª£
ĠàªĨ àªĹàª¤
ĠàªĨ àªĪàªķ
Ġàª¤ àª¡àªµ
Ġàª¤ àª¹àª¸
Ġàª¤ àªĸàª¤àªª
Ġàª® àª¦àª°
Ġàª® àª²àªª
Ġàª® àªĬ
Ġàª® àª¡àªĹ
Ġàªľ àªĿ
Ġàªľ àª£àª¨
Ġàªľ àª¯àªµ
Ġàªľ àª¡àªª
Ġàªľ àªĸàª¨
ĠàªĽ àªªàª°
àªĹ àª¶àª¨
àªĹ àªĪàª¨
àªĹ àª³àª¤
àªĹ àªĵàªµàª°
Ġàªħ àªľàª°
Ġàªħ àªĸàª¤
Ġàªħ àªķàª¤
Ġàªħ àª¡àªķ
Ġàªħ àª«àª°
àªŁ àªĩ
àªŁ àª¯àª®
àªŁ àªķàª¸
àªŁ àª®àª°
àªŁ àªªàª²
àªŁ àªĵàª«
àªľ àªı
àªª àªı
àªª àªŁàª²
àªª àª²àªķ
àªª àªļàª°
àªª àª§àª°
àªª àª¸àªµ
àª£ àª¦àª°
àª£ àªĹàª¢
Ġàªµ àª®àª¨
àª¥ àª®àª¨
àª¥ àª®àª®
àª¥ àªķàª°
àª¥ àªĽàªŁ
àª¦ àªŁ
àª¦ àª¯àªª
àª¦ àªµàªķ
àª¡ àª°àª¤
àª¡ àªµàª¤
àª¡ àªħàª¨
àª¶ àªµàª²
àª¶ àªŃàª°
à«ģàªĤ )
Ġàª¹ àªĸ
Ġàª¹ àª¬àª²
Ġàª¹ àª¡àª«
Ġàª¹ àªķàª²àª¬
àª¹ àª°àªª
àª¹ àª¡àª¸àª¨
àª¹ àªķàª²àªķ
ĠàªĹ àª®àª¶
ĠàªĹ àª¡àªĹ
àª§ àªĩ
àª§ àªĪ
àª§ àªµàª¸
àª§ àª£àª®
Ġàª° àª¡àª¤
Ġàª¦ àª¦
Ġàª¦ àª²àªµ
Ġàª¦ àª®àª¯
Ġàª¬ àªĹàªµ
Ġàª¬ àªļàªķ
Ġàª¬ àªķàª°àª¨
Ġàª¬ àª°àªķàª°
Ġàª¬ àªŁàª²àª°àª¨
ĠàªĨàªµ àª°àªµ
à«Ĥ /
à«Ĥ âĢĿ
àª³ àª¯
àªļ àªı
àªļ àªķàª°
àªļ àª°àªª
Ġàªı àªªàª°
Ġàªı àªĩàªŁ
Ġàªı àªĨàªĩ
Ġàªı àªĨàªĩàªı
ĠàªŃ àªªàªķ
ĠàªŃ àª£àªķ
Ġàª¶ àªŁ
Ġàª¶ àª£
Ġàª¶ àª¦
Ġàª¶ àª«àª²
àª¬ àªµàª¤
àª¬ àªķàª°
àª¬ àª¦àª°
àª¬ àª°àª¸
àª¬ àª¥àª¨
àª¬ àª¡àª¤
àª· àª¹
àª· àªķàª°
Ġàª² àª¤àª¨
Ġàªĸ àª³
Ġàªĸ àªµàª°
Ġàªĸ àªŁàª°
Ġàªĸ àª¸àªµ
àªĵ àª¶àª¨
àªĵ àª°àªµ
àª°àª¤ àª¬
àªŃ àª°àªķ
Ġàª¥ àª²
Ġàª¥ àªľ
Ġàª¥ àª°àª®àª¨
Ġàªıàªķ àª°àª¸
à«Ģ, "
àªĩ àªľàª¨
àªĩ àªĨàª¨
Ġàªªàª° àª¬àª¡
Ġà« Ĳ
àª« àª«
àª« àª¨àª¨
àª« àªķàª¤
Ġàªļ àªļ
Ġàªļ àªĸ
Ġàªļ àªķàª¡
àªĪ àª¯àª¨
àªĪ àªıàª¸
àªĪ àª¬àª¹
àªı àª¦
àªı àªĩàª¨
àª¾, "
àª¯àª¤ àªª
àª°àª¨ àªŁ
àª°àª¨ àªĹàª°àª®
Ġàª« àª¡
àª¶àª¨ àªµ
àª°àª£ àª¶
à«ĩ, '
Ġàª§ àªµàª¨
Ġàª§ àªŁàª¨
Ġàª§ àªªàª¤
Ġàª§ àª¨àª°
Ġàª¸àª® àª¥àª³
Ġàª¸àª® àªµàª¶
àªĹàª® àª¤àª®
Ġàªªàª£ àªľ
Ġàªĺ àª¨àª®
Ġàª¯ àª¸
àª²àª¨ àªľ
àª°àªķ àª¶àª¨
Ġàªĵ àª°àª®
Ġàªĵ àªµàª¨
Ġàªĵ àª¬àª°
Ġàªĵ àª³àªķ
àªĽ àª¯
àªĽ àª£
àªĽ àª¥
àªĽ àª°àª¦
àªĽ àªķàªŁ
àªĺ àªµàª¨
àªĿ àªı
àªĿ àªķàª°
àª§àª¨ àªªàª¤
àª¤àª® àª¹
Ġàªīàªª àª²àªķ
àªł àªª
àªł àª¥
àª¤àª° àª¸àª°àªķ
Ġàªµàª° àª²
Ġàªµàª° àªľ
àªĨ àª³
àªĨ àªı
àªĨ àªķàª°
àªĨ àª²àªķ
àªĨ àª¯àª°àª²
àªĨ àªĹàª³àª¨
àªĨ àª²àª®àªª
àªī àª²àª¨
àªī àª¤àª°
àªī àªŁàª¨
àªī àªªàª¨
àªī àª¡àª¸
àªī àªªàªľ
àªµàª° àªĹ
àª¿àªĤ ,
Ġàª¤àª° àªĽ
Ġàª®àª¹ àªµ
àª£àªµ àª£
Ġàª¶àªķ àª°
Ġàªĩ àª°àªµ
Ġàªĩ àªķàª²
àªµàª¨ àªŃ
àªµàª¨ àª¦àª°
àªµàª¨ àª¸àª¨àª¨
àª°àªµ àªª
àª°àªµ àª¶àª¤
à¤ ĺ
Ġt ro
Ġt ies
Ġt ight
Ġt ough
Ġt ail
Ġt urb
Ġt akes
Ġt anks
àª¯àª® àªª
àª¯àª® àª¶
àªµàª¤ àª¬
àªķàª° àªŁ
Ġ2 12
Ġa ro
àªªàª° àªļàª¨
àª¤àª¨ àª®àª¤
in ew
àª°àª¸ àªľ
àª°àª¸ àª¦àª¨
àªªàª¨ àª¥
àª¦àª¨ àªªàª¤
àªľàªķ àª®
àª¢ àª²
àªħ àª¢
àªħ àª¨àª®
àªħ àªµàª¶
re es
ĠàªĪ àªµàª¨
ĠàªĪ àªıàª¡
àª¸àª° àª§
Ġàª¶àª° àª®àª¨
Ġàª¶àª° àª¬àª¤
àªĩàª¨ àª¯
àªĩàª¨ àªŁ
er g
er ala
àªĹàª² àªªàª¨
Ġàªıàª¨ àª¯
Ġàªıàª¨ àªıàª¸àªıàª¸
àªķàª² àª¸
Ġà«§à«¯à« ¯
Ġà«¨ à«§à««
Ġà«¨ à«§à«¨
Ġà«¨ à«¯à«Ń
Ġàª¸àª®àª¯ àªªàª¤
ĠàªĨàª° àªıàª¸
ĠàªĨàª° àªĨàªĩàªıàªı
on ia
on line
Ġs we
Ġs ibl
Ġs udden
ĠàªĬ àªªàªľ
àªĹàª¤ àªªàª£
is aur
is ource
àª°àª¹ àª¯
àª°àª¹ àª®àª®
àª°àª¥àª® àª¥
àª¯àª° àªª
àªŀ àªµàª²
Ġàªīàª¦ àª¯àªĹ
Ġàªīàª¦ àª¯àª®àª¤
en n
en ior
àª®àªķ àªķ
Ġàªĩàª¨ àª¹
Ġàªĩàª¨ àªķàª®
Ġc a
Ġc il
Ġc ured
Ġc uis
al pur
Ġàª®àªĹ àª§àª¨
Ġàª®àªĹ àª°àª®àªļ
ed u
ed ies
ar ant
ar ry
it u
it tle
it zer
Ġàªľàª¨ àª¹
à«ģàªĤ, "
à¥ «
Ġàªĵàª³àªĸ àª¯
Ġf ame
Ġf ulf
ĠàªĹàª£ àª¶
à«¨ à««à«¦
or ious
àªªàª£ àª°
àªªàª£ àªĸ
Ġb al
Ġb le
Ġb ot
Ġb ad
Ġb ore
Ġb und
Ġb oot
Ġb rief
Ġm and
Ġm ap
Ġm ath
Ġm inted
Ġm uc
Ġm ixed
Ġm akers
Ġp ul
Ġp ter
Ġp ice
Ġp ark
Ġp aper
Ġàªıàª® àªıàª®àª¨
àªıàª¸ àªµ
àªıàª¸ àªĵ
àªıàª¸ àªıàª®àª¨
Ġàª«àª° àªĹ
àªķàª¡ àªª
àªĩàªŁ àªı
àª°àª¬ àªķ
ic ism
ĠàªĵàªĽ àªª
ou red
àªķàª® àª¯
àªķàª® àª²àªª
Ġ3 20
Ġ3 11
Ġ3 80
Ġ3 35
Ġ3 31
Ġàª²àªĸ àª§
àª¸àªķ àªµàª°
il ing
àª¡àª° àª¶
àª¡àª° àª¬àª°
as p
as aur
àª²àª¬ àª¦
Ġd al
Ġd ut
Ġd ri
Ġd og
Ġd ual
Ġd ied
ion ic
àªķàª°àª£ àªµ
àª®àª² àªĩ
Ġàªħàªª àªļ
Ġàªĸàª° àªĸàª°
Ġàª®àª¨ àªļ
àªĸàª° àª¥
Ġàª®àª¦ àª¦àª®
àªĵàªı àª¨
àª²àªµ àª®
le ction
le anup
Ġàªªàª¸ àªµ
Ġàªıàª² àªıàª¨àªľ
Ġàªªàªķ àªµàª¤
Ġà«© à«ªà«¦
Ġàªªàª¤ àª²
àªķàª³ àª®
Ġàª°àªľ àª¤àªļ
Ġh ip
Ġh ired
Ġh ole
Ġh alls
àª¯àª² àª¯
àª°àªľ àª¹
àª¨àª¸ àªŁ
ĠI M
ĠI m
ĠI àª¨
ĠI nt
ĠI TF
ĠI mm
àª²àªķ àª¦àª³àª¨
àª¯àªª àªŁ
àª¯àªª àª¦àª®
ĠàªĺàªŁ àª¯
Ġà«§à«® à«©à««
Ġà«§à«® à«ªà«§
Ġà«« à«§à«ª
Ġà«« à«ªà««
ĠàªĪàª¨ àª¹
àªļàªµ àª¡
àªļàªµ àª£àª®
Ġ4 15
et an
Ġàªķàªµ àª°àª¨
Ġ18 17
Ġ18 30
Ġ18 13
Ġ18 26
Ġà«® à«¯à«¦
ĠA ra
ĠA ud
ĠT rib
ĠT iger
ĠàªľàªĹ àª¹
Ġ5 27
ĠS i
ĠS u
ĠS et
ĠS ab
ĠS out
st ate
Ġ20 2
Ġ20 60
Ġ20 25
Ġl over
àª¤àªµ àª¡
àªµàªķ àªªàª¨
Ġn m
Ġn àª¨
Ġn est
Ġn ight
Ġn one
Ġn atur
Ġn inet
àªıàª® àªĨàªĪ
àª§àªµ àªļàª¨
19 18
19 12
19 75
19 77
19 55
19 49
19 42
19 71
19 04
ĠàªĶ àªļ
Ġà«¨à«¦ à«¨
Ġre nown
Ġre asons
Ġre aches
àª¨àª² àªĹ
ĠĠ ĊĊ
àªĩàª¡ àª°àª¨
àª°àª§ àª°àª¨
Ġàª°àª® àª¶
Ġàª°àª® àªĿ
àª¨àªķ àª¥
àª¯àª£ àª¤
àª¨àªª àª£àª¨
Ġàªīàªļ àªķàªµ
àªĩàªı àª¤
àªĩàªı àª®àªľ
ro d
ro gen
am at
am med
am ples
am chand
ĠC a
ĠC ar
ĠC op
ĠC ath
ĠC ons
ĠB S
ĠB ab
ĠB oth
ĠB esides
àªıàª¨ àªĨàª°
àª¹àª° àª°
us han
àª¸àª² àªŁ
àªĩàª® àª°àª¨
àªľàª¯ àª¶
ĠM ag
ĠM ers
ĠM eth
ĠM uk
ĠM att
ĠM arsh
ot us
ot land
ad d
ad ays
Ġàª¢ àª¸
Ġàª¢ àª³àªµ
os per
ĠP or
ĠP ra
od i
Ġ8 50
Ġàªĳ àªĹ
ut es
ut rin
àª¬àª³ àª¤
Ġàªĩàª¸ àª¸
ch ant
àª¤àªª àª¥
à¤° à¤¦
Ġàª°àª®àª¤ àªĹàª®àª¤àª®
ir an
Ġg ot
Ġg ra
Ġg ain
àªµàª¨àª¨ àª®
Ġ15 80
Ġ15 58
Ġ15 98
Ġ15 92
àªĨàªĩ àªĵ
ĠH ow
ĠH ain
ĠH ost
ĠH itch
10 4
10 8
Ġ16 8
Ġ16 60
Ġ16 13
Ġ16 90
Ġ16 09
ist ical
ist ry
ist ically
ĠG N
ĠG en
ĠG ate
Ġ17 7
Ġ17 10
Ġ17 96
Ġ17 64
Ġ17 92
Ġ17 51
àªłàªµ àª£àª¨
ul um
Ġàª¦àª¸ àª¥
Ġàª¤àªª àªĸ
Ġàª¹àªķ àªķ
Ġal one
Ġal bum
Ġal cohol
Ġfor t
Ġfor ward
el t
el ing
el ine
àª¦àª°àª¤ àªµ
ĠN aw
ĠN aik
ĠN ote
ĠN ee
ĠN anda
ĠN ashik
Ġst er
Ġst rict
ĠàªīàªŃ àª¯àª²
ĠàªīàªŃ àª¯àª¸
Ġà«§à«¨ à«©
Ġà«§à«¨ à«ª
Ġ) )
Ġà«§à«« à«¨
ĠR af
ĠR BC
ĠK ish
ĠK az
ĠK ov
ĠK ansa
àª¼ à«ģ
àª¼ àª¾àªģ
un s
ac cess
àªıàª² àªĵ
àªıàª² àªıàª®
em ic
ĠD uring
Ġàªħàª£ àªĹàª®àª¤
à¤¤ à¤¨
à¤¤ à¤¸
Ġk iss
um an
um es
Ġàªħàª¶ àªķàª¤
ag ong
ag arh
ri an
Ġwh olly
àªĩàªĿ àª¨àª®
Ġcon ne
Ġcon ception
ĠF ate
ĠF ood
ĠF ootball
ĠF irst
Ġà«§à«¬ à«®
Ġà«§à«¬ à«¨à«¦
ĠInd eed
Ġà«§à«Ń à«¨à«¦
Ġà«§à«Ń à«¨à«¨
Ġà«§à«Ń à«Ńà««
Ġà«§à«Ń à««à«Ń
Ġà«§à«Ń à«Ńà«¦
Ġà«§à«Ń à««à«¯
ĠàªĨàª¸ àª¨àª¨
Ġàªĺàª¡ àª¤àª°àª¨
Ġàªķàª¬ àª¡
Ġ12 9
ĠL ok
ĠL ah
ĠL ike
ĠL ake
ĠL ank
ĠL ife
ĠL abor
ĠL loyd
ĠE v
ĠE ven
ĠE mp
Ġv en
Ġv it
Ġv oc
Ġv ast
àªĹàª³ àªª
àªĿàª® àª¬àª°
Ġàªıàª« àªµàª¨
Ġàªıàª« àªıàª«
and on
ak er
ud h
à¦ £
àªĨàª¨ àªĿ
Ġse asons
àª®àª¨àªĹàª° àª¥
Ġ11 11
Ġex clus
Ġr ich
Ġr ational
Ġr anks
Ġr hab
Ġr oles
Ġà«§à«© à«®
ĠU DP
Ġpro s
Ġpro gr
Ġpro hibition
ab olic
Ġ13 1
ment ation
11 2
11 6
àªıàªļ àªĵàª¨
ĠW ater
ĠO bs
oc ene
oc racy
Ġàªħàª« àªĹ
àªĪàªķ àªķàª¯
Ġàª¬àªĹ àª¡àªµ
ĠV en
ĠV icer
ĠàªĨàªļ àª°àª£àª¨
18 89
18 65
18 46
Ġàª¸àª¬ àªŁ
Ġàª¸àª¬ àª¡àªķ
ord ed
Ġhe ated
Ġhe nce
og ene
Ġnot orious
ĠJ a
àª¾âĢĻ -
à¤µ à¤¸
ive red
Ġàªīàªł àª¯
ew hat
Ġ40 5
Ġ22 7
Ġ21 6
ap h
ap at
ap ore
Ġsh r
Ġsh if
ure au
Ġà«¨à«« à«¨
16 4
16 10
16 75
à«§à«® à«§à«Ń
à«§à«® à«®à«¦
à«§à«® à«©à«Ń
à«§à«® à«®à«®
Ġàª¦àª¶ àªĹ
Ġàªħàªµàª¤ àª°àª£àª¨
Ġpl ains
Ġpl ots
14 2
14 9
14 92
àªªàª¸ àª³
ans ol
Ġch ol
Ġch all
Ġch utney
Ġàª¬àª°àª« àª¶
Ġàªļàª¡ àª¯
17 0
17 2
Ġle aving
30 28
Ġà«¨à«¨ à«¨
ip at
à¥¤ à¥¤
ĠàªĨàªĪ àª¬
ĠàªĨàªĪ àª«
Ġcont est
Ġcont ract
Ġcont ained
enc ies
Ġar th
Ġar ts
Ġ27 3
Ġ27 4
ib ha
ĠCh and
ĠCh itt
Ġim agem
Ġun f
Ġun like
Ġun ique
Ġun iverse
are t
ĠĠĠĠ ĠĠ
Ġà«¨à«¬ à«¦
à¤¦ à¤¨
ric ted
ie u
ie val
à«§à«¦ à«¦à«¦
Ġà¤ª à¤¡
ple x
Ġà«§à«§à« ¯
ĠàªĹàª³ àª£
ĠâĢĿ ,
àªµàªĹ àª£àª¨
ff ic
Ġàªªàªµàª¨ àªļ
Ġact ed
Ġà«ªà«¦ à«Ń
Ġàªĸàª¬àª° àªªàª¤
Ġsc hed
Ġsp ot
Ġsp herical
com es
àªĹàª¡àª® àª¥
Ġsome one
ost er
Ġte eth
ĠUn ivers
Ġcl ans
Ġcl osed
dis on
ont o
àªħàªŃ àª¯
à¤§ à¤¨
Ġà¤ħ à¤¥
à¨ ¤
à«ĩ? '
ep ing
Ġne ed
Ġà«Ńà«« à«¦à«¦
48 4
Ġj o
Ġj ournal
ark hand
à«§à«¨ à«¦
àªĭ àªĹ
Ġrec re
Ġrec ip
Ġform al
Ġà¤¨ à¤®
Ġà«¨à«® à«¬
Ġ75 00
ĠX V
àª®àªŃ àªŁ
ĠDe f
ĠSt and
àª¶àª³ àªľ
àª·àªª àªŁàª²
Ġâ ħ
Ġso il
Ġso le
àªıàª¡ àªµàª°
Ġover all
Ġà«©à«¨ à«ª
Ġpr imes
ĠSh anti
Ġcol span
Ġmod els
Ġgr ad
Ġàªħàª¶àªķ àª¯
à¤· à¤£
ĠHe av
ĠHe alth
ne a
à«ĭâĢĿ .
àª¡àªĿ àªµàª°
Ġfl ag
ĠÎ Ľ
Ġdo ing
ĠY b
Ġpre c
Ġpre m
Ġpre p
Ġout er
Ġàªĸàª¡ àªĸàª¡
Ġà¤° à¤ļà¤¨
Ġtrans fer
Ġtrans ferred
Ġàªīàª¸ àª³
Ġwe ek
Ġwe bs
Ġent itled
Ġà¦ ¤
Ġà¦ Ĺ
Ġthem e
99 9
à¤ļ à¤²
Ġsa fer
Ġph one
Ġph ones
ĠAn imals
à«§à«¯à«ª à«¯
àªĩàªªàª° àª²
Ġher pes
Ġàª§àª£ àª§àª£
Ġà«©à«Ń à«ª
Ġstud ios
àªīàª® àª°àªµ
Ġen for
Ġra ise
Ġà«§à«®à«¦ à«¬
Ġàª¦àª®àª£ àª®
à«§à«¯à«® à«¬
Ġreg ulations
Ġsub t
Ġsub mit
Ġsub sequently
Ġsub continent
ank uni
Ġrem ark
sc ale
sc reen
ĠII T
Ġbl ue
ĠBh ut
ĠBh ushan
Ġem p
ĠCent er
Ġcor nea
à«§à«¯à«Ń à««
à«§à«¯à«Ń à«¬
Ġacc l
rop ods
Ġdec or
Ġdec isions
Ġman agers
Ġman ufact
Ġà¤Ĩ à¤¶
Ġà¤Ĩ à¤£
Ġview ing
Ġtem por
àª°àª¸àª°àª£ àª¶
ĠCom mercial
à¥ĭà¤Ĥ ,
Ġ180 2
Ġ180 6
Ġ180 7
Ġàª²àªŁàªķ àªµ
Ġbir d
Ġspec ific
ina e
hem atic
á¹ ħgÄ«
Ġàª°àª¤àª¨ àªľ
Ġhigh ly
Ġtra il
Ġtra ck
Ġtra ffic
Ġwrit ing
ĠBen io
à«§à«¯à«« à«®
Ġàª¹àª¡àªª àªļ
àª¤àª°àª« àª¥
Ġsl aves
Ġsl opes
Ġreal ized
àªĻ àª®àª¯
Ġàªıàª«àªı àª²àªµ
Ġà¤ī à¤¤
Ġà¤ī à¤¨
ruct ure
ĠMus ical
Ġorgan ism
Ġàª§àª® àª§àª®
ros aur
ilosop hy
ĊĠ ĊĊĊĊĊĊĊĊĊ
Ġchar acters
air man
Ġà««à«¬ à««
Ġinter ior
Ġposs ib
Ġdi pl
Ġown ers
ĠPakistan i
Ġsk ull
ĠRaj asaurus
ĠOSI àª¨
àªīàªĿ àª°àª®
Ġsupp ly
Ġsupp osed
Ġinv olve
ĠOr ig
US A
ĠQ ue
Ġcond oms
Ġcond itions
Ġfour th
Ġhand ed
Ġele ph
Ġprov iding
Ġsign ed
Ġlead er
Ġed ge
ren ce
Ġfossil ized
Ġprom ote
ĠàªķàªĿ àªĹàª®
Ġàªīàª£àªª àª¥
ĠØ ¬
Ġet ym
Î¹ Îº
ĠMan agement
à© °
à© ĩ
Ġdiv ine
Ġep ic
Ġep istem
arth i
ane ously
ĠpH àª¨
Ġreport s
ikip ed
ym n
Ġmy th
ĠRuss ell
.... ..
ĠWe iss
Ġpolit icians
Ġfact ors
Ġdet ect
ĠST D
Ġsupport ing
Ġàª¨àªµàªĺàª£ àªľ
aly pt
Ġbre aking
Ġdra w
ĠBe cause
Ġann as
Ġsom ewhat
Ġàªīàª£ àªªàªµ
Ġste am
Ġrecogn ised
àªµàªĺ àªĩ
àªµàª¡àª¨ àªĹàª°
ĠàªŃàª°àª£ àªª
Ġtour ist
Ġfac ing
stand ing
Ġpat ient
Ġobs ervation
ĠSI CSR
ho om
Ġcreat ing
Ġmar ried
à«§à«§à« ¬
Ġla un
not es
Ġast r
Ġche ck
Ġrepresent atives
Ġtherop od
Ġdanc ers
Ġinterest ing
Wik inew
Wik isource
Ġàª®àªĹàª¨ àªŃ
àªĨàªĿàª® àªĹàª¢
Ġwar m
Ġstruct ures
ĠKa ul
Ġdev ote
Ġà«§à«§à«® à««
Mus eum
Ġbat tle
ĠPat el
Ġàª¦àª²àªªàª¤ àª¶
Ġvol can
Ġproject s
Ġclose ly
Ġestim ates
Com mons
Ġceremon ies
ĠTri veni
ĠCup àª¢
ĠPl ay
ÙĨ ÛĮ
Ġeconom y
ĠSoc ial
Ġdeal ing
AP S
rec orded
Ġlif est
ĠHer o
Ġsepar ated
Ġdeg rees
Ġprim ary
Ġprim arily
Ġsubst antial
Ġá ¿¥
Ġàªķàª°àª¸àª¨ àª¦
ounc ing
Ġcelebr ated
Ġcelebr ations
Ġauth or
ĠAb out
cha ft
ĠNI C
Ġdepart ments
}= {\
Ġrom ance
Ġthink ers
Ġbehav i
ĠRam asseri
ec ut
à«ģàªĤ... "
Ġbeaut y
ĠSec ond
Ġsitu ation
Ġadminist ration
Ġincorpor ated
Ġàª°àªķàª¤ àªª
Ġang le
Ġsequ ence
Ġregular ly
oz o
Ġàªķàªķàª¡ àªŃ
ĠàªŃàª°àª¥ àª°
Ġtheat re
Ġstru ck
Ġevolution ary
Ġviewpoint s
Ġtwent y
Ġminist er
Ġhundred s
ĠNep ali
Ġexpand ed
Ġdepend s
Ġà¤ķà¤¹ à¤¤
Ġheav y
Ġrelations hip
Ġprint s
ĠâĢįâĢį âĢį
Ġattribut es
ĠAndre as
Ġfrequ ent
Ġingredient s
Ġhor iz
Ġreve aled
Ġcorru ption
Ġpersonal ities
Ġàª¨àªŁàªµàª° àª²
Ġcateg ories
Ġmas ala
Ġmax im
Ġdub bed
Ġrev ival
Ġconve ction
Ġcomput er
ĠChic ago
Ġrelative ly
Ġprepar ation
Ġextreme ly
Ġvirt ue
Ġpurpos e
Ġtoler ance
Ġegg s
Ġrecept ors
ĠPo et
ĠKah n
ĠVa ish
ĠVik ram
ellig ence
Ġunc ertain
Ġdemonst rated
ĠHTTP àª¨
Ġmere ly
Ġmention ed
Ġpelv is
ĠSant os
rif ice
ĠFin ance
Ġimmedi ately
Ġdiscuss ions
Ġcontrad ictory
Ġaffil iated
Î¹ÏĥÎ¼ ÏĮÏĤ
Ġrenew ed
ĠRoh ini
Ġans wer
rie ved
ĠVe er
Ġteh sil
Ġsapt ibha
ĠÅ ļ
à«ł àª¤
Ġcup ro
Ġcarn iv
Ġwid er
ĠTor onto
ĠGovern or
estiv als
ĠWik imedia
ĠWind ows
Ġhect ares
assad or
Ġfirm ly
Ġprince ly
Ġpreval ent
Ġwee ks
Ġemph asis
ĠBhagav ata
ipt s
kilom etre
Ġaro se
Ġsibl ings
Ġrenown ed
ĠCath olic
ĠMers enne
ĠKish ore
ĠKov il
ĠFate hpur
ĠEmp ire
ĠVicer oy
Ġimagem ap
Ġenfor cement
ĠBenio ff
Ġsaptibha á¹ħgÄ«
! ,
% /
% |-|
' re
' ve
* *
. -
2 40
3 000
3 60
4 15
5 40
5 32
5 83
6 39
7 33
7 36
7 99
8 17
8 89
9 29
: ,
: à«¤
B àª¨
B esides
C D
C T
C it
C urrent
C leanup
D L
D is
D uring
E G
E NI
G u
H z
H istory
H FF
I M
I nt
J P
K Y
L L
L ocation
M L
M S
M at
N ot
O àª¨
P C
P GA
P icture
S at
S outh
T W
T ollywood
U àª¨
U sp
U TS
U HFF
W S
W hat
Z e
b h
b ook
b ury
b ek
d d
d ess
d esh
d isha
e en
e us
f ed
g uan
g unge
h our
h ok
h bo
i y
j u
j rat
k ara
l as
l um
l og
l ook
m n
m od
m ill
m ap
m ore
m ile
n y
n as
n el
n ame
o e
o i
o ides
p ain
p art
p ub
r he
s a
s i
s ible
t ies
t ook
u v
u pee
v in
v es
w ik
w ikipedia
x ts
y y
y ph
y dia
} -
} {\
² Ļ
¸ ı
¹ ï
Â ģ
Ã ª
Ã ¶
Ä ĥ
Ì ¯
Ì ģ
Î ¸
Ù ĩ
á ¿
â ı
å ¾
Ċ ĠĊĊĊĊĊĊĊĊ
Ġ @
Ġ u
Ġ ~
Ġ à«į
Ġ ä¸
Į Ĺ
à« °
Ġàª ³
àª¾ *
àª¾ à¥¤
àª¾ âĢĶ
àª¾ ?"
à«ĩ _
à«ĩ âĢĮ
àª° àªŁàª°
àª° àª¡àª®
àª° àªĺàª°àª¨
à«į à«¤
àª¨ àªĺàª°
àª¨ àª³àª®
àª¨ àªĩàª¥
àª¨ àªĨàª¯
àª¨ àªħàª§
àª® àª³àª¨
àª® àª²àª¬
àª® àªĿàª°
àª¤ àªµàª²
àª¤ àªĹàª°
àª¤ àªľàª¨
àª¤ àª²àª®
àª¤ àª¬àª³
àª¤ àª³àª¤
àª¤ àªŁàª¸
àª¤ àªŃàªķ
àª¤ àª°àªķàª¨
àªµ àªĩ
àªµ àª¯àªķ
àªµ àª¦àª¨
àªµ àª¹àª®
àªµ àª£àªª
à«ĭ _
à«ĭ à¥¤
àª¯ àª°àªķ
àª¯ àª°àª¹
àª¯ àªľàªµ
àª¯ àªīàªĽ
àªķ àª¯àª¨
àªķ àªµàª²
àªķ àª®àª£
àªķ àª¸àª°
àªķ àªķàªµ
àªķ àªıàª®
àªķ àª¬àªľ
àªķ àª¬àª°àª¨
àªķ àª¸àª®àª¯
àª¿ ".
àª¿ âĢĿ,
àª² àª·
àª² àªľàª¨
àª² àª¦àª°
àª² àª°àª¸
àª² àªļàª®
àª² àª¡àª²
Ġàª¸ àª°àª£
Ġàª¸ àªĺ
Ġàª¸ àªľàª¨
Ġàª¸ àªīàª¦
Ġàª¸ àª¢àªµ
Ġàª¸ àª¢àª¨
Ġàªķ àªŁàª²àª°
Ġàªķ Ã²
àª¸ s
àª¸ àª§
àª¸ àªĵàª¨
àª¸ àª²àª¬
àª¸ àªĨàª°
àª¸ àª²àªµ
àª¸ àª¸àª²
àª¸ àªĨàª®
ĠàªĨ àª¯àª¤
ĠàªĨ àª°àª¨
ĠàªĨ àª®àª°
Ġàª¤ àªĹ
Ġàª¤ àªŁàª¨
Ġàª¤ àªŁàª®
Ġàª¤ àª³àª®
Ġàª¤ àª¦àªµ
Ġàª® àª°àª¨
Ġàª® àª¤àª®
Ġàª® àªĹàª²
Ġàª® àª²àªµ
Ġàª® àª¶àªķ
Ġàª® àª¸àª²
Ġàª® àªŁàªµ
Ġàª® àªĽàª²
Ġàªľ àªµàª¨
Ġàªľ àª¸àª°
Ġàªľ àª¹àª¨
Ġàªľ àª²àª¤
ĠàªĽ àªĹ
ĠàªĽ àªı
ĠàªĽ àª®àªķàª²
àªĹ àªµàª¨
àªĹ àª¡àª¨
àªĹ àª°àªķàª°
Ġàªħ àªĹàªµ
Ġàªħ àªľàª¬
Ġàªħ àª¬àª¦
Ġàªħ àªĿàª°
Ġàªħ àªĿàª¬
Ġàªħ àªµàª¨àª¤
àªŁ àª°àª¤
àªŁ àªĪ
àªŁ àª¶àª¨
àªŁ àªªàª°
àªŁ àªµàªķ
àªŁ àª¸àªµ
àªŁ àª¯àª¶
àªŁ àªĳàª«
àªľ àªķàª°
àªľ àª¸àª°
àªľ àªªàª¦
àªª àªŃ
àªª àªµàª¨
àªª àª¡àª®
àªª àªķàª³
àª£ àª¹
àª£ àªĨ
àª£ àª°àª¹
Ġàªµ àªŁàªµ
Ġàªµ àª¯àª®àª°
àª¥ àªªàª¨
àª¥ àª¡àª¨
àª¥ àªħàª®
àª¥ àªĺàªŁàª¨àª®
àª¦ àª§
àª¦ àªķàª°
àª¦ àª²àª®
àª¦ àªªàªķ
àª¡ àª°àªķ
àª¡ àª°àªķàª²
àª¶ àªŁ
àª¶ àª¯àª¤
àª¶ àª¤àª¨
àª¶ àªµàªª
à«ģàªĤ àªĤ.
à«ģàªĤ '.
Ġàª¹ àª°àª¤
Ġàª¹ àª°àªŃ
Ġàª¹ àª°àªľ
Ġàª¹ àª¬àª¨
Ġàª¹ àª¯àªĹ
Ġàª¹ àª«àª®
àª¹ àªĹàª¢àª¨
ĠàªĹ àªŃ
ĠàªĹ àªľàª°
ĠàªĹ àª«
ĠàªĹ àªľàª¨
ĠàªĹ àª¡àª®
ĠàªĹ àªľàª¬àª¨
ĠàªĹ àªŁàª°àªµ
àª§ àªķàª²
àª§ àªļàª¨
àª§ àªĹàª¯
Ġàª° àª¨àª®
Ġàª° àªµàªľ
Ġàª° àªĹàª¦
Ġàª° àª¨àª¥
Ġàª¦ àª¢àª¤
Ġàª¦ àªĪàª¶
Ġàª¨ àªķàª°
Ġàª¨ àª²àª¬
Ġàª¬ àª¸àª°
Ġàª¬ àª²àª¬
Ġàª¬ àª¦àª®
Ġàª¬ àª¡àªĹ
Ġàª¬ àªŁàª°àª«
ĠàªĨàªµ àª³àª¨
ĠàªĨàªµ àª°àª£àª¥
à«Ĥ àªĤ,
à«Ĥ à¥¤
àª³ àªŃàª°
àª³ àªīàªĽ
àªļ àª¡àª¨
Ġàªı àª¹
Ġàªı àªĸ
Ġàªı àª¨àª¨
Ġàªı àªĿàª°
Ġàªı àªĨàªĪ
Ġàªı àªĩàª°
ĠàªŃ àª¸àª¤
Ġàªķàª° àª£àª¨
Ġàª¶ àªµ
Ġàª¶ àªŁàª²
àªĸ àª¤àª°
àªĸ àª²àª¨àª®
àª¬ àª¶àª¨
àª¬ àª¸àª°
àª¬ àªĸàª²
àª· àªĽ
àª· àªµàª°
Ġàª² àªľàªªàª¤àª°
Ġàªĸ àª¡àªĹ
àªĵ f
àªĵ àªļ
àªĵ àªĵ
àªĵ àª¤àª°
àªĵ àª°àª¡
àª°àª¤ àª³
àªŃ àª²àªĹ
àªŃ àªľàª³àª¨
Ġàª¥ àª¡àª®
Ġàª¥ àª²àª¸
Ġàª¥ àª²àª¤
àª®àª¨ àªĹ
Ġàªī àª¹
Ġàªī àª¡àª¨
Ġàªī àªĺàª¡
Ġàªī àªĹàª®àª£
Ġàªıàªķ àªĹ
Ġàªıàªķ àª¸àªŁ
Ġàªıàªķ àªķàª°àª¤
àªľàª° àªµ
àªľàª° àªĹ
àªĩ àªĨ
àªĩ àª¯àª°
àªĩ àª®àªķ
àªĩ àªŁàªķ
àªĩ àª¸àªķ
àªĩ àªªàª®
àªĩ àªıàª®
àªĩ àª¸àª²
àªĩ àª¸àªµ
àªĩ àªĨàªĩ
àªĩ àª«àª¸
Ġàªªàª° àª®àªª
Ġàªªàª° àªµàª°àª¦
Ġàªļ àªķàª¨
Ġàªļ àª°àªķàª¨
Ġàª¡ àªµ
Ġàª¡ àª°àª¹
àªĪ àªł
àªĪ àªĨ
àªĪ àªµàª²
àªĪ àªĨàª°
àªĪ àªĹàª°àª¨
àªĪ àªıàª®àª¬
àªĪ àª®àª¥àªķàª¨
àªı àªĩ
àªı àªķàª¨
àªı àª²àª®
àªı àªĨàªĩ
àªı àªŁàª°àª®
àªı àªıàª¸àªª
àªı àªıàª¨àªıàª¨
àª°àª® àª¦
àª°àª¨ àª°
Ġàª« àª²àªª
Ġàª« àª²àª¨àª¨
àª¶àª¨ àª²àª®
àª¶àª¨ àªĹàª¢
Ġàª§ àª®àª£
Ġàª§ àª¸àª®
Ġàª¸àª® àª¸àªª
àªĹàª® àª²àªľ
ĠàªŁ àªļàª²
à«Ģ. ;
Ġàª¯ àª¨
àª°àªķ àªķ
àª°àªķ àªļàª°
àª°àªķ àª¬àª³
àª°àªķ àªļàª°àª²
àªķàª¨ àªķàª°
Ġàªĵ àª¤
Ġàªĵ àªĹàª®
Ġàªĵ àª¸àª®
Ġàªĵ àªŁàª®
Ġàªĵ àªĿàª°
àªĽ àª¶
àªĽ àª°àª¨
âĢ ĭ
àªĺ àªı
àªĺ àª°àªµ
àªĺ àªªàª°àª¨
àªĿ àª«àª°
àªĿ àªķàª£
àªĿ àªµàª¶
àª¥àª® àªª
Ġàªīàªª àª¤
Ġàªīàªª àªķàª°
Ġàªīàªª àª°àªµàªŁ
àª¤àª° àªªàª°
àª¤àª° àªµàªļ
Ġàªµàª° àª¦àª°
àªĨ àª°àª®
àªĨ àªĽ
àªĨ àªĩàªľ
àªī àª§
àªī àªŃ
àªī àªĨ
àªī àª²àª®
àªī àªªàª®
àªī àª¡àª°àª¨
àª¾. '
àª¾. ...
àª¾. âĢĻâĢĻ
àªµàª° àª¡
àªµàª° àª¸àª¡
àªŁàª² àªķ
àªŁàª² àª¥
Ġàªĩ àªıàª²
Ġàªĩ àªĨàª¨
Ġàªĩ àª§àª°àª¨
àªĹàª° àªľàª¨
àª°àªµ àª¦àª°
àª°àªµ àª£àªķ
àª¸àª¨ àª¸
àª¸àª¨ àª¦
àª¸àª¨ àªªàª¦
Ġt as
Ġt ried
Ġt apes
àª¯àª® àªķ
àªµàª¤ àªª
àªµàª¤ àªķàª¨
àªķàª° àªļ
Ġ2 19
à«ĢàªĤ "
à«ĢàªĤ àªĤ
àªľàª¨ àª¹
àªľàª¨ àª°àª²àª¨
Ġa rom
àªªàª° àª¦
he y
he ad
àªŁàª° àªľ
àªŁàª° àªµàª°
àªŁàª° àªīàª¦
àª¦àª° àª²
in ite
in ating
in ji
àª°àª¸ àª²
àª°àª¸ àª¦àª®
àªŁàª¨ àª¸
àªŁàª¨ àª¹
àªªàª¨ àª°
Ġàª®àª³ àª¦
Ġàª¸àª° àª³àª®
Ġàª¸àª° àª²àª¤
Ġàªķàªª àª²
ĠâĢ ĥ
àª¢ àªª
àª¢ àª¶
àª¢ àª³
àª³àªµ àª¯
àªħ àªķàª¸
àªħ àª¸àª²
àªħ àª¬àªľ
àªħ àªªàª²
àªħ àª¥àª°
àªħ àª³àª¶
re w
Ġ19 1
Ġàªīàªªàª¯ àªĹ
àª¸àª° àª¡
àª·àª£ àª¸àª®
àª¬àª° àªĵ
àªĩàª¨ àªµ
àªĩàª¨ àª¬
àª°àª¦ àª®
àª°àª¦ àª²
àª°àª¦ àª¯àª°
er c
er th
Ġàªķàª¹ àª³àª¸
àª¸àª® àª¹
Ġàªıàª¨ àªĿ
Ġàªıàª¨ àªıàª¸àª¡àª¬àª²
àªķàª² àª¹
àªķàª² àª¸àª¨
àªķàª² àªķàª¤
àªķàª² àªīàª¤
ĠàªĿ àªŁ
ĠàªĿ àª®àªķ
Ġàª¸àª®àª¯ àªħàª®
ĠàªĨàª° àªıàª«àªıàª¸
ĠàªĨàª° àªıàª«àª¸
àª®àª¤ àª¦àª³
Ġs in
Ġs an
Ġs aur
Ġs ick
Ġs olution
Ġs oph
ĠàªĬ àª£
ĠàªĬ àªĸ
ĠàªĬ àªĽ
ĠàªĬ àª¡àªµ
at in
at ar
at ers
at ography
is a
àªŀ àªķ
Ġàªħàª² àªĸàª¨
àª®àªľ àª¬
àª®àªľ àªľàª¨
àª³àªĸ àªķ
àª¨àª® àª¸
an th
an anda
Ġàªīàª¦ àªĹ
Ġàªīàª¦ àªŃàªµàª¨
en ous
àª²àª® àª¥
àªĪàª¨ àªµ
àªĪàª¨ àª°àª¥
àª®àªķ àªŁ
àªķàª¸ àª¥
àª£àª¨ àªķ
àª£àª¨ àª¥
Ġc u
Ġc av
Ġc ure
Ġc ry
al ism
à«¦à«¦ à«Ń
Ġàªªàª¦ àª®àª¡
Ġàª¸àª¹ àª²
Ġàª¸àª¹ àª¶
Ġàª¸àª¹ àªµàª°
Ġàª¸àª¹ àªľàªµ
Ġàªħàª¸ àªµ
àª¨àªµ àªµàª¸
àª¨àªµ àªĺàª£
it an
it ing
it em
it ous
it imate
ĠàªĨàªªàªµ àª®
Ġàªľàª¨ àªķàªª
Ġàª¥àªĪ àª¬
à¥ ¨
Ġw ard
Ġw omb
Ġw oman
Ġw iki
Ġw inter
Ġf en
Ġf ans
Ġf ib
Ġf urn
Ġf iel
Ġf ried
Ġf Ã¼
Ġf oster
or ic
or ge
or li
or row
Ġàª¸àª¤ àª¯
Ġàª¸àª¤ àª¹
Ġb ark
Ġb anks
Ġb ottom
Ġb udg
Ġb udget
Ġm g
Ġm ast
Ġm ach
Ġm ids
Ġm orn
Ġm otion
Ġm isc
Ġm oral
à«ħ .
Ġp as
Ġp ra
Ġp ric
Ġp owers
Ġp nas
Ġàªıàª® àªıàªª
Ġàªıàª® àªĵàªıàª¸
Ġàªıàª® àªĨàªĩàªıàª®àª¡
àªŁàªķ àªŁ
àªıàª¸ àªķ
àªķàªµ àª¶
Ġà¤ Ł
àªīàª¨ àª¹
àª°àª¬ àª¤
ĠàªĨàªĹ àª¥
àª¥àª³ àªļàª°
ic ar
àª¦àª² àªµ
àªŁàª® àª¬àª°
Ġàª¶àª¬ àª¨
ou st
àªķàª® àª¤àª®
àªķàª® àª¤àª¨
Ġ3 28
Ġ3 78
àªĥ ,
il ians
àª¡àª° àªª
as àª¯
as tern
àª®àª² àªĸàª¨
Ġàªħàªª àª¹
Ġàªħàªª àª¶àª¬
Ġàªĸàª° àªľàªµ
Ġàª®àª¨ àªĹàª®àª¤
à«¬ à«¨à«¨
à«© à«¯à«¦
à«© à«®à«¦
om as
àªķàª¤ àª¥
àª²àªµ àªªàª¤
ĠàªĨàª® àªļ
le ase
àª¬àª² àª¥
Ġàªļàª² àª¥
Ġà«© à«¯à«§
Ġàªªàª¤ àªĩ
àªķàª³ àª¶
àª¯àªµ àª§
Ġàª°àª¸ àª¸
Ġàª°àª¸ àªĹ
Ġh orn
Ġh oney
Ġh oping
àª¯àª² àª¥
àª¯àª² àªŁàª¨
àª°àªľ àªŃ
Ġàªıàª¸ àªĨàªĩàªıàª®àª¡
àª°àª« àª°àª¤
àªªàªķ àªµàª¤
ent ieth
ĠI TC
ĠI guan
Ġà«§à«® à«¦à«¦à«¦
Ġà«§à«® à«§à«ª
Ġà«§à«® à«¨à«¬
Ġà«§à«® à«¨à«®
Ġà«§à«® à«ªà«©
Ġà«§à«® à«ªà«Ń
ĠàªĪàª¨ àªŁ
Ġ4 35
Ġ4 72
et y
et ime
Ġà«ª à«©à«¦
Ġ18 1
Ġ18 16
Ġ18 37
ly mp
ur ally
ĠA P
ĠA ap
ĠA ge
ĠA ng
ĠT est
ĠT olly
ĠT ony
ĠT racts
àªľàª® àª¥àªķ
ol ving
à«ģ. "
àª¯àª¸ àª²
àª¯àª¸ àªľ
Ġe ag
Ġ5 80
Ġ5 28
Ġ5 89
ĠS in
ĠS and
ĠS AN
ĠS hy
ĠS port
ĠS ov
ĠS ena
ĠS SE
ĠS ummer
ĠS enior
st ub
àªķàªª àª¡
àªķàªª àªŁàª¥
Ġà«Ń à«ªà«¦
Ġà«Ń à«ªà«¬
Ġàªħàª¡ àª¤
Ġ20 1
Ġ20 22
Ġ20 42
Ġl os
Ġl av
Ġl iz
Ġl ived
Ġl oses
ct uary
àª°àªĸ àªŁ
àªµàªķ àª¥
àªµàªķ àªªàª®
Ġ6 60
Ġth reat
Ġn a
Ġn ud
Ġn ickel
àª¨àª° àªĹ
àªıàª® àªĨàªĩàªª
àªıàª® àªĨàª°àª¸
19 33
19 28
19 05
19 06
19 09
19 59
19 86
19 41
Ġ7 77
Ġ7 98
àª²àª¤ àªªàª°
àªĹàª£ àªĺ
Ġà«¨à«¦ à«§
Ġà«¨à«¦ à««à«¦
Ġà«¨à«¦ à«¨à««
àªķàªŁ àª°àª®
àªĪàªŁ àª²àª¨
Ġàªł àª°àª¶
Ġre x
Ġre incarnation
Ġre naissance
àª¦àªķ àª¶
àª¯àª£ àª¸
àª¯àª£ àª¦
ve re
ro z
Ġà«§à«ª à««à«§
ĠàªĿàª¡àªª àªµ
am in
am ma
am bers
ĠàªĨàª¤ àª¶
Ġis land
ĠC D
ĠC r
ĠC u
ĠB M
ĠB a
ĠB aj
ĠB order
ĠB AF
ĠB imal
ĠB andra
àªıàª¨ àª¥
àªıàª¨ àªĨàªĩàª¨
àªıàª¨ àªıàª¨àª¨
àªıàª¨ àªıàª«àª¸
im ent
àª¿. .
us hed
ce ived
ce nded
ĠM c
ĠM in
ĠM or
ĠM ur
ĠM aur
ĠM ark
ĠM ert
ĠM era
ĠM oul
ĠM iddle
ĠM otor
res p
Ġàªīàª² àªŁàª¸
id ers
Ġbe edies
ĠàªªàªŁ àªµ
ĠàªªàªŁ àª²àª¨
ad s
ad ers
ig al
Ġàªľàª¯ àªļ
Ġàªľàª¯ àªĺ
Ġàª¸àªķ àª°àªķ
ĠàªĨàªĩ àªıàª¸àªıàª¸
ĠàªĨàªĩ àªĨàªĩàªıàª®
ĠP A
ĠP er
ĠP res
ĠP ad
ĠP ac
ĠP ah
ĠP rab
ĠP AS
od a
àªªàª² àª¦
àªªàª² àª°àª¨
Ġàª¬àªļ àª¤àª®
àª·àª¯ àª¥
ay er
ay ed
ay as
ay amat
Ġàªĳ àªªàª¨àª®
àªµàªľ àª¨àª¨
àª¬àªĪ àªµ
ch i
ch ol
ch ri
âĢĻ, âĢĺ
Ġàªķàª¦ àªµ
Ġàªķàª¦ àª¥
àª®àª¸ àª£
àª®àª¸ àª¨àª¨
à¤° à¤µ
à¤° à¤¯à¤¤
àª¡àª¤ àª°àª®
Ġàªķàª¥ àª¨àª¨
Ġas p
ir ts
àªĸàª¨ àª¶
Ġg h
Ġg l
Ġg od
Ġg ang
Ġg ive
Ġg ap
Ġg ods
Ġg onor
Ġ15 8
Ġ15 60
Ġ15 55
Ġ15 87
Ġ15 96
Ġ15 91
àªĨàªĩ àª°
ĠàªĲ àªµ
ĠàªĲ àª¬àªķ
Ġ9 60
Ġ9 78
ra e
ra q
ra ction
ra wl
ĠH ig
ĠH aus
ĠH ouse
ĠH istor
ĠH ospital
Ġ16 4
Ġ16 7
Ġ16 70
Ġ16 76
Ġ16 36
Ġ16 38
Ġ16 89
Ġ16 71
Ġ16 59
Ġ16 52
Ġ16 64
Ġ16 91
Ġ16 97
ĠG a
ĠG op
ĠG old
ĠG lobal
ĠG GT
ĠG Hz
Ġ17 6
Ġ17 50
Ġ17 16
Ġ17 28
Ġ17 29
Ġ17 57
Ġ17 84
Ġ17 07
Ġ17 97
her ic
op tery
ul ly
ul ating
àªľàª¸ àª¦àª£
Ġàª¦àª¸ àª®àª¨
Ġàª²àªĪ àª¶
ia àª¢
el ig
el ids
Ġon ward
ĠN ot
ĠN ig
ĠN agar
ĠN arayan
ĠN obel
Ġst ation
Ġst aged
Ġà«§à«¨ à«¬à«¦
à¤¿ à¥¤
Ġàªľàª³ àª°
Ġàªľàª³ àª¥
Ġàªľàª³ àª¶
àªķàª£ àª¬
Ġà«§à«« à«Ń
Ġà«§à«« à«ª
Ġà«§à«« à«§
Ġà«§à«« à«¨à«Ń
Ġà«§à«« à«¯à««
Ġà«§à«« à««à«¨
Ġà«§à«« à««à«¬
Ġà«§à«« à«Ńà«©
ĠR V
ĠR h
ĠR out
ĠR oug
ĠR TO
ĠK O
ĠK is
ĠK ong
ĠK etan
ĠK APS
.. ."
Ġàªµàª°àª¸ àª¡
Ġàªµàª² àªĸ
un es
Ġan al
ac re
ac ing
ac hers
Ġàªıàª¡ àª¬àª°
àªıàª² àªıàª²
50 1
ĠD on
ĠD em
ĠD ak
ĠD iv
ĠD av
ĠD ham
ĠD ankuni
ĠD hoom
à¤¤ à¤ķ
Ġàªıàªļ àª¸
20 12
um s
est ic
est ion
est ive
Ġàªį àª¡
Ġàªį àªªàª²
Ġàªħàª¶ àª«
Ġwas te
Ġwith dra
ag n
ag er
ag az
ĠàªħàªŁàªķ àªµ
ri ya
àªħàª® àª°àª¨
Ġàª¸àª« àª°àª®
àªĩàªĿ àª®
Ġcon ven
Ġcon vert
Ġcon text
ĠF urther
Ġà«§à«¬ à«Ń
Ġà«§à«¬ à«©à«¦
Ġà«§à«¬ à«¨à«©
Ġà«§à«¬ à«¬à«¦
Ġà«§à«¬ à«¨à«®
Ġà«§à«¬ à«©à«¨
Ġà«§à«¬ à«ªà«©
àªĺàª¨ àª¶
Ġà«§à«Ń à«¨à«¯
Ġà«§à«Ń à«ªà«¨
Ġà«§à«Ń à«¯à«Ń
Ġà«§à«Ń à««à«®
Ġà«§à«Ń à«¦à«Ń
ere nce
àª¬àª°àªķ àª¨
à«ĩàªĥ :
Ġàªķàª¬ àª°àª¸
Ġ12 50
ĠL am
ĠL ist
ĠL ove
ĠE DS
ĠE NG
pe c
pe ar
Ġà«§à«¦à«¦ à«®
àªµàª¶ àª°àª¤
àªĪàª¡ àª¸
Ġfilm i
Ġor ange
àªıàª« àª¬
àªµàª£ àª¦
àªīàª¸ àª¬
Ġàªıàª« àªĨàª°àªıàª¸
and as
and har
Ġ14 1
Ġ14 6
Ġ14 7
àª£àª¤ àª¯
ud a
ain able
à¦ ¦
à¦ ļ
Ġse ek
àª¨àª¦ àª¯
Ġ11 8
Ġha plogroup
Ġha jrat
à¤¯ à¤¸
Ġex it
Ġex ile
Ġex ped
Ġex hib
Ġr ound
Ġr ang
Ġr anked
Ġà«§à«© à«¨
Ġà«§à«© à«Ń
Ġà«§à«© à«©
Ġà«§à«© à««à«¦
Ġà«§à«© à««à«§
Ġpro ved
ab s
Ġ13 5
Ġ13 6
Ġ13 07
11 1
11 7
Ġàª°àª£ àª§
ĠW ikiped
ĠW orli
qu atic
ĠO b
ĠO ft
ĠO wen
ĠO disha
Ġde press
oc ks
se qu
àª¾' '
àª¾' ."
ĠV er
ĠV al
ĠV ol
ĠV all
ĠV alley
18 2
18 60
18 76
18 58
Ġàª®àª¶ àªĹ
ĠàªĺàªŁàªķ àª¤àª¤
Ġhe li
àª§àª£ àªķàª²
Ġàª¬àª² àª§
av an
àªªàª°àªµ àªŁ
Ġnot ably
Ġnot iced
àªľàª² àªªàª°
Ġ0 5
Ġ0 9
ĠJ al
ĠJ un
ĠJ ane
ĠJ ournal
ĠJ VM
àª¶àª² àªľ
à¤µ à¤²
à¤¸ à¤¨
à«¨à«¦ à«§à«¬
Ġà«©à«¦ à«¨
Ġà«©à«¦ à«©
Ġ, ,
Ġàª°àª¨ àªŁ
ard o
Ġ23 9
Ġàª§àª¨ àª§
12 1
our ney
Ġàªµàª¤àª¨ àª¥
ish op
Ġus itat
Ġsh op
Ġsh oot
Ġsh aring
Ġinc om
ure ates
Ġà«¨à«« à«¯
16 14
16 74
à«§à«® à«¯à«¦
à«§à«® à«Ńà«¦
à«§à«® à«®à«ª
à«§à«® à«¦à«§
Ġ24 68
14 8
gr oup
15 9
Ġàª¹àª® àªĿ
Ġch lam
Ġà¤¸ à¤°à¤ķ
17 5
17 00
17 890
Ġàªħàª°àªľ àªķàª°
Ġle ct
Ġà«¨à«ª à«®
Ġà«¨à«ª à«§
30 1
àªªàª¯ àªĹ
Ġà«¨à«¨ à«©
Äģ n
ip her
ip ped
ind ing
àª®àª³ àªª
Ġ1980 9
Ġcont aining
àªĨàªĪ àªıàª¨
Ġàª¸àª³ àªĹàªµ
Ġar rival
Ġ27 1
ell ite
ĠCh op
ĠCh up
ĠCh ori
Ġim it
Ġim itation
Ġun ity
Ġàª²àªµ àªĹ
Ġother wise
Ġà«¨à«¬ à«¦à«¦
Ġàª¶àª°àª¤ àªļ
=" #
àª²àªĸ àª¡
àª²àªĸ àªªàª¤
13 4
Ġà¤ª à¤¤
Ġà«¨à«© à«©
ult aneously
Ġà«§à«§à« §à«
à° ķ
ĠàªĹàª³ àª«
à¤¹ à¤¸
any a
Ġpart ies
Ġpart ner
Ġà«¨à«Ń à«¦à«¦
Ġab ility
Ġàªıàªķàªµ àªļàª¨àª®
25 7
25 34
Ġ26 9
Ġcan e
Ġper haps
Ġper ipher
àªĨàªĩàªı àª«
Ġàªīàª§ àªĪ
Ġàª§àª°àªµ àª¤
Ġact or
àª¦àªŃ àªµàª¨
ĠÂ µ
ĠTh at
Ġdis s
ĠàªĹàª£àª¨ àª¯
àªĪàªĿ àª°àª¨
Ġcent imetres
Ġàªħàª¸àª® àªª
ĠàªĹàªĿ àª¨àªµ
àªıàªª àª²àª¨
Ġsp he
Ġsp ring
com p
Ġàªªàªļ àª¡
Ġàª«àª² àªķàª¨
àª¸àª« àª°àª¨
à«§à«« à«¦
iss ions
iss imum
à¤Ĺ à¤£
45 2
Ġàª¨àªµàª° àªļ
Ġfe ud
Ġ38 5
Ġ38 00
ove ment
hy a
à¨ ²
à¨ ľ
Ġà«¦ à«§
In ternational
In Ch
à«ĩ? âĢĿ
àªĪàª°àª¸ àª®
ep s
Ġro om
Ġne cess
Ġne eds
Ġne utrin
Ġcomm asàª¯
75 8
48 3
Ġj okes
ĠAs ansol
76 11
ail s
ail y
we alth
Ġrec ru
Ġform at
Ġà«¨à«® à«¦
Ġme ant
rib le
ĠàªŃàªľàª¨ àªµ
Ġ75 7
àªĿàªµ àª£àª¨
ĠDe ep
à«§à«Ń à«¨à«©
à«ĩ.âĢĿ .
àªĩàª« àª²àª®
Ġ+ ,
Ġsy ph
Ġprodu ctions
90 9
Ġy ellow
ĠàªĨàª¯àª¨ àª®
ood ed
Ġover took
Ġà«©à«¨ à«§
Ġà«©à«¨ à«¯
Ġpopular ized
}} }}
à«§à«© à«®
Ġpr incess
Ġmus cles
ĠSh ree
Ġgr ay
24 9
Ġup gr
Ġàªĩàª¡àª° àª¥
36 1
ph p
à¤· à¤®
ĠHe art
ĠHe bre
àªıàªı àª²àª¯
àªıàªı àª«àª¨
Ġfl ed
Ġfl owers
ĠÎ ¸
ĠÎ ½
ĠY a
ĠY ou
47 2
47 4
ĠUS SR
Ġàª· àªŁàªķ
Ġpre f
Ġpo le
Ġàªĸàª¡ àªķàªµ
Ġà¤° à¤ķ
Ġà¤° à¤¸
Ġag es
Ġtrans it
39 1
Ġà¤¦ à¤°
Ġent ered
Ġà¦ ¶
Ġà¦ ¸
Ġà¦ ī
Ġà¦ Ń
àª¬àªĹ àª¸àª°
Ġà¤Ĺ à¤ı
Ġà«©à«® à«¦
Ġà«©à«® à«¨
Ġà«©à«® à«®
Ġcomp r
Ġcomp onents
à«ĩâĢĻ .
hes is
Ġunder lying
Ġval ley
Ġval idity
àªĸàª¥ àªĪ
à«§à«¯à«ª à««
Ġà«©à«© à««
Ġà«©à«© à«©
Ġà¤¤ à¤¤
Ġà¤¤ à¤µ
Ġstud ied
Ġàª®àª¹àª¦ àªħàª¶
Ġàªļàª°àª£ àªª
Ġap plied
Ġà«§à«®à«¦ à«¯
SI CSR
àªĹàªĿ àª²àª¨
àªĲ àªķ
àªµàª°àªķ àª°
Ġsm ell
Ġreg ions
à«§à«¯à«¯à« «
42 7
oot er
sc ape
Ġbl imp
Ġext ension
Ġsim ultaneously
han ia
àª¸àªĹàª¢ àª®
66 7
Ġcor resp
Ġacc om
Ġacc used
Ġman iraptor
Ġà¤Ĩ à¤§
Ġàª¦àª¶àªķ àª¥
àªĨàªīàªŁ àªª
Ġà«ªà«¦à«¦ à«ª
Ġdisc rim
Ġview ers
Ġà««à«« à«Ń
ĠAr desh
à¦¾ !
Ġpos itions
ĠàªĨàªĩàªı àªıàªıàª«
Ġ180 5
Ġatt ach
Ġatt itude
Ġatt ention
ĠKr rish
à¤°à¤¤ à¤Ń
arn ing
à«©à«« à«®
Ġapp osition
Ġend ed
ict ur
ict ive
Ġrele asing
àªį àªĹ
àªį àª¡
àª§àª¸ àªĺàª¨
its chri
ĠAl am
á¹ ģ
á¹ Ľ
ĠThere fore
ĠThere after
à«§à«¯à«¬ à«¯
àª¸àª¨àªĹàª° àª¥
Ġco elur
Ġinst ance
IP A
Ġàªĩàª¯ àª³
Ġàª¸àª°àª¹ àª¦àª®
Ġwrit ers
ron aut
ron ze
ĠÏ ķ
Ġàªıàªıàª® àªĨàª°
Ġcur d
Ġcur ry
à«§à«¯à«« à«§
Ġmon arch
ĠMah m
Ġart ists
Ġart istic
àª¨àªµàª¸ àª¹
Ġmem br
Ġmusic ians
ĠPro f
the ta
Ġàªľàª³àª® àªĹ
àª¡àª°àª® àª²
Ġty rann
Ġset tle
ĠàªĬàªł àª¯
Ġbr idge
Ġinflu ences
ex press
àª¿' .
Ġà¤ī à¤²
Ġà¤ī à¤¸à¤ķ
Ġà¤ī à¤¨à¤ķ
amp ion
à«§à«¯à«© à«¬
ruct ed
àªľàª®àª¹ àª²àª®
Ġvill ains
Ġàª®àª¹àª®àª¦ àªª
ĠAd ditionally
Ġà«§à«¨à«¦ à«Ńà«¨
ĠLe b
Ġorgan ised
Ġold est
Ġser ve
Ġà«§à«¬à«¦ à««
Ġchar ge
Ġcar ried
AC àª¨
àªĵàªµàª° àª²
mon wealth
Ġconst itute
Ġfeat hered
Ġsk y
Ġàªªàª²àª¸ àª¦àª°
Ġcrit ically
Ġà¨ ¦
Ġà¨ µ
Ġinv estigation
riv ia
Ġdesc ription
US S
ĠQ ayamat
Ġcond om
Ġgen us
à«§à«¯à«¨ à«®
Ġland ing
Ġland sl
Ġpoint s
Ġlast ed
à«¯à«® à«¦
ĠØ ´
osp heric
hal ani
ĠIs lands
à© ±
à© ĭ
àªĵàªıàª¸ àªĵàª¸
ĠSc ience
ĠMe hbo
à¦¯ à¦¬
Ġàªıàª¨àªıàªļ àªıàª¸àª¨
Ġep it
ĠSch we
Ġàªħàª¡àªļàª£ àª°
Î¿ Î½
onom ic
ĠMinist ers
ĠMinist ry
Ġresult s
Ġmass es
Ġnear by
FA OY
ĠàªĪàª¯ àª³
Ġmat hematic
à«§à«¯à«§à« ¦
à«§à«¯à«§à« ¬
Ġdel ivered
ĠAc res
Ġrest ricted
ĠPar liament
ĠST I
Ġbre eding
Ġdra wn
Ġann elids
Ġàª®àª¦àª¨ àª²
ĠNa HCO
à¦Ĺ à¦£
Ġadv ant
Ġspecial ized
Ġdiscover ies
Ġredu cing
ĠMad ras
ĠMad urai
Ġproper ly
ier ce
ÙĦ Ùħ
ÙĦ ÛĮ
ĠPh ool
Ġstat us
Ġexpl osion
Ġavail ability
Ġancest ry
Ġfac ult
Ġdr illing
Ġdr unk
istic ated
SS H
ËĪ k
àªıàªķàªµ àªļàª¨
Ġpat ron
ĠNe hru
Ġlim bs
Ġrece ive
Ġrece ipts
ĠRad ha
Ġarg ument
ĠÏĢ Î±
Ġtyp ical
Ġtyp ically
Ġtechn ology
Ġsil ence
Ġmar ine
à«§à«§à« ¨
ĠSing apore
Ġprote in
Ġconsist ently
Ġforest s
àªĿàª¡àªª àª¥
Ġbill bo
Ġpar abolic
ĠCor iander
Ġofficial s
Ġlyric ist
Ex pand
IN G
Ġàªªàª¯ àªĹàª®
Ġàª²àªª àª¸àª£
àªĨàªī àªŁàª®
àªĨàªī àªŁàª¸
Ġmer it
Ġàªıàª®àªıàª® àªĨàª°
à¦¨ à¦Ĺà¦£
Ġfund ed
Ġden ominations
Ġrad iation
ĠSp ain
ĠSp ace
Ġgu arant
ĠKa agaz
ĠKan pur
150 7
Mus ic
cont rol
ĠÃ ¦
Ġgre w
ĠKhan na
Ġvol unt
Ġvol ume
Ġbrother s
Ġturn ed
à¦° à¦¤
das pur
ÙĨ Ø
Ġvers ions
ĠàªĿàª® àªĿàª®
isch ians
ĠCl ub
ĠPart ner
Ġexper ts
Ġabs ence
Ġabs olute
Ġcollect ed
ÛĶÛĶ ÛĶÛĶ
Ġæ Ĺ
Ġè Į
Ġcirc ular
Ġcirc ulation
Ġport ion
Ġlif ted
Ġscript s
Ġscript ures
Ġbelong ing
band ar
àª¥àª°àª« àª°
ĠAct ress
ĠSat ya
Ġlab or
Ġlink ed
à¤ľà¤¨ à¤Ĺà¤£
Ġskele tons
ĠExpress ways
Main article
ĠSan ctuary
ĠNI OS
unt u
Ġleg isl
Ġimm ature
Ġdisplay ed
Ġteam àª¢
Ġdistingu ish
Ġenvironment al
ÙĪ Øª
Ġtax is
Ġachie ve
àªħàª®àª² àª¸
ĠAD R
Ġlook s
ĠDinosaur s
Ġju j
Ġconstruct ed
Ġàªıàª®àªıàª¸ àªıàª¸àª¸
à¦ľ à¦¨à¦Ĺà¦£
Ġà«¯à«¯à« ¯
Ġadapt ations
Ġdistribut ed
Act or
PO V
Ġà¤ĺ à¤Ł
Ġhistor ical
ĠSa igal
àªıàª®àªıàª® àªıàª«
ĠCont emporary
ĠMore over
Ġbeg un
Ġglobal isation
ĠDhar mend
Ġactual ity
Ġpron ouncing
ĠShah ani
Ġàª®àªĸ àª®àª²
ĠàªĽàª³ àªķàªªàªŁàª¥
Ġtheat res
Ġsn ack
Ġfa una
Ġfail ed
Ġfail ure
ĠBur man
ĠVij aya
Ġchance llor
Ġflu id
Ġsurround ing
Ġsurround ings
Ġrapid ly
}, \
Ġess entially
Ġencyclop edia
ĠàªĪàª®àª° àªľàª¨
ĠGDP àª¨
ĠNiger ian
ĠDV D
Ġsucce ed
Ġcompos ers
Ġhero ine
ĠAmb ala
Ġterrit ory
Ġoppos ing
Ġemerg ing
530 83
go ing
Ġfr ame
Ġfr ont
Ġàªıàª®àªı àªĵ
ĠMoh ammed
ĠDis co
Ġprogress ed
Ġrelations hips
Ġnewsp aper
Ġbring ing
Ġconflic t
Ġconflic ts
Ġarchitect ure
Ġdimin ishing
ufact uring
Ġreb irth
ĠCP R
ĠMH z
ĠDes pite
ĠLin ux
Ġord ered
Ġadvert ising
Ġresist ance
Ġteac her
Ġteac hers
Ġcorru pt
Ġdetail ed
Ġcycl one
Pl ay
Ã¦ dia
Ġill ust
Ġult imate
Ġcab aret
Ġcust om
Ġcinem atography
Ġwitness ed
Ġdou ble
Ġdia ps
Ġdomin ant
ĠBall iol
ĠGov ind
ĠNor thern
Ġweather box
ĠMadh umati
Ġreplace ment
ĠSheed i
ĠSheed is
Dinosaur s
spe aking
âĻ Ń
Ġpurch ase
Ġà¤Ĳ à¤¤
Ġdam age
ĠAk al
ĠTw entieth
ĠSte ve
ĠPale ocene
Ġanatom y
Ġrhy th
ĠUtt ar
ĠâĪ Ĺ
Ġsynt hetic
Ġrefuge es
ĠComp any
ĠProtoc ols
Ġphenomen on
Ġàª®àªķàª¨ àªľ
Ġsus pect
Ġfair ly
Ġpir ated
ĠSind h
ĠCH T
Ġconclus ions
Ġseg ments
Ġsect or
ĠWild life
Ġimper man
Ġkilogram s
Ġdecre asing
Ġcourtes ans
aÉª n
Ġcro res
Ġcampaign s
Ġbanc u
Ġpil ot
ĠIr ani
ĠApp Id
àª°àªĸàª¬àª°àªķ àª°
ĠPO RT
ĠPhys ik
Ġstim ulation
ĠJh arkhand
gradu ate
Ġdisput es
ĠBene gal
Ġwaters hed
Ġtriang les
ĠTyrann osaurus
Ġmelod ramatic
Ġstreng th
ĠPortugues e
Up date
Ġerr ors
àªļàª³àªµ àª³
Ġàª§àªĹàª§ àªĹàª¤
Ġtou ch
Ġceratops ians
Ġàªıàª®àªıàª² àª¦
ĠGram my
ĠNi halani
ĠRos han
Ġconvent ions
ĠES PN
Ġvess els
Ġexpos ure
Ġcontrovers ial
Ġimpos sible
ĠBhrig u
ĠScreen writers
Ġcatch y
ĠDARP A
Ġrecommend ations
Ġcrocod ilians
Ġworship ped
Ab out
Aust ral
àª½ àªª
ĠàªıàªĨàªĩàªı àª¡
Ġcuis ine
Ġfulf ill
Ġboot leg
ĠSout heast
Ġninet eenth
ĠMeth od
ĠPor bandar
ĠNaw ab
ĠNee cha
Ġster ling
ĠRaf i
Ġconne ctions
ogene ous
ĠChitt agong
Ġsched ules
ĠUnivers ities
Ġà¦¤ à¦¬
Ġpossib ly
Î¹Îº ÏĮÏĤ
Ġlaun ched
Ġlifest yle
ĠSecond ary
ozo ic
ENI ACàª¨
Usp op
UHFF FAOY
Ze itschri
rhe a
¹ï ¸ı
âı ¹ï¸ı
à«Ĥà¥¤ .
Ġàª§àª¸àª® àª¸àª¤
ĠàªĿàª®àªķ àª¦
Ġsoph isticated
Ġfurn it
Ġfiel ds
ĠfÃ¼ r
Ġbudg ets
Ġmids ize
ĠIguan odon
ĠAap ke
ĠTolly gunge
ĠShy am
ĠSov iet
ĠSSE Màª¨
Ġlav ish
Ġliz ards
ĠBAF TA
ĠMert on
ĠMoul in
ĠPac ific
ĠPAS V
Ġgonor rhea
ĠHaus a
ĠRoug e
ĠEDS AC
ĠOft en
Ġusitat issimum
Ġshoot ing
Ġchlam ydia
ĠChup ke
InCh I
Ġsyph ilis
Ġmaniraptor an
ĠArdesh ir
ĠMehbo ob
Ġbillbo ards
Ġguarant ee
Ġvolunt ary
à¦°à¦¤ à¦Ń
à¦ľà¦¨à¦Ĺà¦£ à¦®
ĠDharmend ra
Zeitschri ft
" ]
" âĢĶ
% :
. )
. ;
. ï¿½
/ )
0 17
0 98
0 86
1 19
1 200
2 12
2 14
2 25
3 19
3 30
3 40
4 10
4 40
4 28
5 60
5 77
5 69
6 80
7 000
7 25
7 48
8 80
8 85
8 79
9 40
? '
? âĢĻ
? âĢĿ
A m
A nekÄģntavÄģda
B O
C F
C L
C ar
C ol
C av
C rit
D E
D H
D e
F ollowing
F ooter
G lobal
H owever
J ain
L P
M A
M O
M V
M pl
M ore
M umbai
M otion
M yth
N on
N ew
P P
P V
P n
Q u
R ab
R udra
S e
S everal
T T
T X
T op
T amil
T rivia
V I
W I
W est
W hen
Y R
b É
b us
b ach
b oy
b ody
b ios
c i
c id
c ious
c ured
c ross
d ed
d iv
d own
d rogen
f rom
f ish
f ast
f ile
f ield
f ety
g ing
g ans
h us
i en
i ot
i ative
k h
k i
k en
k ing
k ele
l al
l ar
l ation
l arg
l ink
l ogen
m ar
m all
m iss
m ade
n àª¨
n se
o il
p et
p ol
p ost
p ublic
p illars
r us
r ations
r uth
r ison
r ument
s ar
s ing
s im
s ha
t ÉĻ
u h
u able
v Äģ
w ana
w ells
w span
w iki
w hich
x ul
y s
y an
y as
y ak
y rt
z ard
} {
¥ Ø
¯ è
° Ø§
³ Ú©
µ Ø±
¹ ÙĨÛĮ
Ã ¢
Ã «
Ê ĥ
Î ®
Ð ²
Ð ´
Ð »
Ñ Ĥ
Ñ ĥ
Ø Į
á ½
å ¤
å ħ
æ ĭ
æ ľ
ç Ļ
é ģ
é Ľ
Ġ >
Ġ à«ĩ
Ġ ion
Ġ ig
Ġ ÙĪ
Ġ à¶
Ġ ï¿½
Ġ ÄĢcÄģrya
Ġ ÙĨØ
Ĵ àªµàª¤
ķ ×
Ġàª Ĥ
àª¾ ),
à«ĩ âĢĵ
à«ĩ âĢĺ
à«ĩ âĢį
àª° àªĹàª®
àª° àª°àª¸
àª° àªĨàª°
àª° àªªàª®
àª° àªĹàª¢àª¨
àª° àªĺàª°àª®
à«į à«ĭ
à«į àª¾,
à«į àª¾.
à«į âĢĻ,
àª¨ àªĨ
àª¨ àª°àª¶
àª¨ àª²àªķ
àª¨ àª¯àªª
àª¨ àªŁàªµàª°
àª¨ àª°àª¹àª°
à«Ģ &
à«Ģ =
à«Ģ âĢĵ
à«Ģ àªģ
à«Ģ ||
à«Ģ âĢĺ
àªĤ à«ģ
àª® àªĿ
àª® àªµàª²
àª® àª¯àªķ
àª® àª¬àª³
àª® àªŁàªµ
àª® àª°àª£àª¨
àª® àªĸàª¡
àª® àªĭàª¤
àª® àª«àª³àª¨
àª¤ àª®àª®
àª¤ àªµàª¤
àª¤ àª¸àª®
àª¤ àªªàª¤
àª¤ àªĵàªı
àª¤ àª²àª¸
àª¤ àª«àª°
àª¤ àªĭàª·
àª¤ àªĸàª¤àªª
àªµ àªµàª¨
àªµ àªĺàª°
àªµ àªķàª¸
àªµ àªŁàªķ
àªµ àªķàª¤
àªµ àªļàªķ
àªµ àª¦àª¤
àªµ àª¬àªļ
àª¯ àª¡àª®
àª¯ àª¥àª¨
àª¯ àªĿàª¨
àª¯ àª¯àª¨àª®
àªķ àªĺàª°
àªķ àªķàª°
àªķ àª£àª®
àªķ àªħàª¨
àªķ àªıàª¨
àªķ àªłàªµ
àªķ àª«àª¨
àªķ àªĵàªµàª°
àª¿ )
à«ģ âĢĿ,
àª² àªĩ
àª² àªĹàª¨
àª² àª°àª¹
àª² àª£àª¨
àª² àªªàª£
àª² àª£àªķ
àª² àªħàª°
àª² àª¦àª¸
Ġàªª àªľ
Ġàªª àª¦àª°
Ġàªª àª¨àª¦
Ġàª¸ àª¶
Ġàª¸ àªĺàª°
Ġàª¸ àªµàªľ
Ġàª¸ àª£àª¸
Ġàª¸ àªĹàª¡
Ġàª¸ àªĹàª°àª®
Ġàª¸ àªħàª¦
Ġàª¸ àªĩàª¦
Ġàª¸ àªĨàª¦àª¤
Ġàª¸ àªĪàª¦
Ġàªķ àª¸àª®
Ġàªķ àª¯àª°
Ġàªķ àªŁàªķàª®
àª¸ àªħ
àª¸ àªĩàª¨
àª¸ àªªàª£
àª¸ àªļàª°
àª¸ àª¹àªķ
àª¸ àª¦àªĹ
àª¸ àªħàª¦
ĠàªĨ àªı
ĠàªĨ àªļàª¨
ĠàªĨ àª²àª¬
ĠàªĨ àª«àª°
ĠàªĨ àªłàª¨
ĠàªĨ àª¸àª¨àª®
Ġàª¤ àªŃ
Ġàª¤ àªªàª¨
Ġàª¤ àª¸àª²
Ġàª¤ àªħàªĿ
Ġàª® àªľàª¨
Ġàª® àªħ
Ġàªľ àª£àªµ
Ġàªľ àª²àª®
ĠàªĽ àª¸
ĠàªĽ àªĹàª¨
àªĹ àªĽ
àªĹ àªĺ
àªĹ àªĹàª¨
àªĹ àª«àª³
àªĹ àª¡àªµ
àªĹ àªŃàªĹ
àªĹ àª¶àªķ
àªĹ àªķàª¥
àªĹ àª°àª¤àªŁ
Ġàªħ àªªàª¤
Ġàªħ àª¯àª®àª¨
Ġàªħ àª¶àª°
Ġàªħ àª°àªķàª®
Ġàªħ àª¯àª¨àªµ
àªŁ àª¸àª°
àªŁ àªķàª²
àªŁ àªħàª°
àªŁ àªĨàªīàªŁàª®
àªľ àª²àª¨
àªľ àª¤àª°
àªľ àªªàª£
àªľ àª²àªĹ
àªľ àª¶àªµ
àªª àª³àª¨
àªª àª¡àªķ
àªª àªľàª¯
àªª àª¥àª°
àªª àªŁàªµ
àªª àª¸àª¨àª¨
àªª àªŃàª°àª®
àªª àªħàªª
àª£ àª¬
àª£ àªķàª¨
àª£ àª°àª¸
àª£ àª¸àª®
àª£ àª²àªķ
àª£ àªŃàª°
Ġàªµ àªª
Ġàªµ àª¦àªķ
àª¥ àª¯àª¨
àª¥ àªªàª£
àª¦ àª¯àª¤
àª¦ àªĹàª®
àª¦ àªªàª£
à«ĩ. ]
à«ĩ. âĢĺ
àª¡ àª²àª¬
àª¡ àªŃàª°
àª¡ àª¶àª²
àª¡ àªħàªª
àª¶ àªĸ
àª¶ àª°àª¤
àª¶ àª¤àª°
àª¶ àª¸àª¨
àª¶ àªµàªµ
àª¶ àª¬àª°
àª¶ àª°àª¦
àª¶ àªĹàª¢
àª¶ àª¦àª¤
àª¶ àªªàª²àªŁ
à«ģàªĤ âĢĿ.
Ġàª¹ àª°àª¨
Ġàª¹ àªĺ
Ġàª¹ àª°àªµ
Ġàª¹ àª°àª¡
Ġàª¹ àª®àª¦
Ġàª¹ àªłàª¨
Ġàª¹ àª°àª¦àª¯
àª¹ àª²àª¨
àª¹ àª°àªķ
àª¹ àª¬àª°
àª¹ àªªàª¤
Ġàªħàª¨ àª®
Ġàªħàª¨ àªµàª¦
ĠàªĹ àª¨àª®
ĠàªĹ àªĹàª¡
àª§ àªı
àª§ àª°àª®
àª§ àªŁàª¨
àª§ àª¸àª°
àª§ àª®àªķ
àª§ àª°àª¬
àª§ àª°àªľ
Ġàª° àªĸàª¤
Ġàª° àª¡àª°
Ġàª¦ àª¨
Ġàª¦ àª¯àª¨
Ġàª¦ àªī
Ġàª¦ àªµàª°
Ġàª¦ àª¬àª¦
Ġàª¦ àª¹àª°
Ġàª¨ àª§
Ġàª¨ àª¡àª¤
Ġàª¨ àª®àªµ
Ġàª¨ ÃĴ
Ġàª¬ àªĺ
Ġàª¬ àª¡àªµ
Ġàª¬ àªķàªµ
Ġàª¬ àª°àªľ
Ġàª¬ àª³àªķ
Ġàª¬ àª³àª®
àª³ àªĿ
àª³ àªľàª³
àªļ àª¸àª¨
àªļ àª°àª¸
àªļ àª¤àª¤
àªļ àªħàªª
Ġàªı àªĹàª°
Ġàªı àªŁàªķ
Ġàªı àª¦àª²
Ġàªı àª²àªµ
Ġàªı àª¥àª°
Ġàªı àªŃàª²
Ġàªı àªıàª¸àªª
Ġàªı àªĩàªıàª¸
ĠàªŃ àª°àª¤àª®
ĠàªŃ àªĹàª¨
ĠàªŃ àªŃàªķ
Ġàªķàª° àª²
Ġàªķàª° àª¸
Ġàªķàª° àªĿ
Ġàªķàª° àªĹàª°
àªĸ àª§
àªĸ àª¸àª°
àªĸ àª¡àª¨
àªĸ àª£àªķ
àªĸ àª£àªª
àª¬ àªŁàª¨
àª¬ àª¸àªµ
àª¬ àªĪàªı
àª· àªı
àª· àª°àªµ
àª· àªļàª¨
àª· àª°àª¹
àª· àª°àª¥
Ġàª² àªĽ
Ġàª² àª¢
Ġàª² àª¢àª£
Ġàªĸ àª¨àª¨
Ġàªĸ àªµàª²
àªĵ àª°àª¨
àªĵ àª¸àª¨
àªĵ àª¢àªµ
àª°àª¤ àª°àª¤
àª°àª¤ àªŁàª¨
àª°àª¤ àªŁàª¥
àªŃ àª¨àª®
àªŃ àªķàª¤
àª®àª¨ àªľ
àª®àª¨ àªª
àª®àª¨ àª¥
Ġàªī àªĿ
Ġàªī àª¤àª®
Ġàªī àª°àª¸
Ġàªī àª§àª°
Ġàªī àª¥àª°
Ġàªī àª¹àª¦
Ġàªī àª¶àª¨àª¸
Ġàªıàªķ àªŁàª¨
Ġàªıàªķ àªļàªķ
àªľàª° àª¸
àªĩ àªľàª°
àªĩ àª¯àª¨
àªĩ àªµàª²
àªĩ àª°àªµ
àªĩ àªķàª®
àªĩ àª²àª¬
àªĩ àªħàª¨
Ġàªªàª° àªµàª°
Ġàªªàª° àª£àª¨
àª« àª°àª®
Ġàªļ àªŁàª¨
Ġàªļ àªķàª°àª¡
Ġàª¡ àª¶
Ġàª¡ àª°àªª
Ġàª¡ àªķàªµàª°
àªĪ àª¹
àªĪ àª¦àª¨
àªĪ àªıàª®
àªı àª¯
àªı àª°àªķ
àªı àªķàª¤
àªı àª¥àª¨
àªı àªŁàª°àª¨
àªı àª°àª²
àªı àªļàª°
àªı àªıàªª
àªı àªıàª¸àªı
àªı àªĨàª°àªª
àª°àª® àªŃ
àª¯àª¤ àª¥
Ġàª« àª¡àªķ
Ġàª« àª³àªķ
àª¯àª¨ àª®àª¸
àª¶àª¨ àª¸àª°
àª°àª£ àªı
àª°àª£ àª¯àªķ
àª°àª£ àªĹàª£
à«ĩ, âĢĿ
Ġàª§ àªªàªµ
Ġàª§ àª¨àª¦
à«Ī âĢĿ
à«Ģ. )
Ġàªĺ àª¨àª¨
Ġàª¯ àª°àªµàª¡
àª°àªķ àªļàª°àª¨
Ġàªĵ àªŁàª°
Ġàªĵ àª¯àª²
Ġàªĵ àªıàª¸àª¨
Ġàªĵ àª¢àª¤
Ġàªĵ àªıàª¸àªıàª¸
àªĽ àªª
àªĽ àªŃ
àªĺ àªĽ
àªĺ àª¨àª®
àªĿ àªµàª°
àª§àª¨ àªµ
Ġàªīàªª àªķàª²
àªł àªķàªµ
àªł àª®àª²
àª¤àª° àªµàª¡
à«ĭ. '
Ġàªµàª° àªª
Ġàªµàª° àªļ
Ġàªµàª° àªĺ
Ġàªµàª° àª¶àª¹
àªĨ àª°àª¤
àªĨ àª®àª¨
àªĨ àª¸àª¨
àªĨ àªľàªķ
àªĨ àªªàª¤
àªĨ àªĪàª®
àªĨ àªµàª¶
àªĨ àªªàª¡
àªĨ àªĪàªıàª«
àªī àª¥àª®
àªī àª°àª¯
àªī àª¦àªĹ
àªī àª¥àª°
àªī àª¸àª°àª¨
àªī àªªàªļ
àªī àªľàª³
àªī àªķàª°àª¡
àª¾. )
àªµàª° àªļ
àªµàª° àª¦àª¤
Ġàª¤àª° àªµàª¡
Ġàª®àª¹ àª¬
àª£àªµ àª¦àª°
à«¦ à«§à«Ń
Ġàªĩ àªĩ
Ġàªĩ àª¡àª²
Ġàªĩ àª¶àª°
Ġàªĩ àª¡àª°àª®
ĠàªĨàªª àª°
ĠàªĨàªª àªµàª¨
àªµàª¨ àªªàª¦
àª°àªµ àª¯àª¨
Ġt om
Ġt ut
Ġt ab
Ġt ill
Ġt omb
Ġt ale
Ġt ables
Ġt rying
àªµàª¤ àª¦
Ġàª¸àªµàª²àª¤ àª¨
Ġàªīàª¤ àª°àª¨
Ġàªīàª¤ àª¯àª°
àªķàª° àªľàª£
àª®àª£ àª¬
àª®àª£ àªı
Ġ2 10
Ġ2 11
à«ĢàªĤ âĢĻ
àªľàª¨ àª¸àª¤
àªªàª° àªŁ
àª¯àªķ àª²àª®
in h
in st
in ity
in oc
in ations
àª°àª¸ àªŃ
àªªàª¨ àªµ
Ġàª¸àª° àªĹàªµ
à«ĭàªĤ .
Ġ" "
Ġàªµàª¸ àªĪàª¨
Ġàªħàª® àª¥
Ġàªħàª® àª°àª¸
àª¢ àª¥
àª¢ àª¬
àª¢ àªµàª®
àªħ àª³
àªħ àª°àªµ
àªħ àªĹàª¨
àªħ àª¸àª®
àªħ àªŁàªķ
àªħ àª¨àª¸
àªħ àª¶àªķ
àªħ àª§àª°
àªħ àª¨àª²
àªħ àª¸àª¦
àªħ àª¦àªŃ
àªħ àªĿàª¬
àªħ àª¡àª¦
re ll
re ted
ĠàªĪ àª¡àª°
ĠàªĪ àª¨àª¸
ĠàªĪ àªķàª¬
ĠàªĪ àª¥àª°àª®
àª¸àª° àªŃ
àª·àª£ àªľ
àª·àª£ àª¶àªķ
àª¬àª° àªļ
àª¬àª° àªĺ
àªĩàª¨ àªķàª®
Ġo vers
er os
er ox
er ted
er oid
àª¸àª® àª¸àª¨
àª¸àª® àª¯àª®
àª¸àª® àª°àª¸
àª¸àª® àª¯àªĹ
àª¸àª® àªĺàª¨àª¨
Ġàªıàª¨ àªĨàªĩ
Ġàªıàª¨ àªıàª¸àªı
Ġàªıàª¨ àªıàª®àªŁ
ĠàªĿ àª¸
ĠàªĿ àªŁàªķ
ĠàªĿ àª³àªķ
Ġà«§à«¯à« §
àªļàª¨ àª¦
Ġàªħàª¹ àª®
Ġà«¨ à«§à«©
Ġàªħàª° àªľàª¨
ĠàªħàªŃ àª¡
ĠàªĨàª° àªĵ
ĠàªĨàª° àªıàª¸àªıàª¨
àª®àª¤ àª¦
on so
Ġàª¨àªµ àªŃ
Ġs ight
Ġs ock
Ġs emi
Ġs orrow
ĠàªĬ àªľàª³
ĠàªĬ àªłàª¤
Ġàª°àªľàªķ àª£àª¨
àªĹàª¤ àª¥
àªĹàª¤ àªµàª°
at he
at ri
at istical
is em
is ers
is dom
àª°àª¹ àªª
àª°àª¹ àª¦
àª°àª¹ àª£àª®
àª°àª¥àª® àª¦àª°
àª¯àª° àªŁ
ĠàªĹàª¯ àª·
Ġàªħàª² àª°
Ġàªħàª² àª¯
Ġàªħàª² àªµàª°
Ġàªħàª² àª¹àª¨
Ġàªħàª² àª°àª¯
Ġàªħàª² àªīàª°àª¯
àª®àªľ àª®
ĠàªĨàª§ àª¸
àª¨àª® àª°
àª¨àª® àªĹ
an as
an osaurian
Ġàªīàª¦ àª¸
Ġàªīàª¦ àªŃàªµàª¸
àª²àª® àª²
es is
àª£àª¨ àªĹàª°
àªĹàªµ àªŁ
Ġc c
Ġc ut
Ġc ars
Ġc aves
Ġc rops
Ġc umin
Ġc ousin
al d
al is
al se
al ap
Ġàªªàª¦ àªª
à«ī -
Ġàª¸àª¹ àªļ
Ġàª¸àª¹ àªªàª°
Ġàª¸àª¹ àªķàª²
ar o
Ġàªħàª¸ àªŃ
àª¨àªµ àªķ
àª¨àªµ àªª
àª¨àªµ àª°àª¨
àª¨àªµ àªķàª²
it o
Ġàªľàª° àªĸ
à¥ ¬
Ġw o
Ġw arn
Ġw inn
Ġf at
Ġf ig
Ġf ove
Ġf tp
Ġf ootball
Ġf alse
ĠàªĹàª£ àªķ
à«¨ 00
à«¨ à«®à«¦
àª¤àªķ àª¡
or in
or ne
or ks
or aptor
Ġàªķàª² àªķàª²
Ġàª¸àª¤ àª¸
Ġàª¸àª¤ àªķàª°
àªªàª£ àªķ
Ġb ul
Ġb row
Ġb bc
Ġin j
Ġin ver
Ġin aug
Ġin nov
Ġm om
Ġm ent
Ġm ot
Ġm os
Ġm ir
Ġm ile
Ġm ild
Ġm oust
Ġp in
Ġp al
Ġp et
Ġp ow
Ġp un
Ġp ure
Ġp age
Ġp up
Ġp ick
Ġp riv
Ġp aint
Ġp aved
Ġp ounds
àªĸàªµ àª¡
Ġàªıàª® àª¯
Ġàªıàª® àªĨàª°
Ġàªıàª® àªıàª²àªıàª¸
àªŁàªķ àª¤
àªŁàªķ àªµ
àªıàª¸ àª¯
àªıàª¸ àªıàªļ
àªıàª¸ àªĩàªıàª²
àª¹àª¨ àªĸ
àª·àª¨ àªĹàª°
àª®àª° àªľ
àªĩàªŁ àªľ
àªĩàªŁ àª¥
àªĩàªŁ àª°àª¨
àªīàª¨ àª¥
Ġàª¤àª² àªª
àª°àª¬ àª²àª¨
Ġàªµàªĸàª¤ àª¸
ĠàªĨàªĹ àªĹ
ĠàªĨàªĹ àª°àªķàª°
àª¦àª² àªķ
Ġ. ...
ou nce
ĠàªĽàª¤ àªµ
àªķàª® àªªàª£
Ġ3 17
Ġ3 90
Ġ3 77
Ġàª²àªĸ àª¬
il ly
Ġàªµàª¹ àª¬
Ġàªħàªµ àª¯
Ġàªħàªµ àª«
à«ĤàªĤ .
as ad
Ġd ro
Ġd ign
Ġd rop
Ġd ating
Ġd war
Ġd ata
Ġd ensity
Ġd ramatic
àª®àª² àªµ
Ġàªħàªª àªŁ
Ġàªħàªª àª¦
Ġàªĸàª° àªļ
Ġà«¬ à«©à«¦
Ġà«¬ à«©à«¨
à«© à««à«¦
à«© à«¯à««
Ġàª¬àª¦àª² àªª
à«ª à«¨à«¯
om al
om pass
ĠàªŁàªķ àª¤
Ġàªħàª²àªĹ àªħàª²àªĹ
àªĸàª° àªļ
àªĨàª° àªľ
àªĨàª° àªıàª®àª¨
àªĵàªı àª¡
Ġto t
ĠàªĨàª® àªŁ
ĠàªĨàª® àª¥
àª®àª¦ àª¤
àª®àª¦ àª¶
le te
le ts
Ġàªıàª² àªĹ
Ġàªıàª² àª«
Ġàªıàª² àªıàª®
Ġàªıàª² àªĵàª¸
Ġàªıàª² àªıàª¸àªª
àª°àª¯ àªĿàª¹
àªĿàª¨ àª¥
àª°àª² àª¥
Ġà«© à«§à«¨
Ġàª°àª¸ àª²àªķ
Ġàª°àªľ àª¸
àª°àª¶ àª°àª£
Ġh i
Ġh ol
Ġh ier
àª¯àª² àª¶
àª¯àª² àª¯àª¨
Ġàªıàª¸ àªĹ
ĠI de
ĠĊ ĠĊĊ
Ġà«§à«® à«ª
Ġà«§à«® à«§à«©
Ġà«§à«® à«¨à««
Ġà«« 0
Ġà«« à«ªà«¦
Ġà«« à«Ńà«§
ĠàªĪàª¨ àªª
àªļàªµ àªŁ
Ġ4 10
Ġ4 32
Ġ4 36
àªŁàª£ àªķàª°
àª¶àªķ àª°àª¤
àª¶àªķ àªªàª£
et ically
et ta
Ġà«ª à«¨à«¯
Ġà«ª à«©à«®
Ġ18 18
Ġ18 24
Ġ18 31
Ġàª¸àª² àªĹ
àª²àª° àª°
àªŃàªµ àª¬
ur o
ur ated
ur able
ur renc
ur inji
ĠA h
ĠA ry
ĠA ff
ĠA lex
ĠA gricult
ĠT ro
ĠT ut
ĠT imes
ĠT agore
àªľàª® àªµ
ol astic
Ġe ld
Ġe ating
Ġ5 30
Ġ5 60
Ġ5 40
ĠS O
ĠS ah
ĠS now
ĠS olar
ĠS pecial
ĠS aint
ĠS ACK
âĢĿ ;
st ers
Ġàªħàª¡ àªķàªµ
Ġ20 6
Ġ20 31
àª³àªķ àª£
Ġl ip
Ġl ie
ĠàªŃàª° àªļàªķ
à«¯ à«¦à«¦
àª°àªĸ àª²
àª°àªĸ àª¬àª°àª®
àª¤àªµ àªª
àª¤àªµ àª¦àª°
àªµàªķ àªļàª°
Ġ6 10
Ġ6 35
Ġn et
Ġn ative
àªĩàª² àª¥
àªĩàª² àªŁàª¨
àª§àªµ àª²àª¨
19 24
19 29
19 44
19 07
19 01
19 53
19 56
Ġ7 14
ĠàªĶ àªĹ
àªĹàª£ àªª
Ġà«¨à«¦ à«®
àªķàªŁ àª¤àª®
Ġre nd
Ġre ign
Ġre vers
Ġàª¤àª³ àª¥
àª¨àªķ àªķ
àª¨àªķ àª¶
àª¨àªķ àª°àª¨
ve y
àª¨àªª àª¸
àªĩàªı àªª
àªµàªŁ àª¥
ro le
ro ther
Ġà«§à«ª à«§à«ª
Ġà«§à«ª à«®à«ª
am n
am y
am uni
ĠC S
ĠC re
ĠC ard
ĠC SI
ĠC arn
ĠC ertain
ĠC DO
àªļàª² àªļ
ĠB er
ĠB uck
ĠB road
ĠB etween
ĠB ureau
àªıàª¨ àªıàªļàª¸
àª¨àª¤ àª¤
àª¨àª¤ àª¥
im a
im il
us ing
us cript
àª¸àª² àªĹàª®àª¨
ce um
Ġàªħàªķ àª°àª®
àªĪàªı àª¤
àªĪàªı àª«àªı
ĠM B
ĠM es
ĠM as
ĠM os
ĠM ult
ĠM ex
ĠM ax
ĠM aced
ĠM BA
ĠM YR
àª°àª®àª£ àª²
ot he
ot al
id ences
id ium
Ġbe ar
Ġbe ans
Ġbe comes
ad as
ad ium
Ġàªīàª® àª¯àª®àª¹
ig enous
Ġàªľàª¯ àª¹
os a
os ystem
ĠP ath
ĠP hal
ĠP hysics
ĠP eri
ĠP arsh
àªªàª² àª¦àª¹
Ġàªªàª¡àª¤ àª°àª®
Ġàª¬àªļ àª¤àª¨
àªĸàª² àªª
Ġ8 70
Ġ8 83
Ġ8 85
Ġàªļàªķ àªļ
Ġàªļàªķ àªļàªķ
ay ing
ay ana
ut ra
àª¬àªĪ àª¦
Ġàªıàª° àª°àª¨
àªīàª¦ àª¯
àª¤àªª àªŁàª²
Ġàªķàª¨ àª¡àªµ
Ġ10 50
Ġ10 40
Ġàª°àª®àª¤ àªª
Ġàªķàª¥ àª³àªµ
ir us
Ġg lob
Ġg rown
Ġg irls
àªµàª¨àª¨ àª¨
àªŁàªµ àª¦àª°
Ġ15 1
Ġ15 50
Ġ15 30
Ġ15 13
Ġ15 76
Ġ15 82
Ġ15 36
àªĨàªĩ àª¶àª¹
Ġ9 50
Ġ9 44
ra ha
ra ined
ra ctions
ra ja
Ġàªĭ àªľ
Ġàªĭ àª£àª®
Ġàª¦àª² àªĸ
ĠH a
ĠH en
ĠH ong
ĠH ep
ĠH indust
ĠH udh
àªĪàª² àªŁàª¨
Ġ16 1
Ġ16 3
Ġ16 9
Ġ16 16
Ġ16 98
Ġ16 44
Ġ16 87
Ġ16 01
Ġ16 08
Ġ16 68
Ġ16 61
ist er
ist ent
ĠG P
ĠG re
ĠG ame
ĠG arg
ĠG SR
ĠG ift
ĠG ita
ĠG wal
ĠG olden
ĠG ames
Ġ17 3
Ġ17 9
Ġ17 80
Ġ17 17
Ġ17 39
Ġ17 99
Ġ17 72
Ġ17 03
Ġ17 85
Ġ17 94
àªłàªµ àª£àª®
op her
op ath
op les
ul in
ul ate
àª®àª¹ àª®àª¦àªª
Ġal ive
àª¹àª® àª¯
Ġ: -
Ġ: //
Ġfor ces
ia ble
el ve
el isaur
Ġon line
ĠN O
ĠN Y
ĠN at
ĠN anj
ĠN UTS
Ġst ations
Ġst omach
Ġst uff
àªķàª¶ àª¸
Ġà«§à«¨ à«¨à«¨
Ġà«§à«¨ à«ªà«©
Ġà«§à«¨ à«¬à«ª
ith s
Ġà«§à«« à«ªà«¦
Ġà«§à«« à«Ńà«¬
Ġà«§à«« à«¬à«®
ĠR E
ĠR at
ĠR it
ĠR ail
ĠR ama
ĠK s
ĠK àª¨
ĠK und
ĠK oll
ĠK abh
Ġan x
àªĹàª²àª® àª¯
àª¸àª¦ àª³
ac c
ac ent
ac am
ac um
Ġàªıàª¡ àª¹
Ġàªıàª¡ àª¬
Ġàªıàª¡ àª®àª¨
Ġàªıàª¡ àª¨àª¨
àªıàª² àªıàª«
àªıàª² àªıàª²àªª
Ġby pass
em ed
ĠD ar
ĠD ew
ĠD ark
ĠD urg
ĠàªĨàªĸ àª°àª®
Ġàªħàª£ àªĸ
Ġàªıàªļ àªıàª¸àª¬
20 8
20 20
20 15
20 25
ĠàªķàªŁ àªķàª¨
àª¤àª°àª£ àªµ
Ġk arma
Ġk idn
um ed
est ly
Ġàªį àª¬
Ġàªį àªľàª¨
Ġàªį àª¡àªµ
Ġàªį àªķàª¶àª¨
ag h
ag asc
ĠàªħàªŁàªķ àª¤
ri ent
Ġàª¸àª« àª¦àª°àªľ
ĠàªĨàªł àª¸
Ġcon cent
ĠF O
ĠF ox
ĠF erm
ĠF AT
Ġà«§à«¬ à«§
Ġà«§à«¬ à«¯
Ġà«§à«¬ à«ªà«¦
Ġà«§à«¬ à«Ńà««
Ġà«§à«¬ à«ªà«¨
Ġà«§à«¬ à««à«©
Ġà«§à«¬ à«¬à«¯
ĠInd ies
Ġàª¤àª¬àªķ àªķ
àªħàª° àª°
Ġà«§à«Ń à«¨
Ġà«§à«Ń à«¯
Ġà«§à«Ń à«¬à«¦
Ġà«§à«Ń à«¨à«§
Ġà«§à«Ń à«Ńà«¬
Ġà«§à«Ń à«¯à«ª
Ġà«§à«Ń à«¯à«¨
Ġà«§à«Ń à«¬à«®
Ġà«§à«Ń à«¬à««
Ġàª¬àª³ àªµàª¤
rom e
rom ae
Ġ12 72
Ġ12 69
ĠL h
ĠL et
ĠL os
ĠL ast
ĠL uc
ĠL AP
ĠL ittle
ĠE l
ĠE m
ĠE nt
ĠE ach
ĠE vent
ĠE conom
ĠE ss
ĠE PA
ĠE thi
àª²àªŃ àª¸
àªľàª¨àª¨ àª¨
Ġv an
Ġv oting
Ġv oice
àªĪàª¡ àª°àª®
Ġor gans
àªĿàª® àªĿàª®àª¨
Ġàªıàª« àªıàª²
àªµàª³ àª¦
Ġ14 20
Ġ14 03
if ically
if era
ud i
ter ian
ter bury
ain e
àªĨàª¨ àªľ
ity a
Ġse a
Ġse ctions
à«ĩ." :
Ġmo b
Ġmo ved
Ġ11 53
Ġha bit
àª°àªĹàªŁ àª¤
à¤¯ à¤ª
Ġex cess
Ġex posed
iv a
iv raja
Ġr h
Ġr ug
Ġr ising
Ġà«§à«© à«¨à««
Ġà«§à«© à«Ńà«¦
ĠU nd
Ġpro ce
Ġpro position
Ġpro be
Ġpro gramme
ab as
aur ants
Ġ13 4
Ġ13 30
àªĹàªłàª¨ àª¥
11 3
11 20
Ġàªķàª³ àª¶àª¨
Ġàª°àª£ àª¬
Ġàª°àª£ àªŃ
ĠW I
ĠW a
ĠW alter
ĠO f
ĠO ur
ĠO ld
ĠO ff
ill ary
Ġàªīàªķ àª¬
oc c
oc on
Ġàª¤àªķ àª®àª°
Ġà¤ķ à¤ª
Ġà¤ķ à¤¶
Ġàªħàª®àª² àª¥
ĠV is
ĠV ice
ĠàªĨàªļ àª°àª£àª®
à¤ķ à¤°à¤£
18 0
18 80
18 48
18 56
ant e
so on
àª¥àª² àª¥
àª®àª¶ àª¤
àª®àª¶ àª²
Ġ|| |-!
av i
", "
Ġnot e
Ġnot ice
Ġ0 8
ĠJ e
ĠJ o
ĠJ ag
àªīàªŁ àª°àª®
à¤µ à¤ķ
all ed
à¤® à¤²
Ġà«©à«¦ à«¯
Ġà«©à«¦ à«¬à«¬
Ġ23 3
Ġ23 4
12 4
our ism
Ġ22 2
Ġ22 6
àªľàª³ àªļàª°
Ġ21 3
Ġàªľàª¶ àªŃ
Ġàª®àªľ àª¦
ap se
Ġus er
Ġsh ared
ort ing
ĠIn ter
ĠIn iti
Ġà«¨à«« à«Ń
Ġà«¨à«« à«©
16 70
16 90
16 99
16 96
Ġàªĩàª¶ àª¦
à«§à«® à«§à«¯
à«§à«® à«®à««
à«§à«® à«®à«¯
Ġàªħàªµàª¤ àª°àª¨
Ġpl ans
Ġpl az
Ġpl anes
Ġpl aces
àªĨàª® àª°àª£
15 7
ress ed
ress ion
à«Ģ' '
Ġch art
Ġch oice
Ġàªļàª³àªµàª³ àª¥
17 04
à¤² à¤¸
à¤² à¤§
à¤² à¤¬
Ġàª¦àª¹ àª¨àª¨
Ġà«¨à«ª à«¨
Ġà«¨à«ª à«¯
iz ard
Ġàª°àªĸ àª¡àª¤
30 3
Ġà«¨à«¨ à«®
Ġà«¨à«¨ à«®à«¬
60 2
Äģ kara
ip ur
ind i
ĠàªĨàªĪ àª¡àª²
ĠàªĨàªĪ àª¶àª¹
ĠàªĨàªĪ àªıàª®àªıàª«
àªĬ àª¦
àªĬ àªĸ
àªĬ àªĹàª¤
Ġcont ribution
àªĨàªĪ àªĿ
enc ing
àªıàªŁ àª²àª¨
àª²àªļ àª¸
Ġ27 7
Ġ27 8
ast y
ast ed
àªīàª² àªŁ
ell a
à«ĩ.. "
Ġim plic
Ġun e
up a
are z
Ġint ens
Ġint elligence
Ġàªĵàªªàª¨ àª¥
àª¤àª£ àªĸàª²
Ġà«¨à«¬ à«®
Ġà«¨à«¬ à«§
Ġàªµàª£ àªĸ
àªĪàªĵ àªķ
à¤¦ à¤²
àª²àªĸ àª£
àª¶àªľ àª¥
ect ious
Ġàªµàª²àª£ àª¥
Ġà«¨à«© à«¦à«¦
Ġà«¨à«© à«¨
Ġà«¨à«© à««
Ġà«¨à«© à«ª
à° ª
ĠàªĹàª³ àª¤àª°
à¤¹ à¤°
any u
Ġpart ially
ath as
Ġab und
Ġab err
Ġab use
Ġ66 1
à¤ª à¤¤
à¤ª à¤ķ
Ġper ce
Ġ{ {
àªµàª¦àª° àª¥
ĠàªĨàªĩàª¨ àª¸
ater al
Ġact ing
ĠTh omas
pp ing
Ġdis posed
Ġad ds
Ġ70 7
Ġ28 1
Ġ28 2
Ġ28 00
ah i
ah abad
à¥Ī à¤ģ
Ġà«ªà«¦ à««
Ġà«ªà«¦ à«¬
Ġà«ªà«¦ à«©
Ġev apor
Ġsc i
Ġsc ore
Ġsc ale
AN àª¨
ĠàªĹàªĿ àªµàª¹àª¨
ĠàªĹàªĿ àªµàª¹àª®
ĊĊĊĊĊ ĠĊĊ
ĠàªĨàª¡ àª¶
Ġàªĵàªµàª° àª¬
Ġàªµàªļàª¨ àª¬àª¦
Ġsp ent
Ġsp ur
Ġsp anning
Ġsp onso
Ġres emb
ism a
now ledge
Ġte xts
Ġàªīàª¦àªŃàªµ àª¥
ĠUn like
ĠUn iverse
ru g
ru cial
àª²àª¦ àª°àªµ
ved a
Ġcl im
Ġcl ad
Ġcl ubs
Ġ38 6
ont osaurus
à¤§ à¤µ
Ġàª§àª°àªªàªķàª¡ àª¥
CP P
à¤¶ à¤¸
Ġ35 00
Ġà¤ħ à¤ķ
Ġkilom eters
22 2
à¨ ¬
à¨ ¸
à¨ Ĩ
Ġà«¦ à««
Ġà«¦ à«¬
Ġà«¦ à«¯
Ġspe ak
Ġ34 3
à«ĩ? âĢĻ
àªĪàª°àª¸ àª¥
ep ers
Ġro se
Ġro oms
Ġro wspan
anc y
Ġhad rosaur
àª¯àª°àª¸ àª®
Ġ29 0
Ġàª®àª°àª£ àª¤
ox id
àª¦àª°àªµ àª¨àª¨
à«§à«ª à«§à««
Ġrec onc
Ġà«¨à«® à«Ń
Ġà«¨à«® à«®
Ġme ets
Ġme ga
Ġ90 1
Ġ32 3
ĠIP àª¨
ade v
Ġcons ensus
Ġcons cious
ĠX erox
àªĿàªµ àª£àª®
ob acco
Ġàª¬àª¦ àª²àª¨
à«§à«Ń à«Ńà«¨
Ġàªľàªĩ àª¶
àªĩàª« àª¹
ĠSt r
ĠSt ar
Ġinf rast
port ed
port ing
Ġprodu ces
Ġà¤ľ à¤®
Ġrel oc
Ġfound ed
Ġy ield
ĠIt aly
Ġà«©à«¨ à«¬
ĠàªħàªĽ àª¬àª¡
à«§à«© à«¦
ĠSh ave
Ġàªļàª®àªķ àªµ
ĠàªĨàªĩàªŁ àª®àª¨
Ġcol ours
24 3
cept ions
Ġàªħàªķàª¬àª° àªª
ug a
ug an
àª¼àª¾ à«¤
36 2
36 7
Ġfl av
Ġfl ood
ĠÎ ³
Ġoff er
ĠY as
ĠY our
Ġpe g
àª¸àª°àªķ àª¡
Ġ] ]]
Ġàª¯àª¶ àª°àª¬
Ġdes ire
Ġthere by
Ġout sk
Ġpo inted
Ġloc ked
ĠPr asad
umb o
Ġàªķàª« àª¨àª®
Ġàªĸàª¡ àªķàª²
Ġà«ªà«« à«¦à«¦
Ġag encies
Ġtrans ition
Ġtrans cend
39 8
Ġear n
Ġwe b
Ġwe alth
Ġà¦ ¬
Ġà¤Ĺ à¤°
Ġà¤Ĺ à¤¤
Ġà«©à«® à«©
Ġcomp ens
Ġcomp ared
àª¯àª¯àª¨ àªĹ
Ġunder t
Ġval uable
Ġsa fety
Ġàª²àª¸ àª£àªµ
à«§à«¯à«ª à«ª
à«§à«¯à«ª à«§
àªĩàªªàª° àª¬
Ġà«©à«© à«¨
Ġà«©à«© à«§
Ġà¤¤ à¤°à¤¹
Ġàª²àªĸàª¨ àªī
Ġà«©à«Ń à«¯
ures h
àªīàª® àª°àª¸
lu ence
Ġen larg
Ġà«§à«®à«¦ à««
Ġà«§à«®à«¦ à«ª
ĠàªľàªĹàª¤ àªŃàª°àª¨
à«ĩ... ..
à«ĩ... ...
Ġàª¹àª°àª£ àª«
Ġwell s
Ġàªķàª¤ àª²àª¨
Ġà«§à«¦à«¦à«¦ à«¦à«¦
49 8
Ġsm ugg
ĠHind us
Ġsub s
Ġsub mitted
Ġrem ov
Ġrem aining
Ġrem oved
sc he
àªīàª¡ àª°àª®
erv atory
gy al
pr int
Ġem issions
ĠàªĨàªī àªŁàª¬
gal osaurus
Ġmill ions
79 8
àª²àª¹ àª¬
Ġàªªàª°àªª àªĿ
Ġacc ur
Ġdec ide
Ġcre ates
Ġman uscript
Ġgener a
Ġgener ations
Ġàªıàªı àª¡àªµ
Ġà««à«« à«¨
Ġà««à«« à««
ĠCom plex
Ġworld wide
98 6
ĠàªĨàªĩàªı àª²
ĠChe nn
Ġà«§à««à«¦ à«¯
Ġvar ied
ĠàªħàªŁ àª³
Ġàªµàª¡àª¨ àªĹàª°àª¨
Ġapp ar
Ġend uring
aw ah
àª¹àª¬ àªĿ
ĠPresid ent
ĠPresid ents
àª®àª¦àª¨ àªĹàª°
Ġàª¦àª®àª¨ àªķ
Ġàªªàª°àª¦ àª¹àª¨
Ġpres erved
ict im
ict ures
Ġ54 1
hem ical
à««à«« à«¬
àª¨àª¹àªŁàª¨ àª¥
Ø§ Ú
Ø§ ÙĨ
Ø§ ÙĦÙĦÛģ
Ġhigh ways
Ġ120 6
uc alypt
Ġinst ant
Ġinst ances
à«©à«© à«®
Ġà«©à«ª à«©
Ġdiffere nce
IP v
ĠIV àª¨
Ġsec uring
ĠÏ Ħ
Ġàªıàªıàª® àªŁ
à«§à«¯à«« à««
Ġmon k
Ġmon ks
ĠMah adev
Ġpol ar
ĠPro ject
ĠàªħàªĿ àªķ
Ġbr anc
Ġbr ings
Ġà¤ī à¤¸
Ġà¤ī à¤ļ
ĠBrit ain
Ġass ert
à«§à«¯à«© à«®
Ġbu ff
Ġmed ull
ĠMus ic
ĠLe g
ĠLe gend
Ġorgan ized
Ġorgan ization
Ġorgan izations
Ġdevelop ing
Ġplay ers
54 3
Ġnam ing
Ġà«§à«¬à«¦ à«Ń
Ġà«§à«¬à«¦ à«©
air s
àª®àªł àª¥
Ġcar ries
Ġà««à«¬ à«©
Ġperi ods
Ġperi hel
Ġàª¶àª°àª¦ àªļ
Ġà«§à«Ńà«® à«¯
àªħàª£ àª¹
àªħàª£ àªĸ
à«Ńà«¬ à«®
à«Ńà«¬ à«ª
ĠàªħàªµàªĹàª£ àª¤
Ġimport ed
Ġconst itut
Ġconst itu
à«¯à«ª à«Ń
à«¯à«ª à«§
àª¸àª¯ àª°àª¹
Ġlit re
àªīàª®àª° àªª
àªīàª®àª° àªı
Ġexpress ion
Ġphilosop hers
ef iciency
Ġà¨ ²
Ġà¨ ¸
Ġà¨ ķ
àªħàª¸àª° àªĹ
Ġsch ools
Ġinv est
ful ly
ĠàªıàªĿ àªŁ
Ġgen e
Ġgen etic
Ġconf luence
à«§à«¯à«¨ à«Ń
Ġactiv ist
Ġperson nel
Ġfamil iar
orn ed
Ġhand ic
Ġele ction
ĠCO M
àªĩàª°àª¸ àª¥
rodu ction
Ġlead ers
Ġclass ified
Ġclass ification
Ġpass ion
ey lon
ĠTr unk
ĠØ ¨
ĠØ ¥Ø
ĠØ ³Ú©
urb s
Ġstart s
Ġstart ing
ĠIs land
Ġlist ed
ĠMan na
ĠMan ufacturing
à© Ĥ
Ġz o
Ġz eylon
àªĽàªªàª° àªĽàª¨
ĠSc otland
ĠMe galosaurus
àªĩàª¬àª° àªĹ
ells chaft
Ġà¤ªà¤° à¤®
à«§à«¯à«¦ à«©
ane ous
ĠAust ria
Ġà° ª
à«§à«¯à«§à« ¯
Ġhead qu
ym bios
Ġmy s
ĠEx amples
Ġarch osaur
hav ior
Ġà«ł àª·
Ġfin ances
à««à«¬ à««
Ġdel ic
àªĨàª°àªı àªıàª®
àªĨàª°àªı àªĨàªĩ
ĠTe am
ĠTe erth
ĠPal ani
ĠPar ivraja
Ġhel ps
acter ial
Ġpolit ician
Ġàªĵàª¨àª° àª°
Ġintrodu ce
ĠAll ahabad
Ġtreat ing
Ġtreat ises
Ġadv ance
Ġsecond s
àª¹àª³ àª¦àª°
Ġopen ed
ĠMad hya
ĠMad agasc
++ ,
ST I
Ġàª¦àª« àª¤àª°
ĠKumar i
Ġàªħàªľàªµ àª¹
Ġke en
Ġcommercial ly
Ġenc ompass
Ġrece iving
amm es
ades hi
by terian
Ġve nd
Ġsit ting
Ġmin ute
Ġequ ally
Ġunivers als
Ġunivers ities
Ġphot ograph
Ġmedic ines
Ġcharacter istics
net àª¨
Ġàª¹àª°àªķ àª¯
Ġàªīàª§àª® àªª
Ġsil ent
Ġcreat ive
Ġcreat ure
Ġbo ost
Ġbo iled
Ġmar ria
à«§à«§à« «
Ġrock s
Ġtemper ate
Ġappear ing
Ġå ĮĹ
Ġast eroid
Ġsix th
Ġche wing
Ġpar liament
Ġofficial ly
IN T
ÃŃ a
àªĨàªĪàªı àª²àªı
Ġcy cle
Ġmer c
Ġthought s
ĠàªĨàªĩàªıàª¸ àªıàª²
raft s
ĠGod dess
ĠFr ont
Ġsignificant ly
sh ire
Ġopp osed
Ġreflect s
Ġsurv ive
Wik tion
Ġfind ing
Ġrese arc
Ġident ical
Ġident ify
ograph ic
ĠÃ Ĵàªµàª¤
Ġàª§àª¬ àªķàª¤
Ġàª§àª¬ àª¡àªķ
Ġfood s
Ġpub is
Ġàªıàªļàªıàªı àª²àª¨
Ġcomb ination
àª®àªķàª¨ àªĹàª°
Ġoper ation
Ġoper ated
Ġoper ating
Ġmag netic
ĠCan terbury
Ġsuper ior
Ġhapp y
Ġprof its
bl ooded
ĠâĢ¦ .
Ġthir ty
ĠBC E
Ġkill ing
Ġclaim s
Ġviol ations
Ġfocus ed
Al so
Ġcirc um
Ġpract ical
Ġpract iced
Ġlif etime
ĠBar akar
ĠMal ik
ĠMal da
Îµ Î¹
Ġeth n
Ġeth nic
hest er
ĠAct or
Ġlab our
cell i
odont s
odont ians
Ġstop ped
ĠKar amchand
ĠDr illing
à°° à°¤
ĠXX IV
á¹ĩ a
Ġskele tal
Ġcelebr ate
ĠØ§ ÙĦÙĦÛģ
ĠØ§ ÙĦÙħ
àªľàªĹàª¤ àª¸
Ġfoot notes
ĠAb him
ĠGe orge
Ġanti oxid
tebr ate
Ġimm ers
à¨¾ à¨Ĥ
Ġdepart ed
}= \
Îº Î»
Ġens ured
àª°àªĨ àª¨àª®
Ġàªľàª¦ àªĨàªħ
Ġinternational ly
Ġmiss ing
Ġmiss ile
Ġded u
ĠAL P
Ġlook ing
Ġstri ke
ĠDirect ors
ĠInst ead
Ġpossess ed
ĠĠĠĠĠĠĠĠĠĠĠĠĠĠĠĠĠĠĠĠĠĠĠĠĠĠĠĠĠĠĠĠ ĠĠĠĠĠĠĠĠĠĠĠĠĠĠĠĠĠĠĠĠĠĠĠĠĠĠĠĠĠĠĠĠ
Ġàªµàª£àªµ àªªàª°
Ġàªķàª°àª®àª¸ àª¦àª®
Ġcam el
Ġpoll ution
Ġàªıàª¸àªıàªļ àªı
ĠFI M
Ġornith opods
Ġprinc iples
Ġinterp reted
Ġincorpor ate
Ġincorpor ating
Act ress
à¤ĩ à¤¨
ĠàªĿàª¹ àª¹
Ġcater ing
Ġcater pillars
Ġbright ness
Ġpair s
Ġhistor ic
ĠNam gyal
Ġvide o
Ġplan et
Ġobt aining
Ġaddress ed
Ġà¤īà¤ª à¤²à¤¬
Ġkeep ing
Ġç İ
ĠàªĽàª³ àªķàªªàªŁ
àªĵàªĨàª° àªľ
Ġfa un
Ġfinal ists
ĠSm all
ĠCon c
Ġconn ect
ĠEn ron
Ġà«§à«§à«¯à« ©
ĠAss oc
Ġcurrenc ies
Ġreturn ed
AR C
Ġencyclop aedia
Ġtit anosaurian
ĠGo a
Ġsuff ered
Ġquant ities
Ġpoly mer
Ġeng ineering
go ogle
pan ies
Ġàª¸àªĹàªµ àª¡àª¨
Ġaim ing
Ġcross ing
ĠPers ian
ĠPand avas
Ġant ib
Ġimpress ed
Ġattract ive
Ġfrequ ency
Ġdeterm ined
Ġcook ing
Ġmil k
Ġmess ages
Ġmount ed
Ġphy logen
Ġalt itude
Ġstep wells
Ġdetail s
ĠÎ²Î±ÏĢÏĦ Î¹ÏĥÎ¼ÏĮÏĤ
Ïħ Ïĥ
Ġàª°àª¸àªķ àªª
Ġcust oms
Ġcool ing
Ġpen is
ĠSil iguri
ĠSim ilar
ĠSaur ischia
Ġnav ig
ĠGener al
ĠChic xul
Ġspir itual
Ġclos est
Ø±Ø§ Øª
Ġveget ables
Ġinterpret ation
je ction
}^{ }}
Î¬ ÏĢÏĦ
Ġàª¬àª°àªķ àª¹
Ġbit ter
Ġpurch ased
ilit ary
Ġdom ain
Ġdom estic
Ġàªıàª²àªı àªıàªķ
eles c
Ġanatom ical
iform es
ĠJust ice
Ġadj acent
á¹£ á¹ĩ
Ġphenomen a
Ġneighb or
ID C
off ice
xy gen
ĠàªħàªĹàª¨ àªĹ
asth an
ĠAB V
Ġec osystem
Ġlent il
Ġnorm al
Ġnorm ally
ĠCount y
ĠCount ries
ĠMet aphysics
ĠPan agarh
Ġgangl ia
ĠEnc yclop
Ġexact ly
Ġobserv ations
Ġastronom y
Muslim s
Ġdialect ics
Ġhypot hes
ĠØ§Ø ³Øª
ĠØ§Ø ¹ÙĨÛĮ
Cont ains
Å« tra
Éĳ ËĲ
Ð¸ Ð½
à¤½ à¤¯à¤®
Ġtur f
àªħàª¹àª® àª¦àª¨àªĹàª°
omorph s
Ġhold ing
ĠAuth ority
ĠMic hel
ĠKab hi
ĠIndepend ence
ĠLoc al
Ġarrang ed
Ġresign ation
Ġentertain ment
Ø§Ø ¡
Ġperspect ives
Ġpromin ence
Ġelectric ity
ĠAntarct ica
Ġubiqu itous
Fin anc
äº ¬
inf o
Ġwond er
Ġfif ty
Ġbod ies
Ġbath ing
Ġharv ard
ĠAst ronom
ĠTod ay
Ġnerv ous
ĠCour t
ĠCalc utta
ĠCurrent ly
ĠGur daspur
ĠNA SA
Ġstor age
ĠRed iff
Ġankyl osaurians
ĠIndust ry
ĠLy ceum
ĠEll is
Ġàªıàª«àªĨàªĩàªı àª«àªı
ĠInv estigation
Ġchann els
Ġarri ved
Ġentr ance
Ġinstrum ental
ĠProdu ctions
ĠØ¹ ÙĦÛĮ
ĠSaty arthi
Ġconclud es
Ġsovereign s
IS BN
Ġàª¸àª®àªµàª¶ àª°àª£
Ġbund les
Ġdut y
ĠTrib al
ĠSab ha
ĠBS N
ĠRBC s
ĠLah ore
Ġrhab dom
ĠObs ervatory
apat nam
Ġchol ester
Ġprep ared
Ġremark able
Ġmanagers àª¢
Ġdipl omatic
ĠØ¬ Ø§Ø¡
Ġetym ology
Ġepistem ology
ymn osper
Ġpatient s
Ġastr ological
Ġvolcan ic
ecut ive
Ġhoriz on
ĠVaish n
Ġuncertain ty
Âģ ï¿½
ĠàªĹàª¡àª® àª¥àª²
Ġarom a
ĠàªĬàª£ àªªàª¨
Ġfen est
Ġpric e
àª®àª²àªĸàª¨ àª¦
Ġhorn s
ĠAng eles
Ġthreat ened
ĠMur ugan
ĠPres byterian
ĠHig her
ĠGop al
optery x
ĠRh odes
ĠDav id
Ġwithdra wal
Ġexhib its
Ġrang es
ĠWikiped ias
ĠÂµ m
Ġlandsl ides
ÛĶÛĶÛĶÛĶ ÛĶ
ĠèĮ ¶
Ġdiaps id
Ġfurnit ure
Cav ia
Motion Picture
Myth ology
Ġig uan
Ġï¿½ Âģï¿½
ĠÙĨØ µØ±
àª¸àªħ àª¦àª¨
Ġàª®àªħ àª¶àª°
Ġàª¦àª¬àª¦ àª¬
Ġàª¨ÃĴ àªķ
Ġtab acum
Ġfove a
Ġinaug urated
Ġinnov ative
Ġpup il
ĠIde as
ĠParsh uram
ĠHudh ud
ĠGarg amuni
ĠGSR TC
ĠGwal ior
ĠNanj ib
ĠKoll er
ĠKabh ie
Ġkidn ap
ĠFerm at
romae osaurids
ĠEvent ually
ĠEthi op
ĠIniti ative
Ġaberr ation
Ġsponso red
Ġconscious ness
Ġinfrast ructure
Ġoutsk irts
Ġmanuscript s
ĠChenn ai
Ø§ÙĦÙĦÛģ Ùħ
Ġperihel ion
ĠØ¥Ø °Ø§
ĠØ³Ú© Ø±Ø§Øª
ymbios is
ĠMadagasc ar
Ġparliament ary
Wiktion ary
Ġresearc hers
ĠØ§ÙĦÙħ ÙĪØª
ĠAbhim anyu
ĠChicxul ub
! ".
" :
# ,
% -
' ),
* |
- âĢĺ
. ^
0 13
0 25
0 22
0 32
0 36
0 55
0 1667
2 45
2 75
2 90
2 79
3 18
3 12
3 14
3 13
4 14
4 30
4 22
5 17
5 49
6 000
6 60
7 82
7 38
7 284
7 3028
8 60
8 70
8 76
9 11
9 13
9 24
9 36
9 72
9 49
9 43
A nd
A meric
B i
C E
C on
C irc
C onst
C ricket
D NA
D AI
D ieu
E L
E m
E n
E lect
E conom
E arly
E nergy
E dison
F T
F e
F i
F l
F acts
F WS
G H
G P
G R
G ow
G lob
G iven
H y
H ÃŃ
H oli
H arry
H indi
I A
I O
I R
I àª¨
J e
K S
K erala
L ym
M R
M Z
M in
M ay
M ath
N av
N FWS
O f
O ut
O ff
P ar
P oll
Q IN
R M
R es
R ed
R ep
R NA
S a
S he
S ound
S te
S erv
S ystem
S heed
S ahar
T H
T L
T wo
T ert
T erm
U NI
W ith
W imb
W hich
X T
Y AG
` "'
a el
a uth
a ara
a á¹Ń
b u
b an
b ad
b ber
b idden
b olds
b gcolor
b ooks
b untu
c f
c he
c at
c ount
c ultural
c mn
d f
d ent
d irect
d ev
d ensity
d wan
e ing
e ch
e pt
e Best
f a
f i
f lu
f alls
f ashion
g h
g overn
g ov
g sub
g rown
g itimate
h ay
h ang
h aj
h olds
i ers
i ology
i ots
i ams
i enced
i Ãī
j an
j ee
l an
l ang
l aw
l anguage
m i
m or
m et
m us
m inist
m aking
m ier
m aji
n on
n ail
n ÉĻ
n HCO
o ided
p re
p ic
p ract
p artial
r n
r id
r ant
r ous
r up
r ough
r adition
r ating
r ought
r olit
s àª¨
s hip
s mith
s mall
s RNA
t el
t ers
t te
t reat
t az
u j
u it
u wa
v arez
w at
w ent
w aken
w hile
w elling
w hite
y u
y ot
y out
y Äģ
y ya
z a
z es
z il
z bek
z sche
£ «
¦ ¬
© æ
³ Ð¾
· ¯
» è
Â ±
Ã ¨
Ã º
Ã ĩ
É Ľ
Ê Ĭ
Ï Ĩ
× Ļ
× ķ×
Ø ¨
Ø ³
Ù Ĭ
à ¸
á ¼
å Ĳ
å Ń
å £«
æ Ĺ
è Ĳ
é »
ĉ Ġ
Ċ ĠĠĠ
Ġ <
Ġ í
Ġ il
Ġ [[
Ġ Ä§
ġ '"
ī ĭ
ĭ ±
ĭ ħ
Ĺ ¨
ļ Ħ
àª¾ ]
àª¾ âĢĮ
àª° àªĵ
àª° àªĪ
àª° àªªàª¨
àª° àª¦àª¨
àª° àªĹàª²
àª° àªīàª¤
àª° àªīàªªàª°
àª° àªĨàª®àª²
àª° àª§àªµàª²àª¨
à«į +
à«į à«Ģ
à«į àªĤ.
àª¨ àª¯àª¤
àª¨ àª®àª®
àª¨ àªĺ
àª¨ àª°àªµ
àª¨ àªŁàª°
àª¨ àªŁàª¨
àª¨ àª¸àªª
àª¨ àªĪàª¸
àª¨ àª¯àª¨àª¨
àª¨ àªĨàª¶
àªĤ "
àªĤ à«¤
àª® àªĺàª°
àª® àªĹàª¨
àª® àªªàª£
àª® àª¥àª¨
àª® àª¬àª¨
àª® àªļàª®
àª® àªłàª¨
àª® àª°àª£àª®
àª® àªŃàªķ
àª¤ àª¡àªķ
àª¤ àª¦àªķ
àª¤ àª¬àªķ
àª¤ àªħàª²
àª¤ àªĹàª¢àª®
àª¤ àªµàª²àªķ
àªµ àªĪ
àªµ àªªàª¨
àªµ àª³àªµ
àªµ àªķàª²
àªµ àªªàª¤
àªµ àªķàª®
àªµ àªħàª¨
àªµ àªīàª¤
à«ĭ àª¿
à«ĭ âĢľ
à«ĭ âĢį
àª¯ àª³
àª¯ àª§àª¨
àª¯ àªĹàª²
àª¯ àªĨàª°
àª¯ àª¬àª¦
àª¯ àªĹàª¦àª°
àª¯ àª¬àª°àª®
àª¯ àªħàªķ
àª¯ àªĵàªµàª°
àªķ àªĸ
àªķ àªĪ
àªķ àª¯àª®
àªķ àª¦àª°
àªķ àª¦àªµ
àªķ àª®àª¨àª¸
àªķ àªĪàª¨àª°
àªķ àªĵàªµàª°àª¨
àª¿ ",
à«ģ !
à«ģ à«ģ
àª² àª¶àª¨
àª² àªªàª¨
àª² àª°àª¦
àª² àªķàª¸
àª² àªħàª¨
àª² àª®àª¨àª¨
àª¾àªĤ ",
àª¾àªĤ ".
Ġàªª àªĿ
Ġàªª àªµàª°
Ġàªª àª³àª¨
Ġàªª àª§àª¤
Ġàªª àªªàª¯
Ġàªª àªĪàªªàª²
Ġàª¸ àªªàª°
Ġàª¸ àª¥àªµ
Ġàª¸ àª¨àªĹ
Ġàª¸ àª¨àª¤
Ġàª¸ àª¬àª²àªª
Ġàª¸ àªĩàª¹
Ġàª¸ àªĪàª¦àª¨
Ġàªķ àªµàª¨
Ġàªķ àªķàª°
Ġàªķ àªķàªµ
Ġàªķ àª£àª®
Ġàªķ àª¡àª²
Ġàªķ àªłàªµ
Ġàªķ àªĽàª°
Ġàªķ àª®àªķàª®
àª¸ àªĨ
àª¸ àª¢
àª¸ àª¸àª°
àª¸ àª³àª¨
àª¸ àªĸàªµ
àª¸ àªķàªµ
àª¸ àªķàª®
àª¸ àª¤àªµ
àª¸ àª¬àª¤
àª¸ àªıàª¨
àª¸ àª¬àª¸
àª¸ àªĹàª°àª®
àª¸ àª¥àª²
àª¸ àªĹàª¢àª¨
àª¸ àªĵàª«
àª¸ àª¬àª²àªª
ĠàªĨ àª¶àª¨
ĠàªĨ àª¤àª°àª°
ĠàªĨ àª¹àª¤
Ġàª¤ àªľàª¨
Ġàª¤ àªĸàª¤
Ġàª¤ àª¨àª¸
Ġàª¤ àª£àªķ
Ġàª¤ àªĹàª¡
Ġàª¤ àª¹àªľ
Ġàª¤ àª°àª£àªķ
Ġàª¤ àªŁàª¥
Ġàª¤ àªĿàªķ
Ġàª® àª²àª¨
Ġàª® àªŁàª¨
Ġàª® àª¸àª°
Ġàª® àª°àª¹
Ġàª® àª²àªĹ
Ġàªľ àªī
Ġàªľ àª¸àª®
Ġàªľ àª¯àª®àª²
ĠàªĽ àªłàª¨
àªĹ àªµàª¸
àªĹ àªµàª²
àªĹ àªŁàª°
àªĹ àª¦àª¨
àªĹ àªŁàª®
àªĹ àª°àª£àª¨
àªĹ àªĩàªķ
àªĹ àªŁàª¨àª®
àªĹ àªľàª¹
àªĹ àªīàªª
Ġàªħ àªı
Ġàªħ àªµàª¨
Ġàªħ àª¡àªª
Ġàªħ àªħàª¨
Ġàªħ àªľàªª
àªŁ àª§
àªŁ àª¤àª°
àªŁ àª¯àªķ
àªŁ àªĩàª¨
àªŁ àªĹàª¢
àªŁ àª¯àªª
àªŁ àªļàª°
àªŁ àª¸àª£
àªŁ àª¶àª¹
àªŁ àªħàªª
àªľ àªµàªµ
àªľ àªĹàª¨
àªľ àª³àªµ
àªľ àª®àª¤
àªľ àªªàªķ
àªľ àª³àª®
àªª àªľàª°
àªª àªµàª°
àªª àª£àªµ
àªª àªĹàª¨
àªª àª¢
àªª àªŀ
àªª àª¦àª²
àªª àªĹàª¥
àªª àª²àªµàª£
àª£ àª«
àª£ àªķàªµ
Ġàªµ àª°àª¨
Ġàªµ àª¢
Ġàªµ àªªàª°àªµ
àª¥ àª°àª¤
àª¥ àª³àªµ
àª¥ àª²àª®
àª¥ àª¡àª®
àª¥ àª°àª¡
àª¥ àª¸àª£
àª¥ àªŁàª¬
àª¥ àªĺàª¨
àª¦ àªµàªµ
àª¦ àª¦àª°
àª¦ àª¯àªµ
àª¦ àª¬àª¨
àª¦ àªµàªľ
àª¦ àªŃàªµàª¤
à«ĩ. à«¤
à«ĩ. ),
àª¡ àªĨ
àª¡ àª°àª¹
àª¡ àªĨàª¨
àª¡ àªĵàªµàª°
àª¶ àª³àª¨
àª¶ àªªàª£
àª¶ àªħàª¨
àª¶ àª²àªª
à«ģàªĤ !"
Ġàª¹ àª£àªµ
Ġàª¹ àªľàª¨
Ġàª¹ àª¨àªµ
Ġàª¹ àª°àª¬
Ġàª¹ àª¸àªµ
Ġàª¹ àª®àª¸
àª¹ àªµàª°
àª¹ àª¦àª°
àª¹ àª¡àªª
àª¹ àª¡àª¤
àª¹ àªłàª®
Ġàªħàª¨ àªķ
Ġàªħàª¨ àª¡
Ġàªħàª¨ àª¶àª¨àª¨
Ġàªħàª¨ àªĶàªªàªļ
ĠàªĹ àª¸
ĠàªĹ àªļ
ĠàªĹ àª²àª¬
ĠàªĹ àª¹àª°
ĠàªĹ àª¡àª¤
ĠàªĹ àªľàªª
ĠàªĹ àªľàª¸
ĠàªĹ àª«àª²
àª§ àªĽ
àª§ àª¤àª®
àª§ àª¸àª¨
àª§ àª¡àª¨
àª§ àªªàª£
àª§ àªķàª¡
àª§ àªķàª®
àª§ àª°àª«
àª§ àªŃàªµ
àª§ àª²àªª
àª§ àª¹àª¸
àª§ àª¸àª®àª¯àª¨
Ġàª° àª³àªµ
Ġàª° àª¶àª®
Ġàª° àª°àªª
Ġàª° àª£àª¸
Ġàª¦ àªª
Ġàª¦ àª¶àª¨
Ġàª¦ àª¡àªµ
Ġàª¦ àª®àª¦
Ġàª¦ àªĹàª¡
Ġàª¦ àªĸàª²àª¨
Ġàª¨ àªŁàª°
Ġàª¨ àª¸àª°
Ġàª¨ àª°àª²
Ġàª¨ àªĿàª®
Ġàª¨ àª¸àª¬
Ġàª¨ àªµàª¤àª¤
Ġàª¬ àª£
Ġàª¬ àªļàª¨
Ġàª¬ àª®àª°
Ġàª¬ àªķàª®
Ġàª¬ àªĸàª°àª²
ĠàªĨàªµ àªļ
àª³ àªľàª¨
àª³ àªķàª²
àªļ àª°àªµ
àªļ àª°àª¦
àªļ àª®àªķ
àªļ àªŁàªķ
àªļ àª°àª£àª¨
àªļ àª¤àª°àª£
àªļ àª²àª¨àª®
Ġàªı àª³
Ġàªı àª°àª®
Ġàªı àªĵàª¨
Ġàªı àª¸àª¨
Ġàªı àª®àªķ
Ġàªı àªĨàª°
Ġàªı àª¡àªª
Ġàªı àªĪàªŁ
Ġàªı àªıàª¨
Ġàªı àªıàªļ
Ġàªı àªıàª¸àªı
Ġàªı àªĨàªĩàªŁ
Ġàªı àªıàª«àª¸
Ġàªı àªĵàªıàª²
Ġàªı àªĨàª°àªıàªĨàªĩ
ĠàªŃ àª¨àªµ
ĠàªŃ àª¯àª¸
Ġàªķàª° àª°àªµ
Ġàªķàª° àª£àª¸
Ġàª¶ àª¯àª¤
Ġàª¶ àª¤àªªàª¥
àªĸ àª°àª¸
àªĸ àª¬àª°
àª¬ àªľàª°
àª¬ àªĹàª²
àª¬ àª¤àªķ
àª¬ àª¹àª°
àª¬ àªĩàª¸
àª¬ àªĹàª¦
àª¬ àª¦àª¨àªķ
àª· àª³
àª· àª·
àª· àªĨ
àª· àªªàª°
àª· àª®àªķ
àª· àª®àª²
àª· àª°àª¸àª®
Ġàª² àªµàª¨
Ġàªĸ àª£
Ġàªĸ àª¶
Ġàªĸ àª¬
Ġàªĸ àªĪ
Ġàªĸ àª®àª£àª¨
àªĵ àª¦
àªĵ àª°àª®
àªĵ àªµàª²
àªĵ àªķàª¸
àªĵ àª£àª®
àªĵ àªĿàª°
àªĵ àª²àªĹ
àªĵ àª¡àª¬
àªĵ àª¡àª¬àª²
àªĵ àª¡àª£
àªĵ àªĨàªĩàªª
àªĵ àª£àª®àª¨
àª°àª¤ àª¦
àª°àª¤ àªŃàª°
àªŃ àª¯àª¤
àªŃ àª¨àª¨
àªŃ àªľàª¨
àªŃ àª°àª¥
àªŃ àª¡àª²
Ġàª¥ àª³
Ġàª¥ àª°àª®
Ġàª¥ àªķàªµ
àª®àª¨ àª°
àª®àª¨ àª¡
àª®àª¨ àª¬
Ġàªī àª¯
Ġàªī àª¥
Ġàªī àª°àª®
Ġàªī àª®àª¤
Ġàªī àªĸàª¡
Ġàªıàªķ àªµàª°
Ġàªıàªķ àª®àª¥
Ġàªıàªķ àª¤àª°àª«
à«Ģ, âĢĿ
àªľàª° àªķ
àªľàª° àª²
àªľàª° àª¥
àªľàª° àªªàª¦
àªĩ àª¤àª°
àªĩ àªĹàª¨
àªĩ àªĵàªı
àªĩ àª¥àª¨
àªĩ àªŃàª°
àªĩ àªµàª°àª¨
àªĩ àªĹàª°àª¨
àªĩ àªĨàª°àªŁ
àªĩ àªĨàª°àªıàª®
Ġàªªàª° àªķ
Ġàªªàª° àªµàª¤
Ġàªªàª° àª®àªĹ
Ġàªªàª° àªĹàªľ
Ġà« °
àª« àª°àªµ
àª« àª°àªľ
Ġàª¡ àªľ
Ġàª¡ àª°àª¬
Ġàª¡ àªĹàª®àªĹ
àªĪ àª°àªµ
àªĪ àªªàª¨
àªı àªķàª¡
àªı àªĿàª¨
àªı àª¡àª²
Ġàªķàª°àªµ àª¤
àª°àª® àª°àª®
àª°àª® àª²àªľ
àª°àª® àª¬àª³àª¨
àª°àª¨ àª³
àª°àª¨ àª°àªĹ
Ġàª« àª³àªµ
Ġàª« àª¡àªµ
Ġàª« àª¸àª²
Ġàª« àª£àª¸
Ġàª« àª°àªķàª¨
Ġàª« àª¡àª¨àªµ
àª®àª® àª¯
àª¶àª¨ àª¸àª°àª®
àª°àª£ àª¯àª¤
àª°àª£ àªµàª¨
àª°àª£ àª¦àª°
Ġàª§ àªķàªµ
Ġàª§ àªĹàª¶
Ġàª¸àª® àª§
Ġàª¸àª® àª¸àª®
Ġàª¸àª® àª²àªµ
àªĹàª® àªªàª£
àªĹàª® àª°àª®àª°àª®
ĠàªŁ àª²
ĠàªŁ àªķàª¨
ĠàªŁ àª¬àª¨
ĠàªŁ àª¨àª¦
ĠàªŁ àªļàª¸
à«Ī '
à«Ī ;
à«Ģ. :
à«Ģ. ....
Ġàªªàª£ àª¨
Ġàªĺ àª²
Ġàªĺ àª®àªķ
Ġàªĺ àª¸àª°àªķ
àªµàª¸ àª£
àªµàª¸ àª°àªķ
Ġàª¯ àª¶àª¨
àª°àªķ àª£
Ġàªĵ àª§
Ġàªĵ àª°àª¨
Ġàªĵ àª¤àª°
Ġàªĵ àªĿàª¨
Ġàªĵ àª¨àª¸
Ġàªĵ àª§àªµ
Ġàªĵ àª°àªĹ
Ġàªĵ àªĨàª°àªı
Ġàªĵ àªıàª¨àªľ
àªĽ àªķ
àªĽ àª¦
àªĽ àª°àª¸
à«ĥ .
âĢ ł
àªĺ àª²àª¨
àªĺ àª¨àªķ
àªĺ àªµàªª
àªĺ àªŁàª¤
àªĿ àª°àª¤
àªĿ àª¶àª¨
àªĿ àª¯àª®
àªĿ àª²àª°
àª§àª¨ àªĹ
àª¤àª® àª£
àª¤àª® àªļ
Ġàªīàªª àª£
Ġàªīàªª àªµàª¸
Ġàªīàªª àªľàª¤
Ġàªīàªª àªīàª·
Ġàªīàªª àª¶àª®àª¨
àªł àª¤àª°
àª¤àª° àª¯
àª¤àª° àªµàª¸
àª¤àª° àªĹàª°
àª¤àª° àª«àª¨
à«ĭ. :
Ġàªµàª° àª°
Ġàªµàª° àª¸àª®
Ġàªµàª° àª¦àª®
à«Į -
àªĨ àªĹàª®
àªĨ àª¬àª°
àªĨ àªĹàª²
àªĨ àªķàª¡
àªĨ àª¨àªª
àªĨ àªªàª£àª¨
àªī àª¹
àªī àªł
àªī àª¦àª¨
àªī àªķàª²
àªī àªĿàª¨
àªī àªªàªķ
àªī àªļàª°
àªī àª²àª°
àªī àª¸àª²
àª¾. :
àªµàª° àªŁ
àªµàª° àªĨ
àªµàª° àª¬àª¦
Ġàª¬àª¨ àª¬
àª¨àª¨ àªĹàª°
àªŁàª² àª«
Ġàª®àª¹ àª¨
àªµàª² àª°
à«¦ à«§à«¦
à«¦ à«§à«§
à«¦ à«§à«ª
à«¦ à«¨à«¯
à«¦ à«¯à««
à«¦ à«®à«ª
Ġàªĩ àª²àª®
Ġàªĩ àª§àª°
Ġàªĩ àªķàª¬
Ġàªĩ àªĵàª¸
Ġàªĩ àªıàª«àªıàª¸
Ġàªĩ àªıàª¸àªıàª¸
Ġàªĩ àªĹàª¤àªª
àªĹàª° àªĹ
Ġàªµàª§ àª°
ĠàªĨàªª àª¦
ĠàªĨàªª àªµàªµ
àªµàª¨ àª°àª¸
àªµàª¨ àªŃàª°àª®
àªµàª¨ àªŃàª°àª¨
àª°àªµ àª¯
àª¸àª¨ àª¬àª¤
àªĺàª° àªª
Ġt a
Ġt an
Ġt al
Ġt ap
Ġt ry
Ġt ract
Ġt rial
Ġt unes
Ġt elesc
00 7
00 00000
àª¯àª® àª¯àª¤
àª¯àª® àª¸àª°
àª¯àª® àª¸àª°àª¨
àªķàªŃ àª°
àªµàª¤ àªķ
àªµàª¤ àª£
Ġàª§àª° àª¸
Ġàªīàª¤ àª°àª£
àªķàª° àªªàª£
àªķàª° àª¸àª¨àªª
Ġ2 200
à«ĢàªĤ !
à«ĢàªĤ -
àªľàª¨ àªĹ
àªľàª¨ àª°àª¹
àªľàª¨ àªªàª¦
Ġa x
Ġa et
Ġa id
Ġa ven
Ġa ircraft
Ġa waken
àª¯àªķ àªª
àª¯àªķ àª°àª¨
àªŁàª° àªļ
àª¦àª° àª¯
àª¦àª° àª¹
in na
in sp
àª°àª¸ àª¹
àªŁàª¨ àª²
àªŁàª¨ àª°àª¨
Ġàª¦àª° àª¶àª¨
àªªàª¨ àª¶
à«ĭ, ,
Ġàªķàªª àª¥
Ġàªķàªª àªļ
Ġàªķàªª àªŁàª¥
Ġàªµàª¸ àª®
Ġàªħàª® àª²àªķ
Ġàªħàª® àªľàª¦
ĠâĢ ł
àª¦àª¨ àªĹ
àª¦àª¨ àªªàª°
àªľàªķ àª£
àªľàªķ àª°àª£
àªľàªķ àªªàª°
àª¢ àª°àª®
Ġàªķàª°àª¤ àª²
Ġàªķàª°àª¤ àª¬
àª³àªµ àª§
àªħ àªĵ
àªħ àª¯àª¨
àªħ àª®àª®
àªħ àª°àªķ
àªħ àª¯àª®
àªħ àª¤àª¨
àªħ àªĹàª¤
àªħ àª¡àªµ
àªħ àªªàª®
àªħ àªľàª¯
àªħ àªŃàª°
àªħ àªĹàª¸
àªħ àªłàªµ
re ak
re ous
re ens
re hen
ĠàªĪ àª²àª¨
ĠàªĪ àªıàª®àªĨàªĪ
àª¸àª° àª²
àª¸àª° àªļ
àª¸àª° àªĹàª¢
àª·àª£ àª°
àª·àª£ àª§
àª·àª£ àªŃ
àª·àª£ àªı
àª·àª£ àª¬àª³
àª¥àªµ àªĹ
àª¬àª° àªĹ
àª¬àª° àªŃ
àªĩàª¨ àª¬àª°
àª°àª¦ àª¡
àª°àª¦ àª¯àª¥
Ġo ption
Ġo celli
Ġo xygen
er ia
er ge
àª¸àª® àª¡
àª¸àª® àª¶
àª¡àª¨ àª¬àª°
Ġàªªàª¡ àª¤àª°àª¨
à«ĩàªĤ "
Ġàªıàª¨ àª¹
Ġàªıàª¨ àª«
Ġàªıàª¨ àªĩàª¸
Ġàªıàª¨ àªĨàªĪ
Ġàªıàª¨ àªĨàªĪàªµ
àªķàª² àª¶
àªķàª² àª®àªķ
ĠàªĿ àª²
ĠàªĿ àª°àªµ
ĠàªĿ àª°àª®àª°
ĠàªĿ àª§àª¡
nd ra
nd rome
Ġà«¨ à«§à«§
Ġà«¨ à«§à«ª
Ġà«¨ à«¯à««
Ġà«¨ à«¯à«¬
Ġàª¸àª®àª¯ àªĸ
Ġàª¸àª®àª¯ àª¸àª°àª¨
Ġàªħàª° àª²
ĠàªħàªŃ àª¯àª¦
ĠàªĨàª° àªľ
ĠàªĨàª° àª¡
ĠàªĨàª° àªıàª¸àªıàª¸
ĠàªĨàª° àªĨàªĩàª¡
on er
Ġs ou
Ġs um
Ġs ort
Ġs now
Ġs oup
Ġs ank
Ġs amb
Ġs hel
Ġs aving
Ġs elling
Ġs ambar
Ġs angam
ĠàªĬ àª¬
ĠàªĬ àª¬àªķ
àªĹàª¤ àªľ
at ti
àª¡àªµ àªĸàª¡àªķ
is is
is her
Ġàªħàª² àª¦
àª®àªľ àª²
àª³àªĸ àªµ
àª¨àª® àª¹àª¤
an o
an u
an er
an ab
an ath
an ji
an uman
Ġàªīàª¦ àª¹
Ġàªīàª¦ àª¬
Ġàªīàª¦ àª°àª¨
Ġàªīàª¦ àª¯àª°
en ing
àª²àª® àªĹ
àªĪàª¨ àªķ
àªĪàª¨ àª«
àªĪàª¨ àªĹàª°
àªķàª¸ àª¹
àªķàª¸ àª¬àª¨
es i
es se
âĢĻ :
âĢĻ ;
Ġc e
Ġc ert
Ġc row
Ġc odes
Ġc ensus
al àª¨
al ic
al ition
al ph
ed er
ed ience
à«¦à«¦ à«§
Ġàªªàª¦ àªĨàª°
Ġàª¸àª¹ àªĹ
Ġàª¸àª¹ àªª
Ġàª¸àª¹ àªļàª°
Ġàª¸àª¹ àªľàª¸
ar b
ar ge
ar io
Ġàªħàª¸ àª«
Ġàªħàª¸ àª«àª³àª¤
àª¨àªµ àª¬àª³
àª¨àªµ àª¬àª³àª®
it age
it ative
it ius
it ially
it aries
it arian
Ġàªľàª° àª²
Ġàªľàª¨ àªµàª°
à«ģàªĤ, âĢĺ
Ġàª¥àªĪ àªı
à¥ ©
à¥ ª
à¥ ¯
à¥ ī
Ġw a
Ġw it
Ġw all
Ġw ise
Ġw alls
Ġw isdom
Ġàªĵàª« àª¶
àªľàª¬ àª²àªª
Ġàªĵàª³àªĸ àª¥
Ġàªĵàª³àªĸ àªµàª®
Ġf an
Ġf il
Ġf le
Ġf ate
Ġf iled
Ġf avor
Ġf lex
Ġf estivals
Ġf ierce
ĠàªĹàª£ àª§àª°
à«¨ à«¨à«¦
à«¨ à«ªà«¦
à«« à«¦à«¦à«¦
àª¤àªķ àª£àª¨
or o
or ig
or gan
or bed
Ġàªķàª² àªķ
Ġàªķàª² àª°àªµ
Ġàªķàª² àª®àªľ
àªªàª£ àª¦
Ġb a
Ġb h
Ġb es
Ġb ra
Ġb rit
Ġb ias
Ġb ronze
Ġin ade
Ġin ner
Ġin ternal
Ġm V
Ġm a
Ġm l
Ġm ace
Ġm ice
Ġm ank
Ġm ya
Ġm ortal
Ġm argin
Ġm artial
Ġm otor
ĠàªµàªĹ àªŁ
ĠàªµàªĹ àª¥
Ġàªµàª¡ àª¦
Ġàªµàª¡ àª¸àª°
Ġp aste
Ġp apers
Ġàªıàª® àª¡àª¬àª²
Ġàªıàª® àªıàª¸àªı
Ġàªıàª® àªıàª¸àª¸
Ġàªıàª® àªĨàª°àªĨàªĩ
Ġàªıàª® àªĨàªĪàªŁ
àªıàª¸ àª¥
àªıàª¸ àªĨàªĪ
àªıàª¸ àªĨàªĪàªª
Ġàª«àª° àª¥
Ġàª«àª° àªľàª®
àªķàªµ àª³
àª¹àª¨ àªı
àª¹àª¨ àª¸àª¨
àªķàª¡ àª²
àªķàª¡ àª¶
àªķàª¡ àª§àª°
àª®àª° àªĺ
Ġà¤ ¡
Ġà¤ ·
Ġà¤ Ī
Ġà¤ ĭ
Ġà¤ ĵ
Ġàªħàª§ àª®
Ġàªħàª§ àª¶
àª¡àª® àªµ
àª¡àª® àª¥
àª°àª¬ àª³àª¤
àª°àª¬ àª³àªªàª£
ĠàªĨàªĹ àªľàª¨
àª£àª® àªµ
ic ense
ic umT
ic inity
Ġàª¸àª¦ àª¶
ou ver
àª¾àªĤ. .
àªķàª® àªª
àªķàª® àª¦
Ġ3 95
Ġ3 102
àª¥àªķ àª°àª£àª®
à«Ń à«¨à«Ń
il us
àª¡àª° àªµàª°
Ġàªħàªµ àª³àªµ
as ian
as ph
as ya
àª°àª¡ àª¸
àª²àª¬ àª¹
àª²àª¬ àª¦àª¨
Ġd ang
Ġd are
Ġd iversity
Ġd iet
Ġd ram
Ġd ense
Ġd yn
Ġd hana
Ġd aily
Ġd rug
Ġd romaeosaurids
àª®àª² àª°
àª®àª² àª¦
àª®àª² àªªàª°
Ġàª®àª¨ àª¤
Ġàª®àª¨ àª¹àª¨
ing ton
Ġà«¬ 0
Ġà«¬ à«©à«©
Ġà«¬ à«ªà«¬
Ġà«¬ à«Ńà«¨
Ġà«¬ à«ªà«ª
à«¬ à«§à«¦
à«¬ à«§à«¯
à«¬ à«©à««
à«¬ à««à«§
à«© à«¨à«¦
Ġ' :
à«ª à««à«¦
à«ª à«¯à«§
om on
àªĸàª° àªª
àªķàª¤ àªµàª°
àªķàª¤ àªªàª£
ĠàªĨàª¶ àª¯àª¨
ĠàªħàªĹ àª¥
ĠàªħàªĹ àª°àªķàª°
Ġà«§à«¦ à«©à«¦
Ġà«§à«¦ à«§à«¨
Ġà«§à«¦ à«§à«ª
Ġà«§à«¦ à«¯à«¦
Ġà«§à«¦ à«¬à«©
àªĵàªı àªľ
àªĵàªı àª¨àª¸
àª²àªµ àªļ
Ġto oth
Ġàªľàª£ àª¯
ĠàªĨàª® àª¬
àª®àª¦ àªĹ
àª®àª¦ àªĸ
àª®àª¦ àªĹàª¦
àª¸àªª àªŁ
àª¥àª¨ àª¥
le m
Ġàªªàª¸ àª¦àªĹ
Ġàªıàª² àªĨàª°
Ġàªıàª² àªıàª²àª¸
Ġàªıàª² àªĨàª°àª¡
àª°àªŃ àª¨
àª°àª² àª¯àª¨
Ġà«© à«§à«ª
Ġà«© à«§à«¬
Ġà«© à«¯à«¯
àªķàª³ àª¦
àª¯àªµ àªŁ
àª¯àªµ àªŁàª¨
Ġ- |-|
Ġ- --
Ġàª°àª¸ àª¥
Ġàª°àª¸ àªŃàª°
àªĹàª¢ àªķ
Ġh o
Ġh on
Ġh ar
Ġh ost
Ġh olds
àªĨàª¤ àª¶
Ġàªıàª¸ àªĪàª¸
Ġàªıàª¸ àª¡àª¬
Ġàªıàª¸ àªıàª¡
àª²àª¸ àª¡
àª¨àª¸ àª¹àª¸
àªªàªķ àªµàªµ
ĠI A
ĠI raq
ĠĊ Ġ
àª¯àªª àª§
àª¯àªª àª°àªķ
Ġà«§à«® à«§à«¦
Ġà«§à«® à«©à«¨
Ġà«§à«® à«©à«ª
Ġà«§à«® à«ªà«ª
Ġà«§à«® à«©à«§
àª²àª¯ àª®àª¨
àª²àª¯ àªµàª¨
Ġà«« à«§à«®
Ġà«« à«¨à«¬
Ġà«« à«©à««
Ġà«« à«Ńà«¬
àª¡àªķ àªª
àªļàªµ àª³
àªļàªµ àª£àª¨
ĠâĢľ ...
àªļàª° àªĸ
Ġ4 70
Ġ4 45
Ġ4 77
àªŁàª£ àªĹàª¡
et her
et rieved
Ġà«ª à«§à«§
Ġà«ª à«§à««
Ġà«ª à«¨à«¬
Ġà«ª à«ªà«¬
Ġàª¨àªķ àªŁ
Ġ18 10
Ġ18 35
Ġ18 29
Ġàª¸àª² àª¤àª¨àª¤àª¨
àªŃàªµ àª£
àªŃàªµ àªľàª¨
Ġà«® à«Ńà««
Ġà«® à«¬à«¬
Ġà«® à«©à«ª
Ġà«® à«¯à«§
ur t
àª¬àª¨ àª¥
àª¬àª¨ àª¡
àª¬àª¨ àªªàªĹ
ĠA àª¨
ĠA SI
ĠA AA
ĠA nekÄģntavÄģda
ĠT R
ĠT en
ĠT ur
ĠT ak
ĠT able
ĠT ret
ĠT ower
ĠT aking
ĠT aurus
ĠT uls
ĠT MZ
ĠàªľàªĹ àª¦àª®
ĠàªľàªĹ àª¦àªĹ
ol ok
àª¯àª¸ àª°àª¨
Ġe ct
Ġe cl
Ġe ased
Ġe uphem
Ġ5 42
ĠS E
ĠS M
ĠS um
ĠS erv
ĠS aw
ĠS TA
ĠS amb
ĠS emi
ĠS CSI
ĠS angam
ĠS lum
ĠS pec
ĠS uresh
Ġà«Ń à«§à«¦
Ġà«Ń à«®à«¦
Ġà«Ń à«¨à«¯
Ġà«Ń à«¯à«ª
Ġàªħàª¡ àªļ
Ġàª¹àª° àª§
Ġ20 4
Ġ20 5
Ġ20 90
Ġ20 38
àª³àªķ àªļ
àª³àªķ àªı
àª³àªķ àªľàª¨
Ġl en
Ġl ik
Ġl ord
Ġl akh
àª°àªĸ àª¡àªµ
àª¤àªµ àª¯
àª¤àªµ àª¨àª¨
àªµàªķ àªķ
àªªàª¦ àªķ
Ġ6 16
Ġn k
Ġn ut
Ġn ine
Ġn ations
Ġn aya
Ġn erve
àªĩàª² àª°àª®
àªıàª® àª¡
àªıàª® àªıàª¨
àªıàª® àªıàªŁ
àª§àªµ àª³
19 26
19 36
19 38
19 43
Ġ7 10
Ġ7 40
Ġ7 26
Ġ7 22
Ġ7 68
Ġ7 498
ĠàªĶ àªķ
ĠàªĶ àª°àª¤
ĠàªĶ àª¬àª°
ĠàªĶ àª°àª¬
àªĸàª® àªµ
Ġàª°àªķ àª¤àª°
Ġà«¨à«¦ à«©
àªĪàªŁ àª¥
Ġàªł àª¡
àª¨àª² àª¥
Ġàª¤àª³ àªŃ
àª¬àª¤ àª¥
àª¬àª¤ àªªàª°
àª¬àª¤ àªĹàª¢
ĠĠ ĠĊ
àªĩàª¡ àª¦
[...]
