{
  "version": "1.0",
  "truncation": null,
  "padding": null,
  "added_tokens": [
    {
      "id": 0,
      "content": "<|endoftext|>",
      "single_word": false,
      "lstrip": false,
      "rstrip": false,
      "normalized": true,
      "special": true
    }
  ],
  "normalizer": null,
  "pre_tokenizer": {
    "type": "ByteLevel",
    "add_prefix_space": false,
    "trim_offsets": true,
    "use_regex": true
  },
  "post_processor": {
    "type": "ByteLevel",
    "add_prefix_space": true,
    "trim_offsets": false,
    "use_regex": true
  },
  "decoder": {
    "type": "ByteLevel",
    "add_prefix_space": true,
    "trim_offsets": true,
    "use_regex": true
  },
  "model": {
    "type": "BPE",
    "dropout": null,
    "unk_token": null,
    "continuing_subword_prefix": "",
    "end_of_word_suffix": "",
    "fuse_unk": false,
    "byte_fallback": false,
    "vocab": {
      "<|endoftext|>": 0,
      "!": 1,
      "\"": 2,
      "#": 3,
      "$": 4,
      "%": 5,
      "&": 6,
      "'": 7,
      "(": 8,
      ")": 9,
      "*": 10,
      "+": 11,
      ",": 12,
      "-": 13,
      ".": 14,
      "/": 15,
      "0": 16,
      "1": 17,
      "2": 18,
      "3": 19,
      "4": 20,
      "5": 21,
      "6": 22,
      "7": 23,
      "8": 24,
      "9": 25,
      ":": 26,
      ";": 27,
      "<": 28,
      "=": 29,
      ">": 30,
      "?": 31,
      "@": 32,
      "A": 33,
      "B": 34,
      "C": 35,
      "D": 36,
      "E": 37,
      "F": 38,
      "G": 39,
      "H": 40,
      "I": 41,
      "J": 42,
      "K": 43,
      "L": 44,
      "M": 45,
      "N": 46,
      "O": 47,
      "P": 48,
      "Q": 49,
      "R": 50,
      "S": 51,
      "T": 52,
      "U": 53,
      "V": 54,
      "W": 55,
      "X": 56,
      "Y": 57,
      "Z": 58,
      "[": 59,
      "\\": 60,
      "]": 61,
      "^": 62,
      "_": 63,
      "`": 64,
      "a": 65,
      "b": 66,
      "c": 67,
      "d": 68,
      "e": 69,
      "f": 70,
      "g": 71,
      "h": 72,
      "i": 73,
      "j": 74,
      "k": 75,
      "l": 76,
      "m": 77,
      "n": 78,
      "o": 79,
      "p": 80,
      "q": 81,
      "r": 82,
      "s": 83,
      "t": 84,
      "u": 85,
      "v": 86,
      "w": 87,
      "x": 88,
      "y": 89,
      "z": 90,
      "{": 91,
      "|": 92,
      "}": 93,
      "~": 94,
      "¡": 95,
      "¢": 96,
      "£": 97,
      "¤": 98,
      "¥": 99,
      "¦": 100,
      "§": 101,
      "¨": 102,
      "©": 103,
      "ª": 104,
      "«": 105,
      "¬": 106,
      "®": 107,
      "¯": 108,
      "°": 109,
      "±": 110,
      "²": 111,
      "³": 112,
      "´": 113,
      "µ": 114,
      "¶": 115,
      "·": 116,
      "¸": 117,
      "¹": 118,
      "º": 119,
      "»": 120,
      "¼": 121,
      "½": 122,
      "¾": 123,
      "¿": 124,
      "À": 125,
      "Á": 126,
      "Â": 127,
      "Ã": 128,
      "Ä": 129,
      "Å": 130,
      "Æ": 131,
      "Ç": 132,
      "È": 133,
      "É": 134,
      "Ê": 135,
      "Ë": 136,
      "Ì": 137,
      "Í": 138,
      "Î": 139,
      "Ï": 140,
      "Ð": 141,
      "Ñ": 142,
      "Ò": 143,
      "Ó": 144,
      "Ô": 145,
      "Õ": 146,
      "Ö": 147,
      "×": 148,
      "Ø": 149,
      "Ù": 150,
      "Ú": 151,
      "Û": 152,
      "Ü": 153,
      "Ý": 154,
      "Þ": 155,
      "ß": 156,
      "à": 157,
      "á": 158,
      "â": 159,
      "ã": 160,
      "ä": 161,
      "å": 162,
      "æ": 163,
      "ç": 164,
      "è": 165,
      "é": 166,
      "ê": 167,
      "ë": 168,
      "ì": 169,
      "í": 170,
      "î": 171,
      "ï": 172,
      "ð": 173,
      "ñ": 174,
      "ò": 175,
      "ó": 176,
      "ô": 177,
      "õ": 178,
      "ö": 179,
      "÷": 180,
      "ø": 181,
      "ù": 182,
      "ú": 183,
      "û": 184,
      "ü": 185,
      "ý": 186,
      "þ": 187,
      "ÿ": 188,
      "Ā": 189,
      "ā": 190,
      "Ă": 191,
      "ă": 192,
      "Ą": 193,
      "ą": 194,
      "Ć": 195,
      "ć": 196,
      "Ĉ": 197,
      "ĉ": 198,
      "Ċ": 199,
      "ċ": 200,
      "Č": 201,
      "č": 202,
      "Ď": 203,
      "ď": 204,
      "Đ": 205,
      "đ": 206,
      "Ē": 207,
      "ē": 208,
      "Ĕ": 209,
      "ĕ": 210,
      "Ė": 211,
      "ė": 212,
      "Ę": 213,
      "ę": 214,
      "Ě": 215,
      "ě": 216,
      "Ĝ": 217,
      "ĝ": 218,
      "Ğ": 219,
      "ğ": 220,
      "Ġ": 221,
      "ġ": 222,
      "Ģ": 223,
      "ģ": 224,
      "Ĥ": 225,
      "ĥ": 226,
      "Ħ": 227,
      "ħ": 228,
      "Ĩ": 229,
      "ĩ": 230,
      "Ī": 231,
      "ī": 232,
      "Ĭ": 233,
      "ĭ": 234,
      "Į": 235,
      "į": 236,
      "İ": 237,
      "ı": 238,
      "Ĳ": 239,
      "ĳ": 240,
      "Ĵ": 241,
      "ĵ": 242,
      "Ķ": 243,
      "ķ": 244,
      "ĸ": 245,
      "Ĺ": 246,
      "ĺ": 247,
      "Ļ": 248,
      "ļ": 249,
      "Ľ": 250,
      "ľ": 251,
      "Ŀ": 252,
      "ŀ": 253,
      "Ł": 254,
      "ł": 255,
      "Ń": 256,
      "àª": 257,
      "à«": 258,
      "Ġàª": 259,
      "àª¾": 260,
      "à«ĩ": 261,
      "àª°": 262,
      "à«į": 263,
      "àª¨": 264,
      "à«Ģ": 265,
      "àªĤ": 266,
      "àª®": 267,
      "àª¤": 268,
      "àªµ": 269,
      "à«ĭ": 270,
      "àª¯": 271,
      "àªķ": 272,
      "àª¿": 273,
      "à«ģ": 274,
      "àª²": 275,
      "àª¾àªĤ": 276,
      "Ġàªª": 277,
      "Ġàª¸": 278,
      "Ġàªķ": 279,
      "àª¸": 280,
      "ĠàªĨ": 281,
      "Ġàª¤": 282,
      "Ġàª®": 283,
      "Ġàªľ": 284,
      "ĠàªĽ": 285,
      "àªĹ": 286,
      "Ġàªħ": 287,
      "àªŁ": 288,
      "àªľ": 289,
      "àªª": 290,
      "àª£": 291,
      "Ġàªµ": 292,
      "àª¥": 293,
      "àª¦": 294,
      "à«ĩ.": 295,
      "àª¡": 296,
      "àª¶": 297,
      "à«ģàªĤ": 298,
      "Ġàª¹": 299,
      "àª¹": 300,
      "Ġàªħàª¨": 301,
      "ĠàªĹ": 302,
      "àª§": 303,
      "Ġàª°": 304,
      "Ġàª¦": 305,
      "Ġàª¨": 306,
      "Ġàª¬": 307,
      "ĠàªĨàªµ": 308,
      "à«Ĥ": 309,
      "àª³": 310,
      "àªļ": 311,
      "Ġàªı": 312,
      "ĠàªŃ": 313,
      "Ġàªķàª°": 314,
      "Ġàª¶": 315,
      "àªĸ": 316,
      "àª¬": 317,
      "àª·": 318,
      "Ġàª²": 319,
      "Ġàªĸ": 320,
      "Ġàª¹àª¤": 321,
      "àªĵ": 322,
      "àª°àª¤": 323,
      "àªŃ": 324,
      "Ġàª¥": 325,
      "àª®àª¨": 326,
      "Ġàªī": 327,
      "Ġàªıàªķ": 328,
      "à«Ģ,": 329,
      "àªľàª°": 330,
      "àªĩ": 331,
      "Ġàªªàª°": 332,
      "Ġà«": 333,
      "àª«": 334,
      "Ġàªļ": 335,
      "Ġàª¡": 336,
      "àªĪ": 337,
      "àªı": 338,
      "Ġàªķàª°àªµ": 339,
      "àª°àª®": 340,
      "àª¾,": 341,
      "àª¯àª¤": 342,
      "àª°àª¨": 343,
      "Ġàª«": 344,
      "àª¯àª¨": 345,
      "àª®àª®": 346,
      "àª¶àª¨": 347,
      "àª°àª£": 348,
      "Ġàªªàª¶": 349,
      "à«ĩ,": 350,
      "Ġàª§": 351,
      "Ġàª¸àª®": 352,
      "àªĹàª®": 353,
      "ĠàªŁ": 354,
      "ĊĊ": 355,
      "à«Ī": 356,
      "à«Ģ.": 357,
      "Ġàªªàª£": 358,
      "Ġàªĺ": 359,
      "àªµàª¸": 360,
      "Ġàª¯": 361,
      "Ġàª¥àª¯": 362,
      "àª²àª¨": 363,
      "§à«": 364,
      "àª°àªķ": 365,
      "àªķàª¨": 366,
      "Ġàªĵ": 367,
      "àªĽ": 368,
      "à«ĥ": 369,
      "âĢ": 370,
      "àªĺ": 371,
      "àªĿ": 372,
      "àª§àª¨": 373,
      "àª¥àª®": 374,
      "àª¤àª®": 375,
      "Ġàªīàªª": 376,
      "àªł": 377,
      "àª¤àª°": 378,
      "à«ĭ.": 379,
      "Ġàªµàª°": 380,
      "à«Į": 381,
      "Ġà«§à«": 382,
      "àªĨ": 383,
      "Ġ1": 384,
      "àªī": 385,
      "àª¾.": 386,
      "àªµàª°": 387,
      "àª¿àªĤ": 388,
      "Ġàª¬àª¨": 389,
      "Ġàª¤àª°": 390,
      "àª¨àª¨": 391,
      "àªŁàª²": 392,
      "Ġàª®àª¹": 393,
      "àª£àªµ": 394,
      "àªµàª²": 395,
      "Ġàª¶àªķ": 396,
      "àª¯àªµàª¸": 397,
      "à«ģàªĤ.": 398,
      "àª°àª¤àª®": 399,
      "à«¦": 400,
      "Ġàª°àª¹": 401,
      "Ġàªıàªµ": 402,
      "Ġàªĩ": 403,
      "àªĹàª°": 404,
      "Ġàªµàª§": 405,
      "ĠàªĨàªª": 406,
      "àªµàª¨": 407,
      "àªĵàª¨": 408,
      "àª°àªµ": 409,
      "à¤": 410,
      "àª¸àª¨": 411,
      "àªĺàª°": 412,
      "Ġt": 413,
      "00": 414,
      "àª¤àª®àªľ": 415,
      "àªĹàª£àªµ": 416,
      "àª¯àª®": 417,
      "àªķàªŃ": 418,
      "àªµàª¤": 419,
      "àª¯àª¤àªĺàª°": 420,
      "àªµàª²àª¤": 421,
      "Ġàª¸àªµàª²àª¤": 422,
      "Ġàª§àª°": 423,
      "Ġàªīàª¤": 424,
      "àªķàª°": 425,
      "àª®àª£": 426,
      "àªµàªµ": 427,
      "Ġ2": 428,
      "à«ĢàªĤ": 429,
      "àªľàª¨": 430,
      "Ġa": 431,
      "àªªàª°": 432,
      "he": 433,
      "àª¯àªķ": 434,
      "àªŁàª°": 435,
      "àª¤àª¨": 436,
      "àª¦àª°": 437,
      "in": 438,
      "àª°àª¸": 439,
      "àªŁàª¨": 440,
      "àªĹàª¨": 441,
      "Ġàª¦àª°": 442,
      "àªªàª¨": 443,
      "Ġàª®àª³": 444,
      "Ġàª¸àª°": 445,
      "à«ĭ,": 446,
      "Ġàªķàªª": 447,
      "à«ĭàªĤ": 448,
      "Ġ\"": 449,
      "ĊĊĊĊ": 450,
      "Ġàªµàª¸": 451,
      "¯à«": 452,
      "Ġàªħàª®": 453,
      "ĠâĢ": 454,
      "àª¦àª¨": 455,
      "àªľàªķ": 456,
      "àª¾àªĤ,": 457,
      "àª¢": 458,
      "Ġàªķàª°àª¤": 459,
      "Ġàªªàª¹": 460,
      "àª³àªµ": 461,
      "àªħ": 462,
      "re": 463,
      "ĠàªĪ": 464,
      "Ġ19": 465,
      "à«ģ,": 466,
      "Ġàªīàªªàª¯": 467,
      "àª¸àª°": 468,
      "àª·àª£": 469,
      "àª¥àªµ": 470,
      "Ġàªĺàª£": 471,
      "Ġthe": 472,
      "àª¬àª°": 473,
      "Ġàª¶àª°": 474,
      "Ġàªĺàªī": 475,
      "àªĤ,": 476,
      "Ġàªħàª¥àªµ": 477,
      "Ġàª®àª§": 478,
      "àªĩàª¨": 479,
      "àª°àª¦": 480,
      "Ġo": 481,
      "er": 482,
      "Ġàªķàª¹": 483,
      "Ġàªīàªªàª°": 484,
      "àª¸àª®": 485,
      "àª¡àª¨": 486,
      "Ġàªªàª¡": 487,
      "ĠàªªàªĽ": 488,
      "à«ĩàªĤ": 489,
      "àªĹàª²": 490,
      "Ġàªıàª¨": 491,
      "Ġàª¨àª¥": 492,
      "àªķàª²": 493,
      "Ġàª¶àª¹": 494,
      "ĠàªĿ": 495,
      "Ġà«§à«¯à«": 496,
      "nd": 497,
      "àªļàª¨": 498,
      "Ġàªħàª¹": 499,
      "Ġà«¨": 500,
      "Ġàª¸àª®àª¯": 501,
      "Ġ200": 502,
      "Ġàªħàª°": 503,
      "ĠàªħàªŃ": 504,
      "àª«àª³": 505,
      "ĠàªĨàª°": 506,
      "àª®àª¤": 507,
      "on": 508,
      "Ġàª¨àªµ": 509,
      "Ġs": 510,
      "ĠàªĬ": 511,
      "Ġàª¦àªķ": 512,
      "Ġàª°àªľàªķ": 513,
      "Ġàª¤àª¥": 514,
      "àªĹàª¤": 515,
      "at": 516,
      "àª¡àªµ": 517,
      "is": 518,
      "àª°àª¹": 519,
      "àª°àª¥àª®": 520,
      "àª¯àª°": 521,
      "ĠàªĹàª¯": 522,
      "àªŀ": 523,
      "Ġàª¬àª¹": 524,
      "Ġàªħàª²": 525,
      "àª³àª¨": 526,
      "àª®àªľ": 527,
      "àª³àªĸ": 528,
      "ĠàªĨàª§": 529,
      "ĠàªĨàª¦": 530,
      "àª¨àª®": 531,
      "Ġàª¦àª°àª®": 532,
      "an": 533,
      "Ġàªīàª¦": 534,
      "en": 535,
      "àª²àª®": 536,
      "àªĪàª¨": 537,
      "àª®àªķ": 538,
      "Ġàªĩàª¨": 539,
      "àªķàª¸": 540,
      "es": 541,
      "àª£àª¨": 542,
      "àªĹàªµ": 543,
      "àªĵàª®": 544,
      "âĢĻ": 545,
      "àª°àª¤àª¨": 546,
      "Ġc": 547,
      "Ġàª¤àª®": 548,
      "al": 549,
      "Ġàª®àªĹ": 550,
      "ed": 551,
      "à«¦à«¦": 552,
      "Ġàªªàª¦": 553,
      "Ġof": 554,
      "à«ī": 555,
      "Ġàª¸àª¹": 556,
      "àªĸàª¤": 557,
      "ar": 558,
      "Ġàªħàª¸": 559,
      "àª¨àªµ": 560,
      "it": 561,
      "Ġàª¨àª¹": 562,
      "ĠàªĨàªªàªµ": 563,
      "Ġàªľàª°": 564,
      "Ġàªľàª¨": 565,
      "à«ģàªĤ,": 566,
      "Ġàª¥àªĪ": 567,
      "à¥": 568,
      "ĠâĢĺ": 569,
      "Ġw": 570,
      "Ġàªĵàª«": 571,
      "àªľàª¬": 572,
      "Ġàªĵàª³àªĸ": 573,
      "Ġf": 574,
      "Ġàª¥àª¤": 575,
      "ĠàªĹàª£": 576,
      "à«¨": 577,
      "àªªàª¤": 578,
      "à««": 579,
      "àª¤àªķ": 580,
      "Ġàªµàªļ": 581,
      "Ġàª®àª¹àª¤": 582,
      "or": 583,
      "Ġàªķàª²": 584,
      "Ġàª¸àª¤": 585,
      "àªªàª£": 586,
      "Ġb": 587,
      "Ġin": 588,
      "ĠàªĨàªµàª¤": 589,
      "Ġàª¸àª°àªķ": 590,
      "Ġm": 591,
      "Ġàª²àªĹ": 592,
      "ĠàªµàªĹ": 593,
      "à«ħ": 594,
      "à«§à«": 595,
      "Ġàªµàª¡": 596,
      "Ġp": 597,
      "àªĸàªµ": 598,
      "Ġàªıàª®": 599,
      "àªŁàªķ": 600,
      "àªıàª¸": 601,
      "Ġàª«àª°": 602,
      "àªķàªµ": 603,
      "àª¹àª¨": 604,
      "àªķàª¡": 605,
      "àª·àª¨": 606,
      "àª®àª°": 607,
      "àªĩàªŁ": 608,
      "Ġàª¹àªµ": 609,
      "Ġà¤": 610,
      "Ġàª¤àª°àª«": 611,
      "àªľàªµ": 612,
      "Ġàªħàª§": 613,
      "Ġàª®àªķ": 614,
      "àªīàª¨": 615,
      "àª¡àª®": 616,
      "Ġàª¤àª²": 617,
      "àª°àª¬": 618,
      "Ġàªµàªĸàª¤": 619,
      "Ġàª¨àª¦": 620,
      "Ġand": 621,
      "Ġàªķàª®": 622,
      "ĠàªĨàªĹ": 623,
      "àª¥àª³": 624,
      "àª£àª®": 625,
      "ic": 626,
      "ĠàªĵàªĽ": 627,
      "àª¯àª¦": 628,
      "àª¦àª²": 629,
      "àªŁàª®": 630,
      "Ġàª¸àª¦": 631,
      "Ġ.": 632,
      "Ġàª¶àª¬": 633,
      "Ġàª¥àªĩ": 634,
      "ou": 635,
      "ĠàªĽàª¤": 636,
      "àª¶àª®": 637,
      "àª¾àªĤ.": 638,
      "àªķàª®": 639,
      "Ġàª®àªĹàª«àª³": 640,
      "Ġ3": 641,
      "Ġàª²àªĸ": 642,
      "ĠàªıàªŁàª²": 643,
      "Ġàªľàªµ": 644,
      "àª¸àªķ": 645,
      "àª¥àªķ": 646,
      "à«Ń": 647,
      "àªĥ": 648,
      "il": 649,
      "à«®": 650,
      "àª¡àª°": 651,
      "Ġàªµàª¹": 652,
      "Ġàªħàªµ": 653,
      "à«ĤàªĤ": 654,
      "as": 655,
      "àª°àª¡": 656,
      "Ġàªħàª¤": 657,
      "àª²àª¬": 658,
      "Ġd": 659,
      "ion": 660,
      "àªķàª°àª£": 661,
      "àª®àª²": 662,
      "Ġàªħàªª": 663,
      "Ġàªĸàª°": 664,
      "àª¦àª®": 665,
      "Ġàª®àª¨": 666,
      "ing": 667,
      "Ġà«¬": 668,
      "à«¬": 669,
      "à«©": 670,
      "Ġ'": 671,
      "Ġàª¬àª¦àª²": 672,
      "Ġàªļàª£": 673,
      "à«ª": 674,
      "om": 675,
      "ĠàªŁàªķ": 676,
      "Ġàªħàª²àªĹ": 677,
      "àªĸàª°": 678,
      "ĠàªĨàª¨": 679,
      "àªĨàª°": 680,
      "àªķàª¤": 681,
      "ĠàªĨàª¶": 682,
      "ĠàªħàªĹ": 683,
      "Ġà«§à«¦": 684,
      "Ġàªľàª®": 685,
      "àªªàª®": 686,
      "àª°àªª": 687,
      "Ġàª®àª¦": 688,
      "à«įâĢ": 689,
      "àªĵàªı": 690,
      "àª§àª¤": 691,
      "àª²àªµ": 692,
      "Ġàª¨àªľ": 693,
      "Ġto": 694,
      "àªµàª®": 695,
      "Ġàªľàª£": 696,
      "ĠàªĨàª®": 697,
      "à«įâĢį": 698,
      "àª®àª¦": 699,
      "Ġàª¸àªª": 700,
      "àª¸àªª": 701,
      "àª¥àª¨": 702,
      "le": 703,
      "Ġàªªàª¸": 704,
      "Ġàª®àª°": 705,
      "àªŁàª°àª¨": 706,
      "Ġàªıàª²": 707,
      "àª¬àª²": 708,
      "Ġàªļàª²": 709,
      "àª°àªŃ": 710,
      "àª°àª¯": 711,
      "àªĿàª¨": 712,
      "àª°àª²": 713,
      "àªŃàªĹ": 714,
      "Ġàªªàªķ": 715,
      "Ġà«©": 716,
      "Ġàªªàª¤": 717,
      "àªķàª³": 718,
      "àª¯àªµ": 719,
      "Ġ-": 720,
      "Ġàª°àª¸": 721,
      "Ġàª°àªľ": 722,
      "àª°àª¶": 723,
      "àªĹàª¢": 724,
      "à«§": 725,
      "ĠàªĨàªķ": 726,
      "Ġh": 727,
      "àª¯àª²": 728,
      "àªĨàª¤": 729,
      "Ġàªµàªªàª°": 730,
      "àª°àªľ": 731,
      "Ġàªıàª¸": 732,
      "Ġàª¸àªŃ": 733,
      "àª°àª¥": 734,
      "Ġàª°àªļàª¨": 735,
      "àª²àª¸": 736,
      "ĊĊĊĊĊĊĊĊ": 737,
      "àª¨àª¸": 738,
      "àª°àª«": 739,
      "Ġàª²àªĹàªŃàªĹ": 740,
      "àªªàªķ": 741,
      "ent": 742,
      "Ġàª¥àªµ": 743,
      "ĠI": 744,
      "ĠĊ": 745,
      "àª²àªķ": 746,
      "àª¯àªª": 747,
      "ĠàªĺàªŁ": 748,
      "Ġà«§à«®": 749,
      "àªĹàªµàª¡": 750,
      "àª²àª¯": 751,
      "Ġà««": 752,
      "àª¡àªķ": 753,
      "Ġ199": 754,
      "ĠàªĪàª¨": 755,
      "àªļàªµ": 756,
      "Ġàªľàª¤": 757,
      "ĠâĢľ": 758,
      "Ġàªļàª°": 759,
      "àªļàª°": 760,
      "Ġ4": 761,
      "àªŁàª£": 762,
      "àª¶àªķ": 763,
      "et": 764,
      "àª§àª°": 765,
      "Ġà«ª": 766,
      "Ġàªķàªµ": 767,
      "Ġàª¨àªķ": 768,
      "Ġàªªàª°àª¥": 769,
      "Ġàª¸àªĹàªµàª¡": 770,
      "Ġ18": 771,
      "Ġàª¸àª²": 772,
      "Ġàª¬àª§": 773,
      "àª²àª°": 774,
      "ly": 775,
      "àªŃàªµ": 776,
      "Ġà«®": 777,
      "àªłàª³": 778,
      "ur": 779,
      "àª¬àª¨": 780,
      "ĠA": 781,
      "àª¡àªª": 782,
      "ĠT": 783,
      "àªľàª®": 784,
      "ĠàªľàªĹ": 785,
      "ol": 786,
      "à«ģ.": 787,
      "àª¨àªĹ": 788,
      "àª¯àª¸": 789,
      "ĠàªĨàª¯": 790,
      "Ġàªħàª¸àª°": 791,
      "Ġe": 792,
      "Ġàª¹àªľ": 793,
      "Ġ5": 794,
      "000": 795,
      "ĠS": 796,
      "àª·àª®": 797,
      "Ġàª®àª¥àªķ": 798,
      "Ġàªıàª®àª¨": 799,
      "âĢĿ": 800,
      "Ġàª¤àª¤": 801,
      "st": 802,
      "àªķàªª": 803,
      "Ġà«Ń": 804,
      "Ġàªħàª¡": 805,
      "Ġàª¹àª°": 806,
      "Ġ20": 807,
      "àª³àªķ": 808,
      "Ġl": 809,
      "ĠàªŃàª°": 810,
      "ct": 811,
      "à«¯": 812,
      "ĠàªĨàªľ": 813,
      "àª·àªķ": 814,
      "àª°àªĸ": 815,
      "Ġàªīàªªàª²àª¬": 816,
      "àª¤àªµ": 817,
      "Ġàª®àª¦àª¦": 818,
      "àªµàªķ": 819,
      "àªµàª¡": 820,
      "ĠàªĨàª²": 821,
      "àªªàª¦": 822,
      "Ġ6": 823,
      "Ġàª¨àªĹàª°": 824,
      "âĢ¢": 825,
      "Ġth": 826,
      "Ġn": 827,
      "àª¨àª°": 828,
      "àªĩàª²": 829,
      "àª³àª®": 830,
      "à«Ģ-": 831,
      "Ġàª¸àª«àª³": 832,
      "àªļàª®": 833,
      "àªıàª®": 834,
      "àª§àªµ": 835,
      "Ġàªıàªª": 836,
      "19": 837,
      "àª§àªķ": 838,
      "Ġ7": 839,
      "àª²àª¤": 840,
      "à¤¾": 841,
      "ĠàªĶ": 842,
      "àªĸàª®": 843,
      "Ġàª°àªķ": 844,
      "àªµàª°àª£": 845,
      "Ġàªĩàª¤": 846,
      "àªĹàª£": 847,
      "àª§àª®": 848,
      "àª¾-": 849,
      "Ġà«¨à«¦": 850,
      "àªķàªŁ": 851,
      "àªĪàªŁ": 852,
      "Ġàªł": 853,
      "Ġre": 854,
      "àª¬àª¦": 855,
      "Ġà«¯": 856,
      "àª¨àª²": 857,
      "àªħàª¨": 858,
      "Ġàª¤àª³": 859,
      "Ġà«§à«§": 860,
      "àª¬àª¤": 861,
      "ĠĠ": 862,
      "àªĩàª¡": 863,
      "àª°àª§": 864,
      "Ġàª°àª®": 865,
      "àª¨àªķ": 866,
      "ĠàªĹàª°": 867,
      "àª¦àªķ": 868,
      "àª¯àª£": 869,
      "àª«àª°": 870,
      "ve": 871,
      "Ġàªķàªļ": 872,
      "Ġàª²àª¡": 873,
      "Ġà«¨à«¦à«¦": 874,
      "àª¨àªª": 875,
      "Ġàªīàªļ": 876,
      "àªĽàª³": 877,
      "àªĩàªı": 878,
      "àªµàªŁ": 879,
      "ro": 880,
      "ĠàªŃàªĹàªµ": 881,
      "Ġà«§à«ª": 882,
      "àª®àªĹ": 883,
      "Ġàªĺàª°": 884,
      "ĠàªĿàª¡àªª": 885,
      "am": 886,
      "ĠàªĨàª¤": 887,
      "Â°": 888,
      "àªļàªķ": 889,
      "Ġis": 890,
      "ĠC": 891,
      "àªļàª²": 892,
      "Ġàª²àªķ": 893,
      "ĠB": 894,
      "Ġàªķàª°àª¨": 895,
      "Ġàª¸àª®àªĹ": 896,
      "Ġàª¸àª®àª¯àª®": 897,
      "àªıàª¨": 898,
      "Ġàª®àª¤": 899,
      "àªīàª¤": 900,
      "àª¨àª¤": 901,
      "im": 902,
      "àª¹àª°": 903,
      "àª¿.": 904,
      "us": 905,
      "ĠàªĨàªĹàª³": 906,
      "àª¹àª°àª£": 907,
      "àª¸àª²": 908,
      "Ġàª¬àªŁ": 909,
      "àªĩàª®": 910,
      "à¥į": 911,
      "ce": 912,
      "àª°àªĹ": 913,
      "àª¸àªµ": 914,
      "Ġàªħàªķ": 915,
      "àª³àªµàªµ": 916,
      "àªľàª¯": 917,
      "àªĪàªı": 918,
      "ĠM": 919,
      "res": 920,
      "Ġàª¬àª°": 921,
      "àª°àª®àª£": 922,
      "àªķàª¥": 923,
      "ot": 924,
      "Ġàªīàª²": 925,
      "ĠâĢ¢": 926,
      "Ġàª¨àª°": 927,
      "id": 928,
      "Ġbe": 929,
      "ĠàªªàªŁ": 930,
      "Ġàªªàª°àª¨": 931,
      "ad": 932,
      "ver": 933,
      "àªŁàªµàª°": 934,
      "Ġàªīàª®": 935,
      "ig": 936,
      "ĠàªĨàª¶àª°": 937,
      "Ġàª¢": 938,
      "Ġàªľàª¯": 939,
      "àª¹àªķ": 940,
      "Ġàª¸àªķ": 941,
      "à«ĭ:": 942,
      "ĠàªĨàªĩ": 943,
      "Ġàªµàª¸àª¤": 944,
      "os": 945,
      "àª¶àª¨àª¨": 946,
      "ĠP": 947,
      "ĠàªĨàª¸àªª": 948,
      "à«ĩ:": 949,
      "àª·àª®àª¤": 950,
      "àª¤àª°àª¨": 951,
      "Ġàª¬àªľ": 952,
      "od": 953,
      "àª¬àªľ": 954,
      "Ġàª²àª¶": 955,
      "àª¬àªķ": 956,
      "àª¡àª²": 957,
      "àªªàª²": 958,
      "àªĿàª°": 959,
      "Ġàªªàª¡àª¤": 960,
      "Ġàª¬àªļ": 961,
      "àªĸàª²": 962,
      "Ġàªħàª®àª¦": 963,
      "Ġ8": 964,
      "àª·àª¯": 965,
      "Ġàªļàªķ": 966,
      "àª¤àª°àª°": 967,
      "ĊĊĊĊĊĊ": 968,
      "Ġàª¸àª¨": 969,
      "ay": 970,
      "Ġàªĳ": 971,
      "àª§àªª": 972,
      "àª²àªĹ": 973,
      "àªµàªľ": 974,
      "àª¦àªĹ": 975,
      "ation": 976,
      "àª¯àª¤àª¨": 977,
      "àª¥àª°": 978,
      "àªŃàª°": 979,
      "ut": 980,
      "àª¬àªĪ": 981,
      "àª¬àª³": 982,
      "Ġàªıàª°": 983,
      "àª®àª¥": 984,
      "Ġàªĵàªķ": 985,
      "Ġàªĩàª¸": 986,
      "ch": 987,
      "âĢĻ,": 988,
      "àªīàª¦": 989,
      "àª¤àªª": 990,
      "Ġàªķàªķ": 991,
      "Ġàªķàª¦": 992,
      "Ġàª¸àª®àªľ": 993,
      "àª®àª¸": 994,
      "Ġàªķàª¨": 995,
      "àª¶àª¨àª²": 996,
      "Ġàª¹àª¸": 997,
      "Ġ10": 998,
      "à¤°": 999,
      "Ġà«§": 1000,
      "ĠàªªàªĹàª²": 1001,
      "Ġàª®àª³àª¤": 1002,
      "ĠàªĺàªŁàª¨": 1003,
      "àª¡àª¤": 1004,
      "Ġàª°àª®àª¤": 1005,
      "àª³àª¤": 1006,
      "àª¿,": 1007,
      "àª°àª·": 1008,
      "Ġàªķàª¥": 1009,
      "à«ĩ;": 1010,
      "àªµàªŃ": 1011,
      "Ġas": 1012,
      "àªµàªª": 1013,
      "Ġàªıàª¶": 1014,
      "Ġà«¨à«¦à«§à«": 1015,
      "ir": 1016,
      "àªĸàª¨": 1017,
      "àª°àª¦àª°": 1018,
      "Ġ198": 1019,
      "Ġàª¸àª®àª°": 1020,
      "Ġg": 1021,
      "Ġàªµàª¸àªµ": 1022,
      "Ġàªĵàª¸": 1023,
      "àªĩàªľ": 1024,
      "àªµàª¨àª¨": 1025,
      "ĠàªĨàªªàª¤": 1026,
      "Ġàª®àª¸": 1027,
      "àªĹàª¸": 1028,
      "àªıàªķ": 1029,
      "àªªàª·": 1030,
      "Ġàªĵàª°": 1031,
      "àªŁàªµ": 1032,
      "àª²àªª": 1033,
      "Ġ15": 1034,
      "àª£àªķ": 1035,
      "àªĨàªĩ": 1036,
      "Ġàª¬àª³àªµ": 1037,
      "àª¬àª®": 1038,
      "ĠàªĲ": 1039,
      "Ġ9": 1040,
      "àªľàªª": 1041,
      "àª¤àª¤": 1042,
      "ra": 1043,
      "Ġàª¸àª®àª¯àª¨": 1044,
      "Ġàªĭ": 1045,
      "àªłàª¨": 1046,
      "Ġàª¦àª²": 1047,
      "àªĽàª²": 1048,
      "ĠH": 1049,
      "Ġàªĵàª³àªĸàªµ": 1050,
      "Ġàªıàªķàª®": 1051,
      "àª®àªļ": 1052,
      "àªĪàª²": 1053,
      "Ġà«§à«¯à«ª": 1054,
      "àªµàª¯": 1055,
      "àªĸàªķ": 1056,
      "10": 1057,
      "ĠàªĨàª«": 1058,
      "Ġ16": 1059,
      "Ġ2007": 1060,
      "ist": 1061,
      "ĠThe": 1062,
      "Ġàª¦àª¬": 1063,
      "Ġàª¸àª°àªĸ": 1064,
      "ĠG": 1065,
      "Ġ17": 1066,
      "her": 1067,
      "200": 1068,
      "Ġàª¸àª®àª¸": 1069,
      "àªłàªµ": 1070,
      "Ġ2008": 1071,
      "Ġàªªàª²": 1072,
      "àª°àª£àª¨": 1073,
      "op": 1074,
      "ul": 1075,
      "Ġ197": 1076,
      "Ġàª¸àª¤àª¤": 1077,
      "àª¨àªĹàª°": 1078,
      "àªľàª¸": 1079,
      "àªĩàª¸": 1080,
      "Ġàª¦àª¸": 1081,
      "àª¤àª°àª®": 1082,
      "àª¯àª®àª¨": 1083,
      "àª£àª¸": 1084,
      "Ġàª¤àªª": 1085,
      "Ġàª¹àªķ": 1086,
      "Ġàªħàªµàª¸": 1087,
      "àª®àª¹": 1088,
      "àªªàªµ": 1089,
      "Ġal": 1090,
      "àª¸àª£": 1091,
      "àª¹àª®": 1092,
      "Ġ:": 1093,
      "àªµàª¨àªĹàª°": 1094,
      "ow": 1095,
      "Ġfor": 1096,
      "Ġàª²àªĪ": 1097,
      "ia": 1098,
      "el": 1099,
      "àªħàª²": 1100,
      "ĠàªĹàª¤": 1101,
      "àª¦àª°àª¤": 1102,
      "Ġàª°àªļ": 1103,
      "àªĩàªķ": 1104,
      "Ġon": 1105,
      "àªŁàª¨àª¨": 1106,
      "ĠN": 1107,
      "Ġst": 1108,
      "ĠàªīàªŃ": 1109,
      "àªķàª¶": 1110,
      "àª·àª£àª¨": 1111,
      "Ġà«§à«¨": 1112,
      "Ġ|": 1113,
      "ith": 1114,
      "Ġàª¨àªµàª²": 1115,
      "Ġàªħàª¦": 1116,
      "Ġàªķàªł": 1117,
      "Ġàªµàª³": 1118,
      "à¤¿": 1119,
      "àª¹àªµ": 1120,
      "ĠàªĨàªķàª°": 1121,
      "Ġ)": 1122,
      "ĠàªĨàªµàª¶": 1123,
      "àª°àª¯àª¤": 1124,
      "Ġàªľàª³": 1125,
      "àªķàª£": 1126,
      "Ġàª®àª²": 1127,
      "Ġà«§à««": 1128,
      "Ġ2009": 1129,
      "ĠR": 1130,
      "Ġàª¸àª°àª¦": 1131,
      "à¥ĩ": 1132,
      "ĠK": 1133,
      "Ġàª«àªķ": 1134,
      "àª¦àªµ": 1135,
      "à«ĭ-": 1136,
      "Ġàª¸àªľ": 1137,
      "Ġàª¦àª³": 1138,
      "Ġàª¸àª®àª¯àªĹ": 1139,
      "Ġàª¸àª«àª³àª¤": 1140,
      "..": 1141,
      "Ġàªµàª°àª¸": 1142,
      "Ġare": 1143,
      "Ġàªµàª²": 1144,
      "àª¼": 1145,
      "Ġàªµàª¨": 1146,
      "Ġàªħàª¬": 1147,
      "ĠàªĬàªŃ": 1148,
      "Ġà«§à«¯à«¬": 1149,
      "un": 1150,
      "Ġan": 1151,
      "àª¶àª°": 1152,
      "Ġàªħàª®àª°": 1153,
      "àªĹàª²àª®": 1154,
      "ĠàªĲàª¤": 1155,
      "à«ĩ\"": 1156,
      "àª¸àª¦": 1157,
      "Ġàª¦àªµ": 1158,
      "Ġàªħàª°àªµàª²": 1159,
      "Ġàªħàªµàªķ": 1160,
      "à«¯à«": 1161,
      "ĠàªŃàªµ": 1162,
      "ac": 1163,
      "àªľàª§": 1164,
      "Ġàªıàª¡": 1165,
      "àªŁàª¬": 1166,
      "ĠàªŃàªľàªµ": 1167,
      "àªıàª²": 1168,
      "Ġby": 1169,
      "50": 1170,
      "em": 1171,
      "Ġàªīàª¨": 1172,
      "ĠD": 1173,
      "Ġàªıàªķàªł": 1174,
      "ĠàªĨàªĸ": 1175,
      "Ġàªħàª£": 1176,
      "Ġthat": 1177,
      "ĠàªĹàª£àªµ": 1178,
      "à¤¤": 1179,
      "Ġàªıàªļ": 1180,
      "20": 1181,
      "àª°àª®àª¨": 1182,
      "ilm": 1183,
      "ĠàªķàªŁ": 1184,
      "Ġàª®àªľàª¬": 1185,
      "Ġàª«àª³": 1186,
      "à«Ģ\"": 1187,
      "àª¤àª°àª£": 1188,
      "Ġk": 1189,
      "um": 1190,
      "àªĹàª¡": 1191,
      "ĠàªĹàªĪ": 1192,
      "àªĪàª®": 1193,
      "ĠàªŃàªķ": 1194,
      "Ġàªľàª¹": 1195,
      "Ġ196": 1196,
      "est": 1197,
      "Ġàªį": 1198,
      "àª¹àª¤": 1199,
      "àªĨàª¤àª®": 1200,
      "Ġàªħàª¶": 1201,
      "Ġwas": 1202,
      "Ġwith": 1203,
      "ag": 1204,
      "ĠàªħàªŁàªķ": 1205,
      "àªŃàª®": 1206,
      "Ġàª¸àªµ": 1207,
      "ĠàªĹàª£àª¤àª°": 1208,
      "àª«àª¨": 1209,
      "àª¯àªµàª¹": 1210,
      "ri": 1211,
      "Ġàªĩàª²": 1212,
      "Ġàª¨àªµàª²àªķàª¥": 1213,
      "àªħàª®": 1214,
      "àªµàªļ": 1215,
      "Ġàª¸àª«": 1216,
      "àª®àªª": 1217,
      "ers": 1218,
      "àª®àªµ": 1219,
      "Ġwh": 1220,
      "Ġà«§à«¯à««": 1221,
      "ĠàªªàªĹ": 1222,
      "Ġàªĩàª®": 1223,
      "àª·àª¤": 1224,
      "ĠàªĨàªł": 1225,
      "Ġàª¶àªķàª¤": 1226,
      "Ġà«§à«¯à«Ń": 1227,
      "Ġàªıàª®àª£": 1228,
      "àª°àªļ": 1229,
      "àª£àª¯": 1230,
      "àª£àªª": 1231,
      "àª¢àªµ": 1232,
      "àªĩàªĿ": 1233,
      "àª¸àª°àª¨": 1234,
      "Ġcon": 1235,
      "ĠF": 1236,
      "àªŁàª¸": 1237,
      "à«§à«¯à«": 1238,
      "th": 1239,
      "àª¬àª°àª¨": 1240,
      "Ġàª¤àª°àª«àª¥": 1241,
      "ĠàªĨàª¥": 1242,
      "Ġà«§à«¯": 1243,
      "Ġàª¹àª¶": 1244,
      "Ġà«§à«¬": 1245,
      "à«¦à«¦à«¦": 1246,
      "ĠàªĹàª°àª®": 1247,
      "àªĺàª¨": 1248,
      "ĠàªĨàªªàª£": 1249,
      "ĠInd": 1250,
      "Ġàª¤àª¬àªķ": 1251,
      "àªħàª°": 1252,
      "àª¡àª³": 1253,
      "Ġàª²àªĩ": 1254,
      "Ġà«§à«Ń": 1255,
      "Ġàªħàªľ": 1256,
      "àªĽàª³àª¥": 1257,
      "Ġàª¬àª³": 1258,
      "ian": 1259,
      "àªĹàª¦": 1260,
      "Ġà«§à«¯à«®": 1261,
      "ĠàªĨàª¸": 1262,
      "àª·àª°": 1263,
      "ere": 1264,
      "àª¬àª°àªķ": 1265,
      "Ġàªĺàª¡": 1266,
      "Ġà«§à«¯à«©": 1267,
      "rom": 1268,
      "à«¤": 1269,
      "àªµàª°àª¨": 1270,
      "àª¬àª¸": 1271,
      "Ġ2006": 1272,
      "Ġàªħàª¡àª¦": 1273,
      "à«ĩàªĥ": 1274,
      "Ġàªķàª¬": 1275,
      "Ġà«§à«¯à«¯à«": 1276,
      "Ġ12": 1277,
      "ĠL": 1278,
      "ĠE": 1279,
      "Ġàª¬àª¤": 1280,
      "àªµàª¸àª¨": 1281,
      "pe": 1282,
      "Ġàªħàªĸ": 1283,
      "à«ĩ-": 1284,
      "àª²àªŃ": 1285,
      "Ġà«§à«¦à«¦": 1286,
      "àª¾\"": 1287,
      "àªµàª¶": 1288,
      "àªľàª¨àª¨": 1289,
      "Ġàª«àª°àªľ": 1290,
      "Ġv": 1291,
      "àªĪàª¡": 1292,
      "ĠàªĬàª°": 1293,
      "àªĹàª³": 1294,
      "àªĹàª°àª¨": 1295,
      "Ġfilm": 1296,
      "ĠàªĿàª¡àªªàª¥": 1297,
      "àªĩàªª": 1298,
      "Ġàªļàª³àªµ": 1299,
      "à¤Ĥ": 1300,
      "Ġor": 1301,
      "Ġàªµàª²àª¸": 1302,
      "àªıàª«": 1303,
      "àª¦àª¶": 1304,
      "àªµàª£": 1305,
      "àªĿàª®": 1306,
      "Ġ194": 1307,
      "Ġàªħàªªàª¨": 1308,
      "àª¹àª¦": 1309,
      "ĠàªĪàª°": 1310,
      "Ġàªµàª§àª¤": 1311,
      "àªīàª¸": 1312,
      "ĠàªĵàªĹàª¸": 1313,
      "àª®àª¯": 1314,
      "Ġàªµàª¨àª¸": 1315,
      "Ġàªıàª«": 1316,
      "and": 1317,
      "ound": 1318,
      "ĊĊĊĊĊĊĊ": 1319,
      "ak": 1320,
      "à¤¨": 1321,
      "àª¨àª¹": 1322,
      "àª®àª¡": 1323,
      "àª¸àª¨àª¨": 1324,
      "àªµàª³": 1325,
      "Ġ14": 1326,
      "àª£àª¤": 1327,
      "Ġàªīàª¤àª°": 1328,
      "if": 1329,
      "ud": 1330,
      "ĠàªĨàª¯àª°": 1331,
      "à«ī.": 1332,
      "àª¥àª¤": 1333,
      "àªĵàª¥": 1334,
      "Ġàªıàªľàª¨": 1335,
      "ter": 1336,
      "ain": 1337,
      "à¦": 1338,
      "àªĨàª¨": 1339,
      "Ġàª¬àª¸": 1340,
      "ĠàªĹàªĩ": 1341,
      "etres": 1342,
      "Ġàªīàª¡": 1343,
      "Ġat": 1344,
      "ity": 1345,
      "ies": 1346,
      "Ġàªªàª°àª®": 1347,
      "Ġàªĵàª²": 1348,
      "ĠâĢĵ": 1349,
      "àªµàª¤àª®": 1350,
      "Ġ2005": 1351,
      "Ġsu": 1352,
      "Ġàªµàª¨àªª": 1353,
      "àª²àª¯àª¨": 1354,
      "àªľàªĹ": 1355,
      "ĠàªīàªĽ": 1356,
      "àª°àªļàª²": 1357,
      "Ġse": 1358,
      "àª¹àª¸": 1359,
      "àª¤àª²": 1360,
      "à«ĩ.\"": 1361,
      "Ġàªªàª¥": 1362,
      "Ġàªªàª°àª¤": 1363,
      "ĠàªĨàªµàªķ": 1364,
      "Ġàª²àªĹàª¤": 1365,
      "Ġmo": 1366,
      "àª¨àª¦": 1367,
      "àª®àª¨àªĹàª°": 1368,
      "Ġàª¸àª®àªķ": 1369,
      "Ġit": 1370,
      "àª¸àª¤": 1371,
      "Ġ11": 1372,
      "Ġha": 1373,
      "àª°àªĹàªŁ": 1374,
      "àª¬àªĩ": 1375,
      "à¤¯": 1376,
      "Ġàªªàªµ": 1377,
      "Ġàªīàª°": 1378,
      "Ġàªķàª°àª¶": 1379,
      "ate": 1380,
      "àªķàª°àª£àª¨": 1381,
      "àªķàª°àª¨": 1382,
      "Ġex": 1383,
      "iv": 1384,
      "Ġr": 1385,
      "Ġà«§à«©": 1386,
      "ht": 1387,
      "Ġàªħàª¸àª°àªķ": 1388,
      "ĠU": 1389,
      "Ġàªīàª·": 1390,
      "àª°àª¨àªĹàª°": 1391,
      "àª°àªªàª¤": 1392,
      "àªªàª¡": 1393,
      "Ġà«§à«¯à«¨": 1394,
      "Ġpro": 1395,
      "wo": 1396,
      "ab": 1397,
      "Ġ/": 1398,
      "àªĩàªµ": 1399,
      "Ġàª°àªľàªµ": 1400,
      "Ġfrom": 1401,
      "Ġàª¨àª®": 1402,
      "àª¨àª¯": 1403,
      "àªļàª¤": 1404,
      "ĠàªŁàª°": 1405,
      "Ġ30": 1406,
      "àª¯àªŁ": 1407,
      "aur": 1408,
      "àªļàª£": 1409,
      "ĠàªĪàª¸": 1410,
      "Ġàªķàª¸": 1411,
      "Ġàª¶àª¸": 1412,
      "ĠàªĵàªŁ": 1413,
      "Ġ13": 1414,
      "ĠàªŃàª°àªª": 1415,
      "Ġàªļàª²àªļ": 1416,
      "àªĹàªłàª¨": 1417,
      "àª¦àª°àª¨": 1418,
      "ment": 1419,
      "àª¡àª¸": 1420,
      "àª¯àª¥": 1421,
      "àªłàªķ": 1422,
      "Ġàª¸àª°àª³": 1423,
      "Ġàªµàªķ": 1424,
      "ĠàªµàªĹàª°": 1425,
      "Ġcom": 1426,
      "Ġàª¨àª¬àª³": 1427,
      "11": 1428,
      "àªĹàª¥": 1429,
      "ĠàªĶàª°": 1430,
      "âĢĵ": 1431,
      "Ġàªľàª¨àª°àª²": 1432,
      "àª³àªŃ": 1433,
      "Ġàªķàª³": 1434,
      "ĠàªĨàª¦àª°": 1435,
      "Ġàª°àª¦": 1436,
      "Ġàª°àª£": 1437,
      "àª²àª°àª¨": 1438,
      "àª°àª£àª®": 1439,
      "Ġàª²àªĸàªµ": 1440,
      "àªıàªļ": 1441,
      "ĠW": 1442,
      "àª°àªµàª°": 1443,
      "qu": 1444,
      "ĠO": 1445,
      "ill": 1446,
      "àª¦àª³": 1447,
      "Ġàªīàªķ": 1448,
      "ĠàªīàªĹ": 1449,
      "àª£àªµàª¤": 1450,
      "àªħàª¹": 1451,
      "Ġde": 1452,
      "ĠàªĨàª¹": 1453,
      "àªªàªļ": 1454,
      "oc": 1455,
      "Ġàªħàª«": 1456,
      "Ġàªĭàª·": 1457,
      "àª¨àª¥": 1458,
      "àª°àª«àª¤": 1459,
      "nt": 1460,
      "Ġàªĩàªļ": 1461,
      "ĠÂ°": 1462,
      "àª¤àª³": 1463,
      "ĠàªŃàª²": 1464,
      "à¥Ģ": 1465,
      "Ġàª²àªĪàª¨": 1466,
      "Ġ100": 1467,
      "àªĪàª¸": 1468,
      "ĠàªĶàª¦": 1469,
      "Ġàªıàªķàª¤": 1470,
      "Ġàªıàªķàª¬": 1471,
      "ĠàªĨàª£": 1472,
      "se": 1473,
      "Ġ2010": 1474,
      "ld": 1475,
      "àªĪàªķ": 1476,
      "àªĩàª¨àª¨": 1477,
      "Ġàª¤àªķ": 1478,
      "Ġà¤ķ": 1479,
      "ik": 1480,
      "àªĹàª°àª®": 1481,
      "Ġhave": 1482,
      "àªªàª¶": 1483,
      "Ġàª¬àªĹ": 1484,
      "Ġàª¨àªµàª¸": 1485,
      "Ġàªķàª¡": 1486,
      "àªĨàª¤àª¨": 1487,
      "àª¾'": 1488,
      "ĠàªŃàª¯": 1489,
      "Ġàªħàª®àª²": 1490,
      "'s": 1491,
      "ĠV": 1492,
      "Ġàªīàªľàªµ": 1493,
      "Ġàªľàª²": 1494,
      "out": 1495,
      "ĠàªĨàªªàª¨": 1496,
      "ars": 1497,
      "ĠàªĨàªļ": 1498,
      "à¤ķ": 1499,
      "18": 1500,
      "Ġ$": 1501,
      "pt": 1502,
      "ial": 1503,
      "Ġàªıàªķàª¦àª®": 1504,
      "ant": 1505,
      "ĠàªħàªĹàª¤": 1506,
      "àª¯àª¨àª¨": 1507,
      "ĠàªŃàª°àª¤": 1508,
      "à«ĪàªĤ": 1509,
      "àªķàª²àªµ": 1510,
      "Ġàª¸àª°àª¹àª¦": 1511,
      "Ġàªĵàªªàª°": 1512,
      "àªĹàªª": 1513,
      "Ġàª¬àª¨àªµ": 1514,
      "àª¶àª¯": 1515,
      "Ġàª°àªµ": 1516,
      "art": 1517,
      "Ġàª¦àª°àªµ": 1518,
      "Ġ50": 1519,
      "ĠàªĬàªļ": 1520,
      "Ġàªķàª¬àªľ": 1521,
      "àª°àª°": 1522,
      "Ġàª¸àª¬": 1523,
      "Ġàª®àª¶": 1524,
      "Ġàª¥àª¶": 1525,
      "àª®àª§": 1526,
      "ĠàªĨàªµàªµ": 1527,
      "ich": 1528,
      "ord": 1529,
      "àªĽàª¤": 1530,
      "so": 1531,
      "àªĽàª¨": 1532,
      "Ġàªĩàªľ": 1533,
      "àª¥àª²": 1534,
      "ĠàªĺàªŁàªķ": 1535,
      "ong": 1536,
      "à«ĢàªĤ.": 1537,
      "ĠàªĪàª²": 1538,
      "Ġàª¤àª¬": 1539,
      "àª¹àªľ": 1540,
      "ack": 1541,
      "Ġàªīàª®àª°": 1542,
      "àªļàª®àª¹": 1543,
      "àª®àª¶": 1544,
      "àª¶àªµ": 1545,
      "osaur": 1546,
      "Ġhe": 1547,
      "àª¶àªķàª°": 1548,
      "Ġ2004": 1549,
      "à«ģ-": 1550,
      "Ġàª¶àª¤": 1551,
      "Ġàª«àª°àª¤": 1552,
      "Ġ25": 1553,
      "pl": 1554,
      "Ġàªµàªĸ": 1555,
      "Ġàªĩàª°": 1556,
      "àª²àª¨àª¨": 1557,
      "ang": 1558,
      "àª¯àª¦àªķ": 1559,
      "ous": 1560,
      "og": 1561,
      "àªµàª§": 1562,
      "àª¿-": 1563,
      "Ġàª¸àª°àª¸": 1564,
      "àª¯àª°àª¨": 1565,
      "àª§àª£": 1566,
      "Ġ2000": 1567,
      "Ġàª¤àªķàª¨": 1568,
      "Ġ193": 1569,
      "Ġ||": 1570,
      "àª¦àª¡": 1571,
      "Ġàª¬àª²": 1572,
      "av": 1573,
      "àª¤àªķàª¨": 1574,
      "ical": 1575,
      "Ġàª¹àª³àªµ": 1576,
      "à«ĮàªĤ": 1577,
      "red": 1578,
      "du": 1579,
      "Ġàªħàª¬àªľ": 1580,
      "àªªàª°àªµ": 1581,
      "\",": 1582,
      "ĠàªĨàªµàª°": 1583,
      "Ġnot": 1584,
      "àªľàª²": 1585,
      "Ġàªªàª°àª¸": 1586,
      "Ġ1990": 1587,
      "Ġ0": 1588,
      "ĠJ": 1589,
      "àªģ": 1590,
      "àª¾âĢĻ": 1591,
      "ĠàªľàªŁ": 1592,
      "àªĿàª²": 1593,
      "àª¨àªľ": 1594,
      "ĠĊĊ": 1595,
      "àªīàªŁ": 1596,
      "Ġà«§à«¯à«§à«": 1597,
      "ated": 1598,
      "àª¶àª²": 1599,
      "à¤µ": 1600,
      "à¤¸": 1601,
      "Ġmetres": 1602,
      "olly": 1603,
      "Ġàª¡àª¬àª²": 1604,
      "ive": 1605,
      "Ġàª¤àª°àª¤": 1606,
      "Ġ195": 1607,
      "àªĩàª®àª¥àªķ": 1608,
      "Ġàªµàª¦": 1609,
      "Ġwere": 1610,
      "àª«àª²": 1611,
      "Ġàª¯àª¹": 1612,
      "àªµàª¹àª¨": 1613,
      "wood": 1614,
      "Ġàªĳàª«": 1615,
      "Ġàªīàªł": 1616,
      "àªĽàª³àª¨": 1617,
      "all": 1618,
      "Ġwhich": 1619,
      "ew": 1620,
      "Ġàª¤àª¹": 1621,
      "Ġàª°àª¶": 1622,
      "Ġàª²àªĩàª¨": 1623,
      "Ġàª¦àª¡": 1624,
      "ĠàªĨàªĿ": 1625,
      "àª£àªªàª£": 1626,
      "àª·àª¦": 1627,
      "ollywood": 1628,
      "à¤®": 1629,
      "à«ĢâĢĻ": 1630,
      "Ġàª¸àªļ": 1631,
      "Ġàª¦àª¤": 1632,
      "à«¨à«¦": 1633,
      "Ġàª¬àª¨àª¤": 1634,
      "Ġà«©à«¦": 1635,
      "ess": 1636,
      "Ġ,": 1637,
      "àª¯àª¹": 1638,
      "Ġàª°àª¨": 1639,
      "Ġàªĵàª¨": 1640,
      "ĠàªħàªŃàª¯": 1641,
      "ther": 1642,
      "Ġàªªàªķàª¡": 1643,
      "Ġàªªàª°àªµ": 1644,
      "àªĺàª£": 1645,
      "Ġ40": 1646,
      "Ġalso": 1647,
      "The": 1648,
      "àªĺàª²": 1649,
      "ard": 1650,
      "Ġàªķàª£": 1651,
      "àª¶àª¨àª®": 1652,
      "Ġàª¥àª°": 1653,
      "Ġ23": 1654,
      "àª¬àªĪàª®": 1655,
      "Ġàªªàª²àªŁàª£": 1656,
      "Ġàªľàª¥": 1657,
      "Ġàª§àª¨": 1658,
      "12": 1659,
      "àªªàª¥": 1660,
      "àªµàª¨àª®": 1661,
      "Ġàª²àªĺ": 1662,
      "Ġ2001": 1663,
      "Ġàªķàª¯": 1664,
      "Ġàªīàªªàª°àª¨": 1665,
      "Ġàª¸àª¸": 1666,
      "ĠàªĪàª®": 1667,
      "our": 1668,
      "àªŃàª¨": 1669,
      "Ġ22": 1670,
      "àªľàª³": 1671,
      "àª¦àª¤": 1672,
      "àª¡àªķàª°": 1673,
      "ĠàªīàªªàªĹ": 1674,
      "àªķàª¹": 1675,
      "àªĹàª¦àª°": 1676,
      "Ġ21": 1677,
      "199": 1678,
      "à«Ĥ.": 1679,
      "Ġàªľàª¶": 1680,
      "àªªàªŁ": 1681,
      "Ġàªµàª¤àª¨": 1682,
      "ish": 1683,
      "àª¯àª¡": 1684,
      "Ġàª®àªľ": 1685,
      "àªĹàªł": 1686,
      "àª°àª¹àª¨": 1687,
      "àª¯àªŃ": 1688,
      "àªŃàª³": 1689,
      "ĠàªĪàª¶": 1690,
      "ight": 1691,
      "ap": 1692,
      "âĢ²": 1693,
      "àªŁàª¡": 1694,
      "Ġus": 1695,
      "àª§àª¨àª¨": 1696,
      "Ġàª¸àª¹àªķ": 1697,
      "àªªàª¬": 1698,
      "àªłàª³àª¨": 1699,
      "à¥ģ": 1700,
      "ome": 1701,
      "Ġàªµàª¯": 1702,
      "àª°àªµàªł": 1703,
      "Ġsh": 1704,
      "Ġinc": 1705,
      "àªĹàª¹": 1706,
      "ort": 1707,
      "ure": 1708,
      "Ġàªħàªµàª°": 1709,
      "ĠIn": 1710,
      "Ġàªħàª¡àª§": 1711,
      "Ġàª°àª¤": 1712,
      "Ġàªľàª¨àª¤": 1713,
      "Ġàªµàªľàª¨": 1714,
      "àª°àª£àªķ": 1715,
      "Ġà«¨à««": 1716,
      "Ġhas": 1717,
      "16": 1718,
      "àª¸àª¥": 1719,
      "ction": 1720,
      "Ġ2003": 1721,
      "Ġàªħàªµàª¶": 1722,
      "Ġà«§à«¯à«¦": 1723,
      "àª¯àª¶": 1724,
      "àª¬àªĪàª¨": 1725,
      "Ġàªĸàª¸": 1726,
      "Ġàªĵàª¡": 1727,
      "à¥ĭ": 1728,
      "àªŁàª¤": 1729,
      "Ġàª¹àª¨": 1730,
      "àªļàª¯": 1731,
      "Ġàªıàª°àª²": 1732,
      "àª¬àª°àª®": 1733,
      "ition": 1734,
      "ĊĊĊĊĊĊĊĊĊ": 1735,
      "Ġfilms": 1736,
      "àª¸àªŃ": 1737,
      "Ġàª¸àª°àª³àª¤": 1738,
      "Ġàªªàª¦àªµ": 1739,
      "oug": 1740,
      "àª¥àª³àª¨": 1741,
      "àªµàª°àª£àª®": 1742,
      "ĠIndia": 1743,
      "àª¨àªĹàª¢": 1744,
      "àª¥àª°àª¨": 1745,
      "àª°àª¸àª¨": 1746,
      "àª¯àª¬": 1747,
      "Ġàªĩàª¶": 1748,
      "à«§à«®": 1749,
      "ĠàªĨàªĩàªª": 1750,
      "àªķàªķ": 1751,
      "Ġàª¦àª¶": 1752,
      "àªľàª¨àªķ": 1753,
      "yle": 1754,
      "àªľàª¯àª¨": 1755,
      "Ġà«¯à«": 1756,
      "àªµàª¦": 1757,
      "àª¯àªľ": 1758,
      "Ġ24": 1759,
      "Ġàª¦àª°àªľ": 1760,
      "Ġàªħàª¥": 1761,
      "Ġàªħàªµàª¤": 1762,
      "ĠàªľàªĪ": 1763,
      "ĠàªıàªŁ": 1764,
      "àª°àª®àª®": 1765,
      "Ġà«§à«®à«®": 1766,
      "te": 1767,
      "Ġpl": 1768,
      "à«Ģ;": 1769,
      "14": 1770,
      "gr": 1771,
      "àª¡àª¬": 1772,
      "Ġàª¹àª¥": 1773,
      "àªĨàª®": 1774,
      "àª²àª²": 1775,
      "15": 1776,
      "ore": 1777,
      "àªŁàª°àª®": 1778,
      "ress": 1779,
      "Ġàª¹àª®": 1780,
      "àªªàª¸": 1781,
      "àª¯àª¨àª¶": 1782,
      "à«Ģ'": 1783,
      "Ġàª¨àª«": 1784,
      "ign": 1785,
      "age": 1786,
      "80": 1787,
      "ans": 1788,
      "Ġ80": 1789,
      "àªµàª¹": 1790,
      "àªķàª¬": 1791,
      "àª¡àª³àª¨": 1792,
      "Ġch": 1793,
      "||": 1794,
      "Ġàªħàªªàª°": 1795,
      "Ġàªĵàªª": 1796,
      "àªĺàª¡": 1797,
      "ĠIndian": 1798,
      "Ġàªļàª³àªµàª³": 1799,
      "ge": 1800,
      "àª¦àª¨àª¨": 1801,
      "Ġàª¬àª°àª«": 1802,
      "Ġà¤¸": 1803,
      "ĠàªĨàªĹàª³àª¨": 1804,
      "à«ĭ\"": 1805,
      "àª¦àª¯": 1806,
      "Ġàªĸàª¨": 1807,
      "Ġàªļàª¡": 1808,
      "Ġàª¸àª®àª¯àª¥": 1809,
      "àªµàªŃàª°àª®": 1810,
      "àª¤àª¥": 1811,
      "Ġàª¨àªľàª°": 1812,
      "Ġàªīàªľ": 1813,
      "17": 1814,
      "ye": 1815,
      "àª²àª¯àª®": 1816,
      "àªĩàªªàª£": 1817,
      "à¤²": 1818,
      "Ġàª®àª¦àª¦àª¥": 1819,
      "Ġàªīàªľàªµàª£": 1820,
      "Ġàªħàª°àªľ": 1821,
      "àªķàª²àª¨": 1822,
      "àªĨàªĩàªµ": 1823,
      "cc": 1824,
      "ok": 1825,
      "Ġle": 1826,
      "Ġàªħàªļ": 1827,
      "Ġàª¦àª¹": 1828,
      "Ġàª§àª°àª¤": 1829,
      "ĠàªĹàª¢": 1830,
      "Ġàª¡àª¬": 1831,
      "ry": 1832,
      "àª·àª°àª¤": 1833,
      "àªĪàªªàª£": 1834,
      "àªĨàª§": 1835,
      "Ġà«¨à«ª": 1836,
      "àªŁàª¥": 1837,
      "iz": 1838,
      "Ġàªľàª®àª£": 1839,
      "àª¥àªª": 1840,
      "àªŃàªµàª¤": 1841,
      "ub": 1842,
      "àªĤ.": 1843,
      "àªµàªľàª¨": 1844,
      "àª°àªĹàª¤": 1845,
      "Ġàªķàª¦àª¨": 1846,
      "Ġàª°àªĸ": 1847,
      "à«ĢàªĤ,": 1848,
      "inosaur": 1849,
      "30": 1850,
      "ĠàªĨàªĸàª°": 1851,
      "ĠàªĨàª¬": 1852,
      "Ġàªıàª¨àª°": 1853,
      "âĢĺ": 1854,
      "Ġà«§à«®à«¯à«": 1855,
      "àªªàª¯": 1856,
      "Ġà«¨à«¨": 1857,
      "60": 1858,
      "ĠàªĽàªł": 1859,
      "ine": 1860,
      "Äģ": 1861,
      "Ġàªıàª°àªª": 1862,
      "ip": 1863,
      "àªħàª¸": 1864,
      "à¥¤": 1865,
      "àªīàª¥": 1866,
      "ind": 1867,
      "ĠàªĨàªĪ": 1868,
      "Ġ2002": 1869,
      "Ġàªıàªķàª²": 1870,
      "à«ĥàªĤ": 1871,
      "ence": 1872,
      "àªĬ": 1873,
      "àª®àª³": 1874,
      "Ġàª²àª¡àªµ": 1875,
      "àªĨàªµ": 1876,
      "àªµàª°àª£àª¨": 1877,
      "Ġ1980": 1878,
      "Ġàªħàª°àª¬": 1879,
      "àª¯àª°àª¤": 1880,
      "Ġcont": 1881,
      "Ġàªĸàª¡àªķ": 1882,
      "àªĨàªĪ": 1883,
      "Ġàª¸àª³": 1884,
      "Ġàª¦àª°àª¬": 1885,
      "ĠàªĪàªŁ": 1886,
      "Ġàªħàª²àª¯àª¹": 1887,
      "enc": 1888,
      "Ġar": 1889,
      "àªıàªŁ": 1890,
      "Ġthis": 1891,
      "ame": 1892,
      "rit": 1893,
      "àª¯àªĹ": 1894,
      "Ġàª¨àªķàª²": 1895,
      "àªĵàª°": 1896,
      "Ġ192": 1897,
      "àª²àªļ": 1898,
      "Ġàªħàªłàªµ": 1899,
      "Ġ27": 1900,
      "ĠâĢĻ": 1901,
      "àª³àªµàª£": 1902,
      "Ġàªªàª¡àªµ": 1903,
      "ib": 1904,
      "àªŁàª¨àª®": 1905,
      "ast": 1906,
      "àªīàª²": 1907,
      "Ġtr": 1908,
      "Ġà««à«¦": 1909,
      "ell": 1910,
      "àª¤àªļ": 1911,
      "àªķàªµàª£": 1912,
      "à«ĩ..": 1913,
      "àªŃàª°àª®": 1914,
      "Ġ190": 1915,
      "ĠCh": 1916,
      "Ġbeen": 1917,
      "over": 1918,
      "Ġim": 1919,
      "Ġun": 1920,
      "àªĹàª¶": 1921,
      "àª£àªķàªŁ": 1922,
      "ular": 1923,
      "up": 1924,
      "àª¤àª¶": 1925,
      "àªķàª¯": 1926,
      "àª¸àª¸": 1927,
      "Ġàª®àª£": 1928,
      "Ġàª²àªµ": 1929,
      "Ġàª¥àªķ": 1930,
      "Ġhis": 1931,
      "àª²àª¡": 1932,
      "Ġàª¤àª°àª«àª¨": 1933,
      "Ġàªıàª²àªŁ": 1934,
      "are": 1935,
      "Ġ%": 1936,
      "Ġàªıàªľ": 1937,
      "àª«àª¸": 1938,
      ".\"": 1939,
      "àª¯àª¯": 1940,
      "àª¦àªª": 1941,
      "ĠàªĹàªµàª°": 1942,
      "àª·àª¥": 1943,
      "Ġàª¤àª«": 1944,
      "àª¶àª¸": 1945,
      "Ġàª¥àªĪàª¨": 1946,
      "à««à«¦": 1947,
      "Ġint": 1948,
      "ual": 1949,
      "àªŁàª«": 1950,
      "Ġàªĵàªªàª¨": 1951,
      "ĠàªĪàªľ": 1952,
      "ĠĠĠĠ": 1953,
      "Ġ=": 1954,
      "àª¬àª¹": 1955,
      "ates": 1956,
      "Ġà¤¹": 1957,
      "àª¤àª£": 1958,
      "Ġother": 1959,
      "Ġà«¨à«¬": 1960,
      "Ġàªµàª£": 1961,
      "àªŃàªķ": 1962,
      "àªĪàªĵ": 1963,
      "ĊĊĊ": 1964,
      "Ġàªĭàª¤": 1965,
      "\".": 1966,
      "put": 1967,
      "Ġàªīàªªàªķàª°àª£": 1968,
      "à¤¦": 1969,
      "àªŁàª¨àªĹàª°": 1970,
      "ric": 1971,
      "àªŁàª®àª¨": 1972,
      "àª¬àª¡": 1973,
      "Ġàª®àª³àªµ": 1974,
      "ĠàªıàªļàªĨàªĩàªµ": 1975,
      "Ġàª¶àª°àª¤": 1976,
      "Ġàª¡àªļ": 1977,
      "Ġàªĺàª¨": 1978,
      "ĠBollywood": 1979,
      "ie": 1980,
      "à«¢": 1981,
      "àª®àª¤àª¨": 1982,
      "Ġàªĩàª¨àªķ": 1983,
      "à«§à«¦": 1984,
      "Ġ1999": 1985,
      "ough": 1986,
      "Ġàªµàª«": 1987,
      "Ġàª¹àªĿ": 1988,
      "=\"": 1989,
      "àª£àª§àª°": 1990,
      "àª°àªı": 1991,
      "Ġàªĺàª°àª®": 1992,
      "Ġàªīàªªàª¸": 1993,
      "àª¤àª¦": 1994,
      "àª²àªĸ": 1995,
      "àª¶àªľ": 1996,
      "ĠàªŃàª£": 1997,
      "Ġàª¥àªĩàª¨": 1998,
      "',": 1999,
      "13": 2000,
      "ect": 2001,
      "Ġàªħàªµàª²": 2002,
      "Ġàªµàª²àª£": 2003,
      "Ġ185": 2004,
      "Ġall": 2005,
      "àª¤àª¨àª¨": 2006,
      "ĠàªĹàª¦": 2007,
      "Ġàªªàª¡àªķ": 2008,
      "Ġà¤ª": 2009,
      "àªľàª¦": 2010,
      "Ġàª¦àª¯": 2011,
      "Ġà«¨à«©": 2012,
      "à«īàªĤ": 2013,
      "àªĿàª¨àª¨": 2014,
      "àª¡àª°àª²": 2015,
      "ult": 2016,
      "Ġàªħàª«àªĺ": 2017,
      "Ġàªļàª¤": 2018,
      "Ġdinosaur": 2019,
      "style": 2020,
      "àª¤àª¸": 2021,
      "àªĸàª¡": 2022,
      "àªĺàªŁàª¨": 2023,
      "ple": 2024,
      "àª¡àª¥": 2025,
      "ass": 2026,
      "Ġàªļàª²àª£": 2027,
      "ide": 2028,
      "Ġàªļàª¢": 2029,
      "Ġà«§à«§à«": 2030,
      "ĠàªĪàªļ": 2031,
      "à°": 2032,
      "àª¾:": 2033,
      "Ġàª¸àªĸàª¤": 2034,
      "àª¡àª«": 2035,
      "ĠàªĹàª³": 2036,
      "Ġàªīàªªàª¨": 2037,
      "à¤¹": 2038,
      "ĠâĢĿ": 2039,
      "àª¤àªªàª£": 2040,
      "Ġàªªàªª": 2041,
      "Ġàª¹àª³": 2042,
      "àª¤àª°àªª": 2043,
      "àªµàª¤àª¨": 2044,
      "àª¦àª¨àª¶": 2045,
      "àª¡àª°àªŁ": 2046,
      "Ġ1970": 2047,
      "back": 2048,
      "àª¯àª£àª¨": 2049,
      "Ġàª®àªł": 2050,
      "Ġàª¯àªľ": 2051,
      "àª¡àª¨àª¨": 2052,
      "àª·àª£àª®": 2053,
      "any": 2054,
      "Ġpart": 2055,
      "àª¸àª²àª®": 2056,
      "àªµàªĹ": 2057,
      "ĠàªĨàªĪàª¨": 2058,
      "àª¶àª¤": 2059,
      "àª®àª¨àª¨": 2060,
      "àª¤àª°àªµ": 2061,
      "Ġà«¨à«Ń": 2062,
      "aj": 2063,
      "Ġtheir": 2064,
      "ath": 2065,
      "ould": 2066,
      "Ġàª°àª®àª¤àª¨": 2067,
      "ĠàªĨàªłàª®": 2068,
      "Ġà¤®": 2069,
      "Ġàª¨àªĹàª°àªª": 2070,
      "àª¯àªı": 2071,
      "àª²àª¥": 2072,
      "ĠàªĨàªľàª¨": 2073,
      "àª¥àª¶": 2074,
      "Ġàªĩàªķ": 2075,
      "Ġab": 2076,
      "ground": 2077,
      "ust": 2078,
      "ĠàªĸàªĹ": 2079,
      "Ġàªıàªķàªµ": 2080,
      "àªıàª¸àª¨": 2081,
      "ĠàªĶàªªàªļ": 2082,
      "ire": 2083,
      "àªĹàª²àª¨": 2084,
      "àª¦àª¸": 2085,
      "àªĩàª°": 2086,
      "25": 2087,
      "und": 2088,
      "àª¶àª¹": 2089,
      "ĠàªĹàª®": 2090,
      "Ġ26": 2091,
      "ary": 2092,
      "II": 2093,
      "pars": 2094,
      "àª¾;": 2095,
      "ĠàªĨàªŃ": 2096,
      "Ġàª¶àª°àª£": 2097,
      "Ġ66": 2098,
      "Ġàªħàªĸàª¬": 2099,
      "Ġsuch": 2100,
      "parser": 2101,
      "mw": 2102,
      "Ġàªħàª·": 2103,
      "Ġà«¨à«§": 2104,
      "Ġcan": 2105,
      "ations": 2106,
      "output": 2107,
      "ff": 2108,
      "à¤ª": 2109,
      "à«¨à«¦à«¦": 2110,
      "Ġper": 2111,
      "àªĨàªĩàªı": 2112,
      "Ġàªµàª§àªµ": 2113,
      "Ġàªīàªªàª°àª¥": 2114,
      "ĠàªĶàª·": 2115,
      "Ġ{": 2116,
      "àªµàª¦àª°": 2117,
      "àª¯àªªàª£": 2118,
      "Ġàªªàªµàª¨": 2119,
      "Ġàªħàª¯": 2120,
      "àª³àªµàª¨": 2121,
      "ĠàªŃàª°àªµ": 2122,
      "Ġàªħàª®àª²àª®": 2123,
      "Ġàª°àª®àªµ": 2124,
      "Ġàªķàªļàª°": 2125,
      "ĠàªĨàªĩàª¨": 2126,
      "àª£àªŃ": 2127,
      "ater": 2128,
      "àª¨àª¶": 2129,
      "Ġàªīàª§": 2130,
      "àª«àªŁ": 2131,
      "Ġàª«àªŁàªķ": 2132,
      "Ġàª§àª°àªµ": 2133,
      "Ġact": 2134,
      "Ġàªªàª¬": 2135,
      "àª¦àªŃ": 2136,
      "àªĩàª¬": 2137,
      "ĠÂ": 2138,
      "àªĩàªķàª²": 2139,
      "Ġàªīàªªàª¦": 2140,
      "Ġàªķàª¶": 2141,
      "à«Ĥ,": 2142,
      "àª¯àª°àª²": 2143,
      "ance": 2144,
      "ĠTh": 2145,
      "àª³àªķàª¨": 2146,
      "Ġàªĸàªµ": 2147,
      "ber": 2148,
      "pp": 2149,
      "à«ĭ;": 2150,
      "à«ģàªĥ": 2151,
      "àªĪàªµ": 2152,
      "ors": 2153,
      "Ġdis": 2154,
      "ft": 2155,
      "à«Īà«¤": 2156,
      "ĠàªĨàª°àª¬": 2157,
      "ĠàªĹàª£àª¨": 2158,
      "ĠàªĩàªŁ": 2159,
      "Ġad": 2160,
      "àª¤àªķàª¥": 2161,
      "à«§à«§": 2162,
      "background": 2163,
      "àª³àª¥": 2164,
      "àª²àª¨àªª": 2165,
      "Ġ70": 2166,
      "40": 2167,
      "àª¨àªķàª¡": 2168,
      "àªĪàªĿ": 2169,
      "àª°àª¹àª£": 2170,
      "Ġcent": 2171,
      "Ġwhe": 2172,
      "Ġàª¹àªŁ": 2173,
      "àª¯àªķàª²": 2174,
      "àªŁàª°àªª": 2175,
      "ern": 2176,
      "Ġàªłàª°": 2177,
      "70": 2178,
      "cs": 2179,
      "àª¦àª¥": 2180,
      "àª¡àª°àª¨": 2181,
      "Ġ1950": 2182,
      "Ġà«¨à«¦à«§à«§": 2183,
      "33": 2184,
      "àª²àªķàª¤": 2185,
      "ĠàªĨàª¹àªµ": 2186,
      "Ġàª°àª¹àª¸": 2187,
      "Ġ28": 2188,
      "Ġàªĵàª«àª°": 2189,
      "àª®àª°àª¨": 2190,
      "àª³àª¶": 2191,
      "Ġàªīàªªàªĸ": 2192,
      "àªĩàª¨àª²": 2193,
      "ah": 2194,
      "Ġàªħàª¸àª®": 2195,
      "int": 2196,
      "à¥Ī": 2197,
      "à«©à«¦": 2198,
      "Ġà«ªà«¦": 2199,
      "Ġev": 2200,
      "Ġàª®àª¤àª¦": 2201,
      "àª²àªŃàªŃ": 2202,
      "Ġàª°àªķàª®": 2203,
      "Ġàªıàª¬": 2204,
      "Ġàªĸàª¬àª°": 2205,
      "àªıàªµ": 2206,
      "àª°àªķàª¨": 2207,
      "Ġà«§à«®à««": 2208,
      "Ġàªļàª³àªµàª³àª¨": 2209,
      "àª¤àªľ": 2210,
      "Ġàª¸àª®àªľàªµ": 2211,
      "Ġàªĵàª¨àª²": 2212,
      "Ġsc": 2213,
      "ount": 2214,
      "àªķàª³àª¤": 2215,
      "Ġ60": 2216,
      "per": 2217,
      "àªµàª¥": 2218,
      "àªŃàª¦": 2219,
      "àªŃàªµàª¨": 2220,
      "àª¡àª¨àª®": 2221,
      "Ġà«§à«¯à«ªà«Ń": 2222,
      "Ġits": 2223,
      "AN": 2224,
      "act": 2225,
      "àª¸àª¬": 2226,
      "ĠàªĹàªĿ": 2227,
      "Ġàª°àªļàªµ": 2228,
      "àªĩàª¨àª²àª®": 2229,
      "Ġ;": 2230,
      "Ġàª¬àªķ": 2231,
      "ĠàªŃàªĹ": 2232,
      "ĠàªŃàª³": 2233,
      "àªĩàªŁàª¨": 2234,
      "one": 2235,
      "ens": 2236,
      "Ġàª¸àª¹àª¯": 2237,
      "ĠàªĶàª·àª§": 2238,
      "26": 2239,
      "àª°àªļàª¨": 2240,
      "àª²àªķàª°": 2241,
      "àª¯àªķàªµ": 2242,
      "àª¦àª¨àª®": 2243,
      "Ġ1998": 2244,
      "àª¶àª¦": 2245,
      "Ġàª¡àª°": 2246,
      "àª¨àª¸àªŃ": 2247,
      "Ġàª²àª¡àª¤": 2248,
      "àª¯àª¸àª¨": 2249,
      "àªĹàª®àª¨": 2250,
      "àª¡àª¸àª¨": 2251,
      "âĢ³": 2252,
      "ĊĊĊĊĊ": 2253,
      "mer": 2254,
      "àª¯àª®àª®": 2255,
      "ĠàªĨàª¡": 2256,
      "Ġàª¨àªĹàª°àª¨": 2257,
      "Ġàªĵàªµàª°": 2258,
      "ace": 2259,
      "lud": 2260,
      "ue": 2261,
      "Ġàª¤àª£": 2262,
      "Ġàª®àª¥": 2263,
      "àªªàª¹": 2264,
      "Ġàªµàªļàª¨": 2265,
      "àª¬àª®àª¨": 2266,
      "àªıàªª": 2267,
      "Ġàª§àªķ": 2268,
      "Ġsp": 2269,
      "Ġres": 2270,
      "Ġ1960": 2271,
      "com": 2272,
      "àª¿:": 2273,
      "àªĹàª¡àª®": 2274,
      "ĠàªĹàª²": 2275,
      "àª¤àªŃ": 2276,
      "àª²àª®àª¨": 2277,
      "Ġàªªàªļ": 2278,
      "àªĹàªķ": 2279,
      "àª¬àª§": 2280,
      "àª·àª¯àªķ": 2281,
      "Ġàªĺàª°àª¨": 2282,
      "àªĽàª¡": 2283,
      "Ġsome": 2284,
      "Ġàªħàª²àª¬àª¤": 2285,
      "ions": 2286,
      "ĠàªĹàª£àª¤": 2287,
      "Ġàª«àª²": 2288,
      "àª°àª¸àª¦": 2289,
      "ism": 2290,
      "Ġ1996": 2291,
      "Ġone": 2292,
      "28": 2293,
      "now": 2294,
      "àª¸àª«": 2295,
      "àª¶àª¥": 2296,
      "àªĽàªµ": 2297,
      "à«§à««": 2298,
      "Ġàª¬àª¦àª²àªµ": 2299,
      "vers": 2300,
      "ost": 2301,
      "àªķàªµàªµ": 2302,
      "àªŁàª²àª¨": 2303,
      "àª£àª¥": 2304,
      "àªĪàª¨àª¨": 2305,
      "ĠàªĨàªĹàª®àª¨": 2306,
      "àªŁàª£àª¨": 2307,
      "Ġàªħàª¥àª¡": 2308,
      "\"|": 2309,
      "Ġàªµàª¯àª¨": 2310,
      "Ġte": 2311,
      "iss": 2312,
      "Ġàªīàª¦àªŃàªµ": 2313,
      "àªĵàª¸": 2314,
      "Ġàª«àª¤": 2315,
      "à¤Ĺ": 2316,
      "Ġpop": 2317,
      "Ġàª¸àª¦àª¸": 2318,
      "ĠUn": 2319,
      "ru": 2320,
      "àªĸàª£": 2321,
      "àªĩàªŁàª²": 2322,
      "Ġà«¬à«¦": 2323,
      "oll": 2324,
      "45": 2325,
      "ward": 2326,
      "Ġàªħàªªàªµ": 2327,
      "ime": 2328,
      "Ġkil": 2329,
      "ck": 2330,
      "àª¯àªķàª°": 2331,
      "àªªàª³": 2332,
      "Ġàª¨àªµàª°": 2333,
      "àª¯àªķàª¤": 2334,
      "ĠàªµàªĹàª°àª¨": 2335,
      "àªĹàª¢àª¨": 2336,
      "ach": 2337,
      "àª¸àª¡": 2338,
      "àªªàª°àª¨": 2339,
      "Ġà«¨à«¦à«¦à«®": 2340,
      "àª®àª¥àªķ": 2341,
      "à«ĭâĢĻ": 2342,
      "Ġàªªàª¨": 2343,
      "àª³àªªàª£": 2344,
      "àª¶àª¨àª°": 2345,
      "ĠàªŁàª¨": 2346,
      "Ġà«§à«®à«Ń": 2347,
      "Ġ189": 2348,
      "Ġinclud": 2349,
      "overn": 2350,
      "àª²àª¦": 2351,
      "Ġàª¤àª¦": 2352,
      "àªªàªľ": 2353,
      "ĠàªŃàªŁ": 2354,
      "àªĩàª¨àª®": 2355,
      "Ġfe": 2356,
      "Ġàªıàª²àª°": 2357,
      "ved": 2358,
      "àª¾âĢĻ,": 2359,
      "àª¾àªģ": 2360,
      "àªıàª®àª¨": 2361,
      "Ġcl": 2362,
      "ĠàªĨàªŁàª²": 2363,
      "ĠàªĨàªīàªŁ": 2364,
      "àª·àªµ": 2365,
      "Ġàªıàªķàª°": 2366,
      "Ġ31": 2367,
      "àª¤àªµàª£": 2368,
      "dis": 2369,
      "àªĹàªļ": 2370,
      "àªŁàªķàª¨": 2371,
      "àªŃàª²": 2372,
      "Ġ38": 2373,
      "Ġàª®àª¤àªŃ": 2374,
      "ove": 2375,
      "à«Ģ/": 2376,
      "àªķàªŁàª°": 2377,
      "àªªàªķàª¡": 2378,
      "àªłàªµàªµ": 2379,
      "àªľàª¨àª®": 2380,
      "ĠàªĨàªĩàª¸": 2381,
      "Ġàªįàª¨": 2382,
      "ĠàªĹàªĿàª²": 2383,
      "ont": 2384,
      "Ġbut": 2385,
      "ĠàªīàªŃàª°": 2386,
      "àªħàªŃ": 2387,
      "pos": 2388,
      "àªµàª°àª®": 2389,
      "àªľàª£": 2390,
      "à¤§": 2391,
      "Ġàª§àª°àªªàªķàª¡": 2392,
      "Ġàªıàª¸àªıàª®": 2393,
      "àª°àª®àª£àªķàªķ": 2394,
      "àªķàª¶àª¨": 2395,
      "àª«àª°àª¨": 2396,
      "Ġàªķàªªàª°": 2397,
      "àª¡àª¯": 2398,
      "àªĩàª²àª¨": 2399,
      "Ġàªļàª°àª¬": 2400,
      "CP": 2401,
      "àª®àª«": 2402,
      "àª¸àªľ": 2403,
      "Ġàª¨àª¸": 2404,
      "Ġàª¨àª³": 2405,
      "àªıàª¶àª¨": 2406,
      "ĠàªĵàªĿ": 2407,
      "à¤¶": 2408,
      "àªħàªª": 2409,
      "Ġ188": 2410,
      "Ġkm": 2411,
      "àªıàª¥": 2412,
      "Ġ35": 2413,
      "Ġ1991": 2414,
      "Ġàªªàª§": 2415,
      "Ġà¤ħ": 2416,
      "Ġkilom": 2417,
      "hy": 2418,
      "ĠàªĨàªµàª¨": 2419,
      "Ġàªķàªªàª¡": 2420,
      "22": 2421,
      "à¨": 2422,
      "Ġà«¦": 2423,
      "àª®àªķàª¥": 2424,
      "Ġà¤µ": 2425,
      "Ġàª¨àªĹàª°àª¹àªµ": 2426,
      "In": 2427,
      "Ġàª¨àª°àª¸": 2428,
      "Ġspe": 2429,
      "Ġwor": 2430,
      "Ġ34": 2431,
      "Ġ1997": 2432,
      "able": 2433,
      "ond": 2434,
      "¯à«¦": 2435,
      "à«ĩ?": 2436,
      "àªĹàª¬": 2437,
      "àª¡àª¬àª²": 2438,
      "àªĪàª°àª¸": 2439,
      "ĠàªŁàªª": 2440,
      "ep": 2441,
      "Ġro": 2442,
      "àª¤àªķàª®": 2443,
      "Ġàªķàª²àªķàª¤": 2444,
      "Ġàª¤àªŁ": 2445,
      "àª¥àªľ": 2446,
      "Ġàª¶àª¨": 2447,
      "Ġ1994": 2448,
      "Ġwho": 2449,
      "Ġmov": 2450,
      "Ġmost": 2451,
      "play": 2452,
      "à«Ģ:": 2453,
      "Ġàªľàª³àªµ": 2454,
      "Ġàªıàª°àªķ": 2455,
      "àªıàª°": 2456,
      "Ġàª«àª°àªµ": 2457,
      "àª«àª³àª¤": 2458,
      "Ġne": 2459,
      "àªłàªµàª£": 2460,
      "Ġcomm": 2461,
      "ai": 2462,
      "fter": 2463,
      "àª²àªľ": 2464,
      "ĠàªķàªĪ": 2465,
      "àª¬àª¤àª¨": 2466,
      "75": 2467,
      "TP": 2468,
      "sil": 2469,
      "àª¸àªŁ": 2470,
      "Ġàªıàª¥": 2471,
      "Ġàªīàªªàª²": 2472,
      "Ġàªªàª¡àª¶": 2473,
      "anc": 2474,
      "Ġà«Ńà««": 2475,
      "...": 2476,
      "overnment": 2477,
      "àªŁàª²àª®": 2478,
      "Ġhad": 2479,
      "Ġàª°àª®àª¤àª®": 2480,
      "ten": 2481,
      "àªĵàª«": 2482,
      "Ġàª¶àªķàª¶": 2483,
      "Ġàª¦àª°àªĸ": 2484,
      "ice": 2485,
      "àª°àªľàª¨àª¨": 2486,
      "48": 2487,
      "Ġj": 2488,
      "àª¯àª°àª¸": 2489,
      "àªłàª®": 2490,
      "Ġàª¸àª¹àª®àª¤": 2491,
      "ile": 2492,
      "ĠAs": 2493,
      "àª¼àª¿": 2494,
      "àª£àªĹ": 2495,
      "Ġàªıàªķàª¨": 2496,
      "àª°àª®àª£àª¨": 2497,
      "Ġàªīàªªàªļ": 2498,
      "Ġàªĩàªµ": 2499,
      "Ġ29": 2500,
      "Ġàªħàª¸àª°àª¨": 2501,
      "ics": 2502,
      "àª¸àªļ": 2503,
      "Ġàª®àª°àª£": 2504,
      "Ġàªµàª¹àª¨": 2505,
      "àª¡àªĹ": 2506,
      "Ġàª¦àª°àª°": 2507,
      "ark": 2508,
      "olog": 2509,
      "76": 2510,
      "ox": 2511,
      "àª¸àª«àª°": 2512,
      "Ġàª¥àª¨": 2513,
      "à«Ģ.\"": 2514,
      "ree": 2515,
      "ener": 2516,
      "Ġàª¸àª¹àª¨": 2517,
      "à«§à«¨": 2518,
      "ike": 2519,
      "ĠThis": 2520,
      "ail": 2521,
      "aus": 2522,
      "we": 2523,
      "àªĭ": 2524,
      "àª¯àªŁàª¨": 2525,
      "Ġàª¤àªķàª²": 2526,
      "àªľàª¡": 2527,
      "àª¦àª°àªµ": 2528,
      "àªļàª¸": 2529,
      "àªĿàª¨àª®": 2530,
      "à«§à«ª": 2531,
      "Ġrec": 2532,
      "Ġà«¨à«¦à«¦à«¯": 2533,
      "Ġform": 2534,
      "Ġmore": 2535,
      "àª¯àªļ": 2536,
      "àªķàª¤àª®": 2537,
      "àªªàª£àª¨": 2538,
      "àª¦àª³àª¨": 2539,
      "ĠàªŃàªľ": 2540,
      "àª«àª¤": 2541,
      "àª°àªµàªļàª¨": 2542,
      "Ġà¤¨": 2543,
      "Ġàªħàªªàª®": 2544,
      "Ġà«¨à«¦à«¦à«§": 2545,
      "àª®àªĸ": 2546,
      "àªĹàª£àª¨": 2547,
      "Ġàªµàª°àª¦": 2548,
      "àªĨàªľ": 2549,
      "àªŁàª²àª°": 2550,
      "Ġà«¨à«®": 2551,
      "Ġme": 2552,
      "ase": 2553,
      "Ġà«©à««": 2554,
      "Ġ90": 2555,
      "àªµàªķàª¨": 2556,
      "àªĵàª²": 2557,
      "àªŁàª°àª«": 2558,
      "Ġà«¨à«¦à«¦à«¬": 2559,
      "Ġ{\\": 2560,
      "Ġkilometres": 2561,
      "ral": 2562,
      "àª·àª¸": 2563,
      "hed": 2564,
      "àªħàªķ": 2565,
      "reat": 2566,
      "Ġ32": 2567,
      "àªĹàªŃ": 2568,
      "Ġàª°àª®àª£": 2569,
      "àª°àªķàª¤": 2570,
      "ĠàªĿàªĺàª¡": 2571,
      "omb": 2572,
      "Ġà«©à«¬": 2573,
      "Ġàªĳàª¡": 2574,
      "rib": 2575,
      "ious": 2576,
      "Ġàªķàª¬àª°": 2577,
      "àªļàª¡": 2578,
      "Ġàª¯àªľàª®": 2579,
      "àªĨàª²": 2580,
      "Ġàª¨àªµàª®": 2581,
      "Ġbet": 2582,
      "ĠIP": 2583,
      "ade": 2584,
      "Ġà«§à«¯à«ªà«®": 2585,
      "Ġknow": 2586,
      "Ġcons": 2587,
      "Ġinto": 2588,
      "way": 2589,
      "àªľàª¤": 2590,
      "àª¦àª°àª®": 2591,
      "Ġàª¹àª²": 2592,
      "Ġàª¨àªĹàª°àª®": 2593,
      "ĠàªŃàªľàª¨": 2594,
      "Ġàªĺàª¨àª¤": 2595,
      "àª°àªķàª°àª£": 2596,
      "Ġ1995": 2597,
      "Ġ75": 2598,
      "Ġdinosaurs": 2599,
      "ĠX": 2600,
      "àª¨àª¡": 2601,
      "àª®àªŃ": 2602,
      "Ġàª®àªļ": 2603,
      "Ġàª®àª²àª¯": 2604,
      "Ġàªħàª¢": 2605,
      "Ġàª°àª«": 2606,
      "àªĿàªµ": 2607,
      "Ġàªĩàªľàª¨": 2608,
      "àªŁàª°àª¸": 2609,
      "àªħàªĹ": 2610,
      "orm": 2611,
      "Ġ500": 2612,
      "Ġàªıàª¡àªµàª°": 2613,
      "ĠDe": 2614,
      "àªĹàªłàª¨àª¨": 2615,
      "//": 2616,
      "ob": 2617,
      "àª°àª«àª³": 2618,
      "Ġàª®àª¨àª®": 2619,
      "Ġàª¬àª¦": 2620,
      "Ġàªĸàªľ": 2621,
      "àªĨàª¦": 2622,
      "à«§à«Ń": 2623,
      "Ġà«§à«¯à«¬à«¦": 2624,
      "Ġà«§à«¯à«©à«¦": 2625,
      "à«ĩ.âĢĿ": 2626,
      "àª¹àªª": 2627,
      "àªµàª¸àª®": 2628,
      "Ġàªĵàª¬": 2629,
      "Ġàªīàªªàªµ": 2630,
      "àªħàª¤": 2631,
      "àªľàª¬àª¨": 2632,
      "Ġused": 2633,
      "hi": 2634,
      "}.": 2635,
      "Ġàªªàª¤àª¨": 2636,
      "Ġàªªàª¥àª°": 2637,
      "Ġàªľàªĩ": 2638,
      "àªĩàª«": 2639,
      "àªĩàª¡àª¨": 2640,
      "Ġàªķàª¡àªķ": 2641,
      "Ġàªħàªķàª¸": 2642,
      "àª¶àªª": 2643,
      "Ġàª¦àª«àª¨": 2644,
      "Ġàªıàªķàª¸": 2645,
      "ĠSt": 2646,
      "vel": 2647,
      "100": 2648,
      "Ġàª¸àª®àª¨": 2649,
      "Ġàªĵàªĸ": 2650,
      "Ġinf": 2651,
      "Ġbec": 2652,
      "Ġàªħàª¬àª¡": 2653,
      "32": 2654,
      "Ġ+": 2655,
      "Ġàª¸àª°àªµ": 2656,
      "Ġàª¸àª«àª°": 2657,
      "àª¶àª³": 2658,
      "Ġàª¹àª¦": 2659,
      "àª·àªª": 2660,
      "àª·àª¯àª¨": 2661,
      "àª²àª¨àª®": 2662,
      "Ġàªĵàª¥": 2663,
      "àª¯àª®àª¥": 2664,
      "Ġàª¤àª²àªµ": 2665,
      "Ġlar": 2666,
      "Ġàª¸àªĹ": 2667,
      "ĠàªĽàªµ": 2668,
      "àªĹàª§": 2669,
      "àªĪàª¥": 2670,
      "Ġàª«àª°àª®": 2671,
      "ĠàªĵàªĹ": 2672,
      "als": 2673,
      "port": 2674,
      "Ġâ": 2675,
      "à«ĢâĢĿ": 2676,
      "Ġàªµàª¤": 2677,
      "ĠàªĨàªµàªķàª¨": 2678,
      "àªĸàª¨àª®": 2679,
      "àª¬àª¤àª®": 2680,
      "Ġàªĵàª°àª¡": 2681,
      "Ġsy": 2682,
      "Ġfir": 2683,
      "uring": 2684,
      "Ġprodu": 2685,
      "90": 2686,
      "na": 2687,
      "Ġye": 2688,
      "àª¨àª¬": 2689,
      "àª¤àªĹàª¤": 2690,
      "àª²àª¶": 2691,
      "àª¸àª¶": 2692,
      "àªĸàªķàª¨": 2693,
      "àªĺàª®": 2694,
      "àª£àªµàªµ": 2695,
      "Ġ1993": 2696,
      "display": 2697,
      "ues": 2698,
      "àªľàªµàª¸": 2699,
      "àª¹àª²": 2700,
      "Ġàªıàªĩàª¡": 2701,
      "Ġà¤ľ": 2702,
      "35": 2703,
      "ÃĹ": 2704,
      "Ġdist": 2705,
      "Ġref": 2706,
      "Ġrel": 2707,
      "ombay": 2708,
      "500": 2709,
      "ll": 2710,
      "àª°àª£àª¥": 2711,
      "Ġàªľàª¨àª¸": 2712,
      "à«ªà«¦": 2713,
      "Ġà«®à«¦": 2714,
      "ational": 2715,
      "Ġàªīàªľàªµàªµ": 2716,
      "àª¾âĢĿ": 2717,
      "àª¡àª¶": 2718,
      "àª§àª°àª²": 2719,
      "àª³àªľ": 2720,
      "àª°àª¤àªķ": 2721,
      "ities": 2722,
      "Ġà«¨à«¦à«§à«¦": 2723,
      "ĉĉ": 2724,
      "àª¤àªµàª®": 2725,
      "ĠàªĽàª¬": 2726,
      "Ġàª¨àª¸àªµ": 2727,
      "àªļàª¨àª¨": 2728,
      "àª·àª¦àª¨": 2729,
      "àª°àª®àªª": 2730,
      "Ġàªĺàª¡àªµ": 2731,
      "àªĽàª°": 2732,
      "à¤£": 2733,
      "àªķàª¸àª¤": 2734,
      "Ġfound": 2735,
      "Ġàªħàªµàª§": 2736,
      "Ġ1992": 2737,
      "Ġthan": 2738,
      "Ġà«¨à«¦à«§à«¨": 2739,
      "Ġy": 2740,
      "àªķàª°àª®": 2741,
      "àªķàª³àªµ": 2742,
      "ĠàªĨàª¯àª¨": 2743,
      "àªµàª¨àªļàª°": 2744,
      "àª¢àª¤": 2745,
      "Ġso": 2746,
      "Ġmany": 2747,
      "ings": 2748,
      "ĠàªªàªĹàª¥": 2749,
      "àª¬àª°àª®àª¤": 2750,
      "àª°àª³": 2751,
      "àª¨àª«": 2752,
      "àª¸àª°àªµ": 2753,
      "Ġàª¤àª¬àª¦": 2754,
      "Ġàª¨àª¡": 2755,
      "àªļàªµàªµ": 2756,
      "Ġàªıàª¡àª®": 2757,
      "àªıàª¡": 2758,
      "Ġàª¯àª°": 2759,
      "ĠIt": 2760,
      "Ġ186": 2761,
      "82": 2762,
      "ivers": 2763,
      "ood": 2764,
      "àª®àª°àª£": 2765,
      "àª¯àª²àª¨": 2766,
      "Ġàªľàª¯àªª": 2767,
      "àª¥àª¸": 2768,
      "Ġover": 2769,
      "àª¯àª¦àª³": 2770,
      "àª°àªªàªĽ": 2771,
      "Ġà«©à«¨": 2772,
      "ĠTCP": 2773,
      "Ġ72": 2774,
      "Ġà«¨à«¦à«¦à«¦": 2775,
      "Ġàª¹àªĿàª°àª¤": 2776,
      "Ġpopular": 2777,
      "cl": 2778,
      "}}": 2779,
      "àª°àªĹàª¢": 2780,
      "Ġàªķàªªàª¨": 2781,
      "ĠàªĨàªĹàªµ": 2782,
      "ĠàªħàªĽ": 2783,
      "à«ģàªĤ;": 2784,
      "Ġàª¨àª°àª®": 2785,
      "àª³àª¸": 2786,
      "ĠàªŃàªµàª¨": 2787,
      "àª°àªµàªµ": 2788,
      "àª¨àªµàªľ": 2789,
      "ory": 2790,
      "à«§à«©": 2791,
      "Ġpr": 2792,
      "àªıàª¸àªıàª®": 2793,
      "2007": 2794,
      "Ġà«§à«¯à««à«¦": 2795,
      "Ġà«§à«¯à«®à«¦": 2796,
      "Ġàª°àª£àªľ": 2797,
      "ever": 2798,
      "àªµàªŁàª¨": 2799,
      "Ġàª®àªķàª°": 2800,
      "àªļàª¬": 2801,
      "àªĩàª¥": 2802,
      "Ġthey": 2803,
      "ally": 2804,
      "ite": 2805,
      "Ġmus": 2806,
      "ĠSh": 2807,
      "Ġà«¨à«¦à«¦à«Ń": 2808,
      "ĠBombay": 2809,
      "Ġà«§à«¯à«ªà«¨": 2810,
      "Ġfirst": 2811,
      "ied": 2812,
      "ient": 2813,
      "wn": 2814,
      "Ġ!": 2815,
      "à«ĢâĢĻ,": 2816,
      "Ġàªħàª³àªµ": 2817,
      "Ġàªļàª®àªķ": 2818,
      "àªĨàª¯": 2819,
      "Ġàª®àª¦àª¦àª°": 2820,
      "Ġà«§à«®à«¬": 2821,
      "tern": 2822,
      "ĠàªĹàª¢àª¡": 2823,
      "ĠàªĨàªĺ": 2824,
      "ĠàªĨàªĩàªŁ": 2825,
      "Ġàª¬àª®àª£": 2826,
      "àªĩàªĵ": 2827,
      "àª¸àª¨àª®": 2828,
      "Ġtwo": 2829,
      "Ġcol": 2830,
      "Ġàª¸àª¹àª¸": 2831,
      "Ġmod": 2832,
      "igh": 2833,
      "Ġgr": 2834,
      "24": 2835,
      "Ġup": 2836,
      "Ġàª¸àªĸ": 2837,
      "Ġàªµàª¨àª¨": 2838,
      "Ġam": 2839,
      "àªħàª²àªĹ": 2840,
      "ited": 2841,
      "cept": 2842,
      "ake": 2843,
      "ng": 2844,
      "Ġqu": 2845,
      "àª®àªŁ": 2846,
      "Ġàª®àªŁ": 2847,
      "àª£àª¸àª¨": 2848,
      "àªĩàª¤": 2849,
      "àª«àªķ": 2850,
      "Ġàª¯àªķ": 2851,
      "àªıàª¸àªı": 2852,
      "Ġàªħàªķàª¬àª°": 2853,
      "Ġàªıàª«àª¡": 2854,
      "ug": 2855,
      "àª¯àª¨àª®": 2856,
      "à«§à«¬": 2857,
      "very": 2858,
      "Ġà«¨à«¦à«§à«©": 2859,
      "ween": 2860,
      "az": 2861,
      "right": 2862,
      "Ġàªľàª¯àª¸": 2863,
      "Ġàªħàª¶àªķ": 2864,
      "àªªàª°àª®": 2865,
      "Ġàªµàªĺ": 2866,
      "àª³àªµàª¤": 2867,
      "Ġàªıàª¡àªµ": 2868,
      "àªĵàªķ": 2869,
      "àªĪàª¬": 2870,
      "àªĪàªŁàª¨": 2871,
      "àª°àª®àªķ": 2872,
      "Ġàªĩàª¡àª°": 2873,
      "Ġmay": 2874,
      "Ġà«¨à«¦à«¦à««": 2875,
      "Ġàªµàª³àªĹ": 2876,
      "àª¼àª¾": 2877,
      "36": 2878,
      "àª¤àª°àªķ": 2879,
      "àª¤àª°àª£àª¨": 2880,
      "àª°àª¨àªµ": 2881,
      "àª°àª¸àª°": 2882,
      "Ġàªħàª¸àª²": 2883,
      "Ġà«¨à«¦à«¦à«ª": 2884,
      "ph": 2885,
      "àªĳ": 2886,
      "ĠàªµàªŁ": 2887,
      "Ġàª¦àª³àª¨": 2888,
      "Ġàª¨àªĹ": 2889,
      "ĠàªŃàª¦": 2890,
      "Ġàª¯àª®": 2891,
      "àª§àª¨àª®": 2892,
      "àªīàªªàª°": 2893,
      "à¤·": 2894,
      "Ġafter": 2895,
      "ale": 2896,
      "ĠHe": 2897,
      "ne": 2898,
      "àª°àªł": 2899,
      "à«ĭâĢĿ": 2900,
      "Ġàªħàªľàª®": 2901,
      "àªŁàªªàª£": 2902,
      "àª¡àªĿ": 2903,
      "à«ģàªĤ:": 2904,
      "àªıàªı": 2905,
      "Ġàª¯àª¥": 2906,
      "Ġtime": 2907,
      "Ġfl": 2908,
      "Ġà«§à«¯à«¬à««": 2909,
      "Ġ#": 2910,
      "ĠÎ": 2911,
      "àª¸àª¦àª¨": 2912,
      "Ġàªĸàª²": 2913,
      "àªĪàªĹ": 2914,
      "Ġoff": 2915,
      "Ġdo": 2916,
      "ĠĠĠ": 2917,
      "2006": 2918,
      "ency": 2919,
      "ĠY": 2920,
      "àª¸àª¹": 2921,
      "Ġàªľàª¸": 2922,
      "Ġàªªàª°àª£": 2923,
      "àª°àª®àª¶": 2924,
      "àª¸àª®àª¯": 2925,
      "Ġpe": 2926,
      "à«ªà««": 2927,
      "displaystyle": 2928,
      "47": 2929,
      "ks": 2930,
      "ts": 2931,
      "ĠĊĊĊĊĊĊĊĊ": 2932,
      "àª®àª¬": 2933,
      "Ġàªķàª²àª®": 2934,
      "Ġàªķàª¦àª®": 2935,
      "àª¸àª°àªķ": 2936,
      "Ġàª¤àª¸àªµ": 2937,
      "ĠàªĹàª°àª¬": 2938,
      "àª°àªµàª£": 2939,
      "Ġàªīàª¦àª¯": 2940,
      "à«¨à«©": 2941,
      "iff": 2942,
      "Ġ]": 2943,
      "Ġàªķàªµàª°": 2944,
      "àªļàª°àª¨": 2945,
      "àªıàª¶": 2946,
      "Ġàª«àª°àªķ": 2947,
      "Ġàª¯àª¶": 2948,
      "àªħàª¥àªµ": 2949,
      "ĠàªĪàª¤": 2950,
      "Ġthr": 2951,
      "ĠUS": 2952,
      "77": 2953,
      "Ġàª·": 2954,
      "àªķàªĹ": 2955,
      "Ġàªļàª¹": 2956,
      "àªīàª°": 2957,
      "Ġdes": 2958,
      "Ġ400": 2959,
      "Ġàªĳàªķ": 2960,
      "ĠàªªàªĹàªª": 2961,
      "38": 2962,
      "Ġund": 2963,
      "àª¨àªµàª¤": 2964,
      "Ġàª¤àª¨": 2965,
      "àªªàª°àª¤": 2966,
      "Ġàª¡àªŃ": 2967,
      "à¤Ł": 2968,
      "Ġthere": 2969,
      "Ġàªĭàª£": 2970,
      "cial": 2971,
      "li": 2972,
      "ted": 2973,
      "Ġ?": 2974,
      "àªķàª¸àª¨": 2975,
      "àªŁàªª": 2976,
      "àª¡àª³àª®": 2977,
      "Ġàª¨àª·": 2978,
      "Ġàªĵàªķàª²": 2979,
      "Ġà«¨à«¯": 2980,
      "Ġwould": 2981,
      "Ġpre": 2982,
      "Ġlike": 2983,
      "àªµàª¹àª¨àª¨": 2984,
      "Ġàª¤àª®àª¨": 2985,
      "àªĹàªŁ": 2986,
      "àªĪàª²àª¨": 2987,
      "àª¸àª°àªĸ": 2988,
      "Ġout": 2989,
      "Ġàª¸àª¹àªŃ": 2990,
      "Ġpo": 2991,
      "Ġloc": 2992,
      "ĠPr": 2993,
      "umb": 2994,
      "à«ĪàªĤà«¤": 2995,
      "Ġbetween": 2996,
      "gan": 2997,
      "man": 2998,
      "Ġàªķàª«": 2999,
      "àª¸àª°àª®": 3000,
      "Ġàª¹àª¯": 3001,
      "àª¹àª¥": 3002,
      "ĠàªĹàªµ": 3003,
      "Ġàªĸàª¡": 3004,
      "ince": 3005,
      "Ġcount": 3006,
      "àªıàª¸àªª": 3007,
      "Ġà¤°": 3008,
      "àª²àª¬àª¨": 3009,
      "Ġà«ªà««": 3010,
      "à«ĩ\".": 3011,
      "xt": 3012,
      "àª²àªķàª¨": 3013,
      "àªŁàª¸àª¨": 3014,
      "Ġàª¨àª¶": 3015,
      "Ġag": 3016,
      "àª°àª¹àª®": 3017,
      "à«¨à«¬": 3018,
      "Ġ150": 3019,
      "ists": 3020,
      "Ġtrans": 3021,
      "ww": 3022,
      "|-": 3023,
      "àªķàªŁàª¨": 3024,
      "àª£àªļ": 3025,
      "àª¥àªĺàªŁàª¨": 3026,
      "Ġàªĸàª¤àª°": 3027,
      "Ġàªīàª¸": 3028,
      "Ġàª§àª°àª®àªª": 3029,
      "à«Ī.": 3030,
      "Ġàª¬àª¨àª¶": 3031,
      "Ġàª¶àªķàªµ": 3032,
      "Ġàª¶àªķàª¯": 3033,
      "àª²àªµàª£": 3034,
      "Ġà«Ńà«¦": 3035,
      "Ġà«¨à«¦à«§à«ª": 3036,
      "owever": 3037,
      "Ġknown": 3038,
      "39": 3039,
      "àª²àª¬àª°": 3040,
      "àªľàª¥": 3041,
      "àª¦àª°àª¤àª®": 3042,
      "àª¹àª£": 3043,
      "Ġàª¬àªª": 3044,
      "Ġàª¬àª³àª¨": 3045,
      "Ġàªĵàª²àª®": 3046,
      "âĢĶ": 3047,
      "Ġàªīàªªàªľ": 3048,
      "Ġà¤¦": 3049,
      "ased": 3050,
      "Ġear": 3051,
      "àª¹àª°àªļàª¨": 3052,
      "Ġàª«àª³àª¦": 3053,
      "lic": 3054,
      "àªķàª¦": 3055,
      "ĠàªĨàªµàª°àª£": 3056,
      "àªĸàª²àª¨": 3057,
      "àªŃàªĹàªµ": 3058,
      "ĠàªĨàªªàª¶": 3059,
      "Ġwe": 3060,
      "Ġàªµàª¡àªĹ": 3061,
      "oup": 3062,
      "àª¯àªªàª¦": 3063,
      "Ġàªıàª¸àªıàª®àªıàª¸": 3064,
      "Ġthrough": 3065,
      "Ġent": 3066,
      "Ġà¦": 3067,
      "àª¾à«¤": 3068,
      "à«ĩ)": 3069,
      "à«ĭàªĥ": 3070,
      "àª¶àª¬": 3071,
      "àª¶àª³àª¤": 3072,
      "Ġàªķàª°àª£": 3073,
      "àª¬àªĹ": 3074,
      "àª·àª¯àª®": 3075,
      "àª®àª¨àªµ": 3076,
      "àªĪàªª": 3077,
      "Ġàª§àª¡": 3078,
      "àªµàª¨àªĹàª°àª¨": 3079,
      "à¤Ń": 3080,
      "àªªàª°àª¸": 3081,
      "ĠàªĪàªķ": 3082,
      "Ġthem": 3083,
      "Ġà¤Ĺ": 3084,
      "Ġà«©à«®": 3085,
      "other": 3086,
      "2008": 3087,
      "ific": 3088,
      "Ġcomp": 3089,
      "irect": 3090,
      "ĠÂ·": 3091,
      "21": 3092,
      "à«ĩâĢĻ": 3093,
      "àª¯àª¯àª¨": 3094,
      "àªķàªļ": 3095,
      "àª²àª«": 3096,
      "Ġàª²àª¹": 3097,
      "à¤ľ": 3098,
      "hes": 3099,
      "Ġàª¨àªķàª¶": 3100,
      "àª®àª¤àª¨àªĹàª°": 3101,
      "Ġunder": 3102,
      "31": 3103,
      "99": 3104,
      "àª¿\"": 3105,
      "àª²àªŁ": 3106,
      "Ġàª¹àª²àª¨": 3107,
      "àª¬àª¨àª¨": 3108,
      "Ġàª®àªĹàªľàª¨": 3109,
      "outh": 3110,
      "ents": 3111,
      "Ġval": 3112,
      "Äģd": 3113,
      "ible": 3114,
      "Ġwhere": 3115,
      "ced": 3116,
      "àª¾/": 3117,
      "Ġàª¤àªµ": 3118,
      "àªĹàªķàª°": 3119,
      "àª³àª¦": 3120,
      "àªĸàª¥": 3121,
      "Ġàª¸àª®àª¤": 3122,
      "Ġà«§à«¯à«¯à«¦": 3123,
      "Ġoften": 3124,
      "à«§à«¯": 3125,
      "Ġ36": 3126,
      "Ġà«©à«§": 3127,
      "Ġ45": 3128,
      "eth": 3129,
      "196": 3130,
      "Ġbel": 3131,
      "Ġvi": 3132,
      "sp": 3133,
      "àªµàª£àª¨": 3134,
      "ĠàªªàªĹàª¨": 3135,
      "ĠàªĨàª°àªķ": 3136,
      "àªľàª¶": 3137,
      "Ġàª¬àªĸ": 3138,
      "Ġàªıàª°àª¬": 3139,
      "àªıàªŁàª²": 3140,
      "à¤ļ": 3141,
      "ines": 3142,
      "Ġsa": 3143,
      "àª¯àª°àª°": 3144,
      "Ġph": 3145,
      "Ġnew": 3146,
      "Ġàªıàªªàª²": 3147,
      "ose": 3148,
      "2005": 3149,
      "Ġ),": 3150,
      "55": 3151,
      "les": 3152,
      "à«ĭ'": 3153,
      "ĠàªĨàªĩàª¡": 3154,
      "Ġàªľàª¡": 3155,
      "àªªàª¸àª®": 3156,
      "àªĸàª®àª¨": 3157,
      "Ġàª²àª¸": 3158,
      "àªıàª¸àª®": 3159,
      "àªĩàª¨àª°": 3160,
      "àªĹàª¤àªµ": 3161,
      "ĠAn": 3162,
      "ĠàªĨàªĩàª¸àª²": 3163,
      "à«§à«¯à«ª": 3164,
      "Ġàªµàªĸàª¤àª¨": 3165,
      "ually": 3166,
      "78": 3167,
      "Ġàªķàª¢": 3168,
      "Ġàªµàª³àª¤": 3169,
      "Ġàªıàªķàª¥": 3170,
      "àªĩàªªàª°": 3171,
      "Ġàªīàªªàª¨àªĹàª°": 3172,
      "Ġ1920": 3173,
      "Ġàªªàª¡àª¯": 3174,
      "Ġà«©à«¦à«¦": 3175,
      "Ġà«©à«©": 3176,
      "Ġ42": 3177,
      "Ġonly": 3178,
      "silver": 3179,
      "29": 3180,
      "==": 3181,
      "Ġher": 3182,
      "Ġàªıàªµàª°": 3183,
      "àªĸàªµàªµ": 3184,
      "àªĪàªķàª²": 3185,
      "Ġàª§àª£": 3186,
      "àª¸àª¨àª²": 3187,
      "Ġà¤¤": 3188,
      "Ġàª²àªĸàª¨": 3189,
      "ild": 3190,
      "Ġà«©à«Ń": 3191,
      "àª¡àªķàª°àª¨": 3192,
      "Ġ65": 3193,
      "Ġno": 3194,
      "Ġàªªàª²àªŁàª£àª¨": 3195,
      "àª®àª¹àª¤": 3196,
      "Ġstud": 3197,
      "ures": 3198,
      "àª¦àª¹": 3199,
      "Ġàª¦àª°àª¨": 3200,
      "Ġàªļàª³": 3201,
      "à«ĭ.\"": 3202,
      "àªīàª®": 3203,
      "à«įâĢĮ": 3204,
      "Ġàª®àª°àªļ": 3205,
      "Ġàªªàªķàªµàªµ": 3206,
      "old": 3207,
      "Ġàªħàªķàª¬àª°àª¨": 3208,
      "Ġ1984": 3209,
      "Ġ1989": 3210,
      "ĠGovernment": 3211,
      "Ġ1945": 3212,
      "Ġabout": 3213,
      "83": 3214,
      "àª°àªľàªķ": 3215,
      "àª¨àªĿ": 3216,
      "Ġàª¸àª¬àª¸": 3217,
      "Ġàª®àª°àªķ": 3218,
      "àªĹàª³àª¨": 3219,
      "Ġàªĵàª²àªª": 3220,
      "Ġàª®àª¹àª¦": 3221,
      "Ġac": 3222,
      "à¥Ĥ": 3223,
      "àª²àªĹàªŃàªĹ": 3224,
      "Ġà«§à«¯à«Ńà«§": 3225,
      "ĠFilm": 3226,
      "lu": 3227,
      "Ġen": 3228,
      "Ġra": 3229,
      "àªĶ": 3230,
      "àª¯àª°àª®": 3231,
      "àª²àªķàªµ": 3232,
      "àªŃàª³àªµ": 3233,
      "àªĩàªĿàª°": 3234,
      "àª«àª®": 3235,
      "Ġàªļàª°àª£": 3236,
      "àªµàª²àªªàª®": 3237,
      "à¤¥": 3238,
      "Ġap": 3239,
      "Ġàªķàªªàª®": 3240,
      "ann": 3241,
      "àªķàª¸àªŃ": 3242,
      "à«¨à««": 3243,
      "Ġind": 3244,
      "Ġàªªàªķàª¡àªµ": 3245,
      "Ġà«§à«®à«¦": 3246,
      "Ġà«¨à«¦à«¦à«¨": 3247,
      "Ġàª¸àª®àªľàª£": 3248,
      "ians": 3249,
      "ĠĠĠĠĠĠĠĠ": 3250,
      "oy": 3251,
      "àª¯àªµàª°": 3252,
      "ĠàªľàªĹàª¤": 3253,
      "àª£àª¦": 3254,
      "à«ĩ...": 3255,
      "àª¹àª¨àªµ": 3256,
      "Ġàª¦àª®àª£": 3257,
      "ĠàªıàªĹ": 3258,
      "àªĩàª¸àª¨": 3259,
      "àªĩàªĿàª¨": 3260,
      "àªķàª¨àª¨": 3261,
      "àªµàª¨àªķ": 3262,
      "àª°àª¸àªµ": 3263,
      "iles": 3264,
      "àªªàªķàªªàª£": 3265,
      "à«¯à«¦": 3266,
      "Ġà«¨à«¦à«§à««": 3267,
      "Ġ1971": 3268,
      "à«§à«¯à«®": 3269,
      "72": 3270,
      "SI": 3271,
      "press": 3272,
      "Ġ\\": 3273,
      "àª¿àªĥ": 3274,
      "Ġàª¤àªŁàª¸": 3275,
      "àªĹàªĿ": 3276,
      "àª¡àª²àª¨": 3277,
      "Ġàª¹àª°àª£": 3278,
      "àª°àª£àªŃ": 3279,
      "Ġàªĵàª°àªķ": 3280,
      "âĢľ": 3281,
      "ret": 3282,
      "ĠàªĿàª°àª£": 3283,
      "Ġàªħàª¹àª®àª¦": 3284,
      "ise": 3285,
      "àªŀàª¤": 3286,
      "Ġwell": 3287,
      "àªıàª®àªı": 3288,
      "Ġàªµàª³àª¤àª°": 3289,
      "89": 3290,
      "cent": 3291,
      "Ġàªķàª¤": 3292,
      "Ġàªķàªĩ": 3293,
      "àª¸àª°àª£": 3294,
      "ĠàªĽàªª": 3295,
      "ĠàªĹàª¢àªµ": 3296,
      "Ġàª°àª¬": 3297,
      "Ġàª¨àªĸàª¤": 3298,
      "àªĺàªµ": 3299,
      "àªĺàªŁ": 3300,
      "ert": 3301,
      "ĠàªĿàªµ": 3302,
      "Ġwill": 3303,
      "Ġ300": 3304,
      "Ġàª²àªĸàªªàª¤": 3305,
      "Ġà«§à«¦à«¦à«¦": 3306,
      "ĠàªĳàªĹàª¸": 3307,
      "àªıàª«àªĵ": 3308,
      "àªľàª¯àª¨àªĹàª°": 3309,
      "Ġàª¹àª³àªªàª¤": 3310,
      "49": 3311,
      "57": 3312,
      "àªĲ": 3313,
      "à«ĩâĢĿ": 3314,
      "à«į,": 3315,
      "àªµàª°àªķ": 3316,
      "à«ģ:": 3317,
      "Ġàªµàª³àªµ": 3318,
      "Ġàª¦àª¸àªķ": 3319,
      "Ġthese": 3320,
      "Ġsm": 3321,
      "àª®àªķàª¤": 3322,
      "Ġàªľàª¨àª°": 3323,
      "Ġ2011": 3324,
      "Ġreg": 3325,
      "ĠHind": 3326,
      "ope": 3327,
      "à«§à«¯à«¯à«": 3328,
      "Ġà«§à«¯à«¯à«¯": 3329,
      "Ġ1947": 3330,
      "Ġsub": 3331,
      "Ġ1857": 3332,
      "Ġmovies": 3333,
      "Ġlarge": 3334,
      "42": 3335,
      "ha": 3336,
      "oot": 3337,
      "Ċĉĉ": 3338,
      "àª¨àª¯àª¨": 3339,
      "àª¨àª²àª¨": 3340,
      "àªķàªªàª£": 3341,
      "Ġàªķàª¡àªµ": 3342,
      "ĠàªĨàª°àª¸": 3343,
      "àªªàªĹ": 3344,
      "àªªàªª": 3345,
      "Ġàª¹àª²àªķ": 3346,
      "Ġàªıàªķàª¸àª°àªĸ": 3347,
      "àªľàª°àª¨": 3348,
      "àªĨàª¸": 3349,
      "àªĨàªª": 3350,
      "àª®àª£àª¨": 3351,
      "ank": 3352,
      "Ġàªķàª®àª³": 3353,
      "Ġàª®àª¦àª¦àª¨": 3354,
      "Ġrem": 3355,
      "row": 3356,
      "ook": 3357,
      "àª¯àªķàª¨": 3358,
      "àª¸àª³": 3359,
      "àª¹àªł": 3360,
      "àªļàª²àª¨": 3361,
      "àª¶àª¨àª¥": 3362,
      "ĠàªĩàªĿàª°": 3363,
      "àª¸àª¨àªķ": 3364,
      "àªķàª°àª£àª®": 3365,
      "Ġàªıàª²àª¸": 3366,
      "ury": 3367,
      "ĠàªŃàªĹàªµàª¦": 3368,
      "Ġà«§à«¯à«Ńà«¦": 3369,
      "ĠFTP": 3370,
      "pect": 3371,
      "ize": 3372,
      "03": 3373,
      "23": 3374,
      "Co": 3375,
      "àª¨àªĪ": 3376,
      "Ġàª¸àª¯": 3377,
      "àªľàª¬àª°": 3378,
      "Ġàª¦àª¶àª®": 3379,
      "àªļàª°àª²": 3380,
      "Ġàª²àª¤": 3381,
      "Ġàª²àª²": 3382,
      "àªĹàª®àª¤": 3383,
      "Ġob": 3384,
      "ĠàªĿàª°": 3385,
      "Ġà¤Ń": 3386,
      "Ġà«¯à«¦": 3387,
      "Ġ1940": 3388,
      "dust": 3389,
      "à«¨à«¦à«§à«§": 3390,
      "sc": 3391,
      "à«ĩ'": 3392,
      "àª¸àª°àª¤": 3393,
      "àª¸àª¬àª°": 3394,
      "ĠàªľàªĪàª¨": 3395,
      "àª¹àª°àª²": 3396,
      "Ġàª¬àª°àª¡": 3397,
      "àªĵàªŁ": 3398,
      "Ġàª§àª®àªķ": 3399,
      "àªĽàª®": 3400,
      "àªĨàªĩàª¨": 3401,
      "àªīàª¡": 3402,
      "àªīàª·": 3403,
      "àªħàª§": 3404,
      "Ġsong": 3405,
      "ative": 3406,
      "âĢĻâĢĻ": 3407,
      "ĠàªĹàª£àª°": 3408,
      "àª°àª¬àª³": 3409,
      "à«®à«¦": 3410,
      "ĠII": 3411,
      "Ġeff": 3412,
      "à¥ĩà¤Ĥ": 3413,
      "Ġ1962": 3414,
      "Ġàª°àª£àªĽ": 3415,
      "ject": 3416,
      "à«ĩ/": 3417,
      "àª¨àª¸àª¨": 3418,
      "àª®àªļàª°": 3419,
      "àª¡àª£": 3420,
      "Ġàª¦àª¸àª®": 3421,
      "Ġàªķàª°àªľàª£": 3422,
      "àªĪàªĵàª¨": 3423,
      "ĠàªĵàªĹàª£": 3424,
      "à«ģàªĤ.\"": 3425,
      "Ġàª®àª³àª¶": 3426,
      "ĠâĢĶ": 3427,
      "erv": 3428,
      "ature": 3429,
      "Ġbl": 3430,
      "ĠàªĺàªŁàª¤": 3431,
      "ĠBh": 3432,
      "Ġ1930": 3433,
      "gy": 3434,
      "àªĹàªªàª¤": 3435,
      "àª¯àª®àª¯": 3436,
      "ĠàªĬàª¡": 3437,
      "ather": 3438,
      "Ġàª¸àª¹àªľ": 3439,
      "Ġduring": 3440,
      "Ġdiff": 3441,
      "àª°àªĸàª¬àª°": 3442,
      "Ġà«§à«¯à««à««": 3443,
      "Ġext": 3444,
      "2000": 3445,
      "à§": 3446,
      "àª°àª§àª°": 3447,
      "àª£àªªàª¤": 3448,
      "Ġàªħàª¨àª¨": 3449,
      "àªĸàªª": 3450,
      "ĠàªļàªŁàª£": 3451,
      "à«Ī,": 3452,
      "âĢį": 3453,
      "àªĿàª°àª²": 3454,
      "àª¤àª°àª¥": 3455,
      "àªĺàª°àªľ": 3456,
      "inates": 3457,
      "erm": 3458,
      "ons": 3459,
      "Ġsim": 3460,
      "Ġbeing": 3461,
      "ries": 3462,
      "Ġàª¸àª®àªķàªķ": 3463,
      "Ġàª¸àª³àªĹ": 3464,
      "ĠHindi": 3465,
      "gest": 3466,
      "km": 3467,
      "pr": 3468,
      "ven": 3469,
      "à«Ģàªĥ": 3470,
      "àªµàªĹàª¢": 3471,
      "àª¯àªŁàªķ": 3472,
      "Ġàª¸àª°àª¨": 3473,
      "Ġàªµàªľ": 3474,
      "àª§àª¥": 3475,
      "àªļàª³": 3476,
      "ĠâĢį": 3477,
      "Ġcall": 3478,
      "ĠàªħàªªàªŃ": 3479,
      "Ġem": 3480,
      "ĠCent": 3481,
      "Ġàªįàª°": 3482,
      "ized": 3483,
      "ause": 3484,
      "|-|": 3485,
      "Ġàªļàª³àªķàª¤": 3486,
      "73": 3487,
      "han": 3488,
      "àª°àª³àª¨": 3489,
      "àª¨àªŁ": 3490,
      "àª®àªļàª²": 3491,
      "àª¸àªĹàª¢": 3492,
      "ĠàªĨàªī": 3493,
      "ĠàªĨàª®àª²": 3494,
      "Ġàªľàªª": 3495,
      "àª¡àª¯àª¨": 3496,
      "àª¬àªļ": 3497,
      "àªĪàªľ": 3498,
      "àªıàª¨àª¨": 3499,
      "àªĨàªķ": 3500,
      "àªĨàªĪàª¨": 3501,
      "àª¯àª®àª¥àªķ": 3502,
      "ople": 3503,
      "àªıàª«àªıàª¸": 3504,
      ".,": 3505,
      "66": 3506,
      "gal": 3507,
      "àª®àªªàª°": 3508,
      "ĠàªĨàªĹàª²": 3509,
      "Ġàª¬àª³àª¤": 3510,
      "Ġàªıàª¨àªŁ": 3511,
      "Ġcor": 3512,
      "Ġmade": 3513,
      "Ġ33": 3514,
      "Ġà««à«¦à«¦": 3515,
      "ural": 3516,
      "ution": 3517,
      "ages": 3518,
      "à«§à«¯à«Ń": 3519,
      "Ġwhen": 3520,
      "àªĭàª¤": 3521,
      "Ġyears": 3522,
      "*||": 3523,
      "85": 3524,
      "àª¨àªļ": 3525,
      "Ġàª¸àª¶àª¸": 3526,
      "àª¸àªĹ": 3527,
      "àªĹàª¯": 3528,
      "àª¥àª¥": 3529,
      "àª¦àª¬": 3530,
      "àªŃàª¤": 3531,
      "Ġàªıàªķàª®àª¨": 3532,
      "Ġmill": 3533,
      "lect": 3534,
      "àªĨàª¤àª¥": 3535,
      "resid": 3536,
      "Ġ1988": 3537,
      "ĠEur": 3538,
      "79": 3539,
      "àª¤àªĵ": 3540,
      "à«ĭâĢĻ,": 3541,
      "àª²àª¹": 3542,
      "Ġàª¸àª¡àªķ": 3543,
      "Ġàªķàª¥àª¨": 3544,
      "Ġàª°àª¥": 3545,
      "Ġàª¶àª£àªĹ": 3546,
      "Ġàª²àªĸàª¤": 3547,
      "Ġàªªàª°àªª": 3548,
      "Ġàªīàªªàª¨àª¦": 3549,
      "àªĨàªªàª£": 3550,
      "Ġacc": 3551,
      "nder": 3552,
      "Ġindust": 3553,
      "Ġà«¨à«¦à«¦à«©": 3554,
      "rop": 3555,
      "Ġ1975": 3556,
      "Ġdec": 3557,
      "Ġàª¹àª³àªµàª¦": 3558,
      "ology": 3559,
      "à±": 3560,
      "àªķàª°àªµ": 3561,
      "àªĹàª«": 3562,
      "àªŁàª¯": 3563,
      "àª¡àªŁ": 3564,
      "àªļàªª": 3565,
      "Ġàªªàª°àªĹàª£": 3566,
      "àª¦àª°àª¥": 3567,
      "Ġsur": 3568,
      "Ġcre": 3569,
      "Ġàªľàª¨àªľ": 3570,
      "ĠâĢĺâĢĺ": 3571,
      "à«¨à«¯": 3572,
      "Ġman": 3573,
      "Ġmain": 3574,
      "Ġàªıàª®àª¬": 3575,
      "Ġà¤Ĩ": 3576,
      "Ġàª®àª¤àª²àª¬": 3577,
      "oth": 3578,
      "Ġ1987": 3579,
      "ract": 3580,
      "Ġà«§à«¯à«ªà«¬": 3581,
      "Ġàª¤àªªàª¸": 3582,
      "Ġà«§à«¯à«¬à«¨": 3583,
      "Ġà«§à«¯à«¨à«®": 3584,
      "ock": 3585,
      "ordinates": 3586,
      "Ġà«§à«®à««à«Ń": 3587,
      "ool": 3588,
      "yes": 3589,
      "àª¨àª°àª¨": 3590,
      "Ġàª¸àª¡": 3591,
      "Ġàªħàª¯àª¸": 3592,
      "Ġàª¦àª¶àªķ": 3593,
      "àªĨàªīàªŁ": 3594,
      "ĠàªĨàªªàª£àª¨": 3595,
      "Ġàª®àª§àª°": 3596,
      "ĠàªĹàª£àªªàª¤": 3597,
      "Ġà«ªà«¦à«¦": 3598,
      "ods": 3599,
      "Ġ1979": 3600,
      "ered": 3601,
      "Ġà«§à«¯à«¯à«®": 3602,
      "Ġàªļàª³àªµàª³àª®": 3603,
      "ants": 3604,
      "Ġdisc": 3605,
      "Ġview": 3606,
      "Coordinates": 3607,
      "no": 3608,
      "àªĸàª®àª®": 3609,
      "Ġàªĸàª°àª¡": 3610,
      "àª§àª¨àªª": 3611,
      "Ġtem": 3612,
      "àªħàª¶": 3613,
      "àªħàª®àª¦": 3614,
      "àª°àª¥àª®àªµ": 3615,
      "àªıàª¸àª¸": 3616,
      "àªīàª¨àª²": 3617,
      "amil": 3618,
      "àªµàªªàªŁ": 3619,
      "Ġ1985": 3620,
      "Ġgener": 3621,
      "Ġà«§à«¯à«Ńà««": 3622,
      "Ġincre": 3623,
      "meric": 3624,
      "34": 3625,
      "58": 3626,
      "led": 3627,
      "Ġid": 3628,
      "Ġàª¸àªĹàª°": 3629,
      "àªľàª¹": 3630,
      "àªªàªķàª²": 3631,
      "à«ģàªĤ\"": 3632,
      "Ġàª°àª£àª¨": 3633,
      "Ġàªıàªı": 3634,
      "Ġàªıàª²àª¨": 3635,
      "àªĵàªµ": 3636,
      "àªĩàª«àª²": 3637,
      "Ġàªªàª°àª«": 3638,
      "àªĪàª°": 3639,
      "Ġàª«àª³àª¨": 3640,
      "ins": 3641,
      "inem": 3642,
      "Ġàªªàª¹àª²": 3643,
      "Ġàªıàª¨àª¸": 3644,
      "Ġà««à««": 3645,
      "ĠAr": 3646,
      "ĠàªľàªĹàª¤àª®": 3647,
      "Ġ1986": 3648,
      "à¦¾": 3649,
      "Ġà«§à«¯à«¨à«¦": 3650,
      "mit": 3651,
      "à«ģ\"": 3652,
      "àªĹàªµàª¤": 3653,
      "Ġàª¹àª¡": 3654,
      "Ġàª°àª¸àª¨": 3655,
      "Ġàª«àª¸": 3656,
      "àª°àªķàª®": 3657,
      "Ġàªĵàª³": 3658,
      "àª°àª¸àª°àª£": 3659,
      "àª¸àª°àª¥": 3660,
      "Ġthen": 3661,
      "Ġpos": 3662,
      "Ġnum": 3663,
      "ĠCom": 3664,
      "Ġà«¨à«¦à«§à«Ń": 3665,
      "ife": 3666,
      "à¥ĭà¤Ĥ": 3667,
      "Ġàª¬àª°àª«àª¨": 3668,
      "Ġpartic": 3669,
      "Ġworld": 3670,
      "iversity": 3671,
      "98": 3672,
      "ĠàªĨàªĩàªı": 3673,
      "Ġàªħàªĺàª°": 3674,
      "àªŁàª®àª®": 3675,
      "àªªàª¨àª¨": 3676,
      "Ġàª°àª¸àªª": 3677,
      "Ġàª§àª¸": 3678,
      "àª°àªķàª°": 3679,
      "ĠàªīàªªàªŃ": 3680,
      "àªīàª¨àª¨": 3681,
      "ĠàªĪàªľàª¨": 3682,
      "ĠàªĬàªªàª°": 3683,
      "itation": 3684,
      "Ġdirect": 3685,
      "Ġ180": 3686,
      "stem": 3687,
      "idd": 3688,
      "adition": 3689,
      "Ġà«§à«¯à««à«¨": 3690,
      "Ġatt": 3691,
      "Ġru": 3692,
      "ollow": 3693,
      "Äģda": 3694,
      "àª°àªªàª£": 3695,
      "àª¨àªĸ": 3696,
      "à«ĭâĢ¢": 3697,
      "àª¸àª¦àª®": 3698,
      "Ġàªµàª¢àªµ": 3699,
      "àªļàª¤àª°": 3700,
      "ĠàªŃàªĹàª¤": 3701,
      "Ġàª²àªŁàªķ": 3702,
      "àªĪàª¤": 3703,
      "àªĪàªĹàª°": 3704,
      "Ġàªĺàª¸": 3705,
      "àª¤àª¨àª®": 3706,
      "err": 3707,
      "ash": 3708,
      "Ġ74": 3709,
      "ĠKr": 3710,
      "Ġà«§à«¯à««à«Ń": 3711,
      "Ġà«§à«¯à««à«¬": 3712,
      "Ġà«§à«¯à«®à«Ń": 3713,
      "Ġà«§à«¯à«¯à«§": 3714,
      "ission": 3715,
      "ds": 3716,
      "nc": 3717,
      "Ġàªµàª¯àª¸": 3718,
      "àª·àª¦àª®": 3719,
      "Ġàªļàª¯": 3720,
      "àªīàªļ": 3721,
      "ĠàªĬàª¤àª°": 3722,
      "ating": 3723,
      "edia": 3724,
      "Ġbir": 3725,
      "Ġàª®àªķàª¬àª°": 3726,
      "Ġ37": 3727,
      "à«¬à«¦": 3728,
      "Ġàªļàª²àª£àª¨": 3729,
      "ĠAmeric": 3730,
      "Ġàªħàª¸àª°àªĹ": 3731,
      "Ġ73": 3732,
      "ama": 3733,
      "ĠChe": 3734,
      "à¤°à¤¤": 3735,
      "Ġà«§à««à«¦": 3736,
      "ript": 3737,
      "Ġvar": 3738,
      "ajor": 3739,
      "Ġspec": 3740,
      "ĠàªŃàªľàªµàªµ": 3741,
      "27": 3742,
      "44": 3743,
      "fore": 3744,
      "Ġx": 3745,
      "àª²àª¤àª®": 3746,
      "ĠàªħàªŁ": 3747,
      "àª¹àª¨àª¨": 3748,
      "àª§àª¶": 3749,
      "àª³àª°": 3750,
      "àªŃàªª": 3751,
      "Ġàªĵàª®": 3752,
      "àªłàª¤": 3753,
      "Ġàªĩàª¬": 3754,
      "arn": 3755,
      "ĠàªĹàª£àª¦": 3756,
      "à«¨à«ª": 3757,
      "àªŁàªķàª®": 3758,
      "àªīàª¨àª¶": 3759,
      "Ġàªħàªµàª¯àªµ": 3760,
      "Ġdate": 3761,
      "Ġ1973": 3762,
      "Ġà«§à«¯à«Ńà«¨": 3763,
      "ences": 3764,
      "74": 3765,
      "95": 3766,
      "ek": 3767,
      "ma": 3768,
      "tok": 3769,
      "àª¨àªµàª¨": 3770,
      "àª¨àª¬àª°": 3771,
      "Ġàª®àª¨àª¨": 3772,
      "Ġàªµàª¡àª¨": 3773,
      "Ġàª¬àª¡": 3774,
      "ĠàªĨàªµàªķàª®": 3775,
      "Ġàªļàª®àª¤": 3776,
      "àªıàª®àª£": 3777,
      "Ġàª«àªĹ": 3778,
      "àªĿàª¬": 3779,
      "àª§àª¨àª°": 3780,
      "à«©à««": 3781,
      "Ġ48": 3782,
      "ĠàªľàªĹàª¤àª¨": 3783,
      "Ġàª¬àªļàª¤": 3784,
      "Ġàªĳàª¸": 3785,
      "Ġ1981": 3786,
      "2004": 3787,
      "Ġstate": 3788,
      "angtok": 3789,
      "wards": 3790,
      "Ġpeople": 3791,
      "EE": 3792,
      "por": 3793,
      "tp": 3794,
      "àª¨àªµàª°": 3795,
      "àª¿âĢĻ": 3796,
      "Ġàªªàª¯àªĹ": 3797,
      "Ġàª®àª¡": 3798,
      "ĠàªĹàª¨": 3799,
      "àª§àªķàª¨": 3800,
      "Ġàª°àª¡": 3801,
      "Ġàª¬àªļàªµ": 3802,
      "àª°àªķàª²": 3803,
      "àªłàªķàª®": 3804,
      "Ġ1000": 3805,
      "Ġàª®àª¹àª°": 3806,
      "Ġapp": 3807,
      "àª¦àª°àª¡": 3808,
      "ina": 3809,
      "inist": 3810,
      "ĠàªĬàªŁ": 3811,
      "à«¨à«¨": 3812,
      "ĠàªħàªµàªĹàª£àª¨": 3813,
      "àªĨàª°àªŁ": 3814,
      "Ġend": 3815,
      "Ġname": 3816,
      "Ġàªīàª²àªŁ": 3817,
      "Ġà«§à«¯à«ªà««": 3818,
      "2009": 3819,
      "Ġà«§à«¯à«©à«¨": 3820,
      "Ġàªħàª«àª¸àª°": 3821,
      "Ġuse": 3822,
      "ublic": 3823,
      "velop": 3824,
      "aw": 3825,
      "Ġi": 3826,
      "ĪĴ": 3827,
      "àª¨àªı": 3828,
      "àªµàª¤àª°": 3829,
      "à«ĭ/": 3830,
      "àªķàªľ": 3831,
      "àªĹàªľ": 3832,
      "àªªàªĸ": 3833,
      "àª£àªķàª°": 3834,
      "Ġàªµàªľàª¨àª¨": 3835,
      "àª¹àª¬": 3836,
      "àªĸàª¨àª¨": 3837,
      "àªıàª²àªª": 3838,
      "Ġàªīàªªàªķ": 3839,
      "àª¤àª°àª¡": 3840,
      "Ġàªīàª¤àª°àª¤": 3841,
      "ĠàªĪàªĿàª°": 3842,
      "Ġàª¨àªµàªľ": 3843,
      "Ġcult": 3844,
      "Ġmark": 3845,
      "Ġ64": 3846,
      "Ġàª¢àª¬": 3847,
      "ĠPresid": 3848,
      "àªĨàªĩàªª": 3849,
      "àªĹàª¡àª®àª¨": 3850,
      "Ġ1969": 3851,
      "1990": 3852,
      "inted": 3853,
      "Ġcommon": 3854,
      "ĠCentral": 3855,
      ",.": 3856,
      "05": 3857,
      "àª®àª¦àª¨": 3858,
      "Ġàª¸àªĺàª¨": 3859,
      "àª¸àªĵàª°": 3860,
      "àª¡àªľ": 3861,
      "ĠàªĹàªľ": 3862,
      "ĠàªĹàªł": 3863,
      "Ġàª¦àª®àª¨": 3864,
      "àªļàª¥": 3865,
      "Ġàªıàª°àªµ": 3866,
      "Ġàªĸàª¤àª®": 3867,
      "Ġàªªàª°àª¦": 3868,
      "àª°àª®àªĹ": 3869,
      "àªµàª°àª¸": 3870,
      "Ġàª°àª¹àª¯": 3871,
      "àªĹàª¤àª¤": 3872,
      "ision": 3873,
      "arg": 3874,
      "Ġàªķàª²àª°": 3875,
      "Ġmajor": 3876,
      "Ġpres": 3877,
      "Ġàªıàª®àªŁ": 3878,
      "ict": 3879,
      "Ġ54": 3880,
      "Ġrele": 3881,
      "imes": 3882,
      "uth": 3883,
      "Ġà«¨à«¦à«§à«¬": 3884,
      "Ġ1982": 3885,
      "ĠHowever": 3886,
      "ower": 3887,
      "Ġsex": 3888,
      "ĠWest": 3889,
      "ĠàªĹàªĿàª²àª¨": 3890,
      "Ġincluding": 3891,
      "Ġsmall": 3892,
      "co": 3893,
      "uch": 3894,
      "xf": 3895,
      "Ġà¥": 3896,
      "Ġvery": 3897,
      "àªį": 3898,
      "àª¯àª«àª³": 3899,
      "àª¸àªķàª°": 3900,
      "àª¥àªĹ": 3901,
      "Ġàª°àªĺ": 3902,
      "àªĸàª¶": 3903,
      "Ġàª§àªª": 3904,
      "hem": 3905,
      "inal": 3906,
      "àªħàª®àª°": 3907,
      "Ġàªıàª¨àª¬": 3908,
      "à««à««": 3909,
      "Ġà¤¬": 3910,
      "ick": 3911,
      "Ġorig": 3912,
      "àª¹àªľàª¹": 3913,
      "position": 3914,
      "Ġvalues": 3915,
      "Ġappe": 3916,
      "àª¤àªĹ": 3917,
      "àªķàªµàª°": 3918,
      "àª¸àªµàª°": 3919,
      "àª£àª°": 3920,
      "àª£àª¯àª¨": 3921,
      "àª¦àªľ": 3922,
      "àª¦àª¦": 3923,
      "àª¦àª¯àª¨": 3924,
      "àª§àª¸": 3925,
      "à¤¬": 3926,
      "its": 3927,
      "à«¨à«Ń": 3928,
      "Ġmiles": 3929,
      "Ġà¤¶": 3930,
      "Ġàªľàª®àªµ": 3931,
      "ĠAl": 3932,
      "Ġeye": 3933,
      "Ġwhile": 3934,
      "àª¨àª¹àªŁàª¨": 3935,
      "angu": 3936,
      "Ġcontin": 3937,
      "Ġcentury": 3938,
      "Ġfeet": 3939,
      "06": 3940,
      "ience": 3941,
      "Ø§": 3942,
      "á¹": 3943,
      "àª¾àªĤ-": 3944,
      "Ġàªªàª®": 3945,
      "ĠàªĨàªĩàª²": 3946,
      "àªľàª°àª¤": 3947,
      "Ġàªµàª¨àªµ": 3948,
      "Ġàª°àª¨àª¨": 3949,
      "Ġàª°àª¤àª¨": 3950,
      "àªĸàª¦": 3951,
      "àª·àªķàª¨": 3952,
      "àª·àª¯àªµàª¸": 3953,
      "àªĵàªª": 3954,
      "àªĵàª¡": 3955,
      "Ġàªĵàªµ": 3956,
      "Ġàªķàªªàª¡àªµ": 3957,
      "ished": 3958,
      "à«¨à«®": 3959,
      "à«¨à«§": 3960,
      "Ġàªķàª®àª²": 3961,
      "Ġhigh": 3962,
      "àª¯àª²àªķ": 3963,
      "Ġeyes": 3964,
      "Ġlong": 3965,
      "à¤¾à¤Ĥ": 3966,
      "Ġàª°àªķàª®àª¨": 3967,
      "ĠàªĨàªĩàª¬": 3968,
      "ĠPress": 3969,
      "ĠThere": 3970,
      "Ġà«§à«¯à«¯à«¬": 3971,
      "year": 3972,
      "Ġadd": 3973,
      "Ġcenter": 3974,
      "Ġcalled": 3975,
      "67": 3976,
      "://": 3977,
      "LAN": 3978,
      "àª¨àª¤àª®": 3979,
      "àªķàªł": 3980,
      "àª²àª°àª®": 3981,
      "Ġàª®àªĿ": 3982,
      "Ġàªħàª°àª¸": 3983,
      "àª£àªı": 3984,
      "àª¦àªķàª¤": 3985,
      "ĠàªŃàªļ": 3986,
      "àª·àª¬": 3987,
      "àªĿàª¬àª°": 3988,
      "Ġ120": 3989,
      "àªµàª°àªª": 3990,
      "àª£àªµàª¡": 3991,
      "Ġtra": 3992,
      "Ġ250": 3993,
      "Ġsing": 3994,
      "àª®àªķàª¡": 3995,
      "àª®àªķàª°àª£": 3996,
      "Ġcity": 3997,
      "Ġpers": 3998,
      "ĠSe": 3999,
      "Ġ79": 4000,
      "àªµàªŃàª°àª¨": 4001,
      "à«¯à««": 4002,
      "à«§à«¯à«¬": 4003,
      "Ġà«§à«¯à«®à«¯": 4004,
      "Ġàªıàª«àªıàª®": 4005,
      "ought": 4006,
      "III": 4007,
      "ĠàªĵàªĹàª·": 4008,
      "Ġamong": 4009,
      "Ġàªıàª°àª¬àª¸": 4010,
      "ble": 4011,
      "uc": 4012,
      "war": 4013,
      "àªµàª²àª¨": 4014,
      "àªŁàª°àªµ": 4015,
      "Ġàª¨àª²": 4016,
      "Ġàª¬àªķàª°": 4017,
      "à«Ĥ-": 4018,
      "àªĩàªŁàª°": 4019,
      "àª¯àª¨àª¥": 4020,
      "àª¸àª¨àªĹàª°": 4021,
      "àª°àª¸àª®": 4022,
      "àª°àª¹àª²": 4023,
      "Ġco": 4024,
      "align": 4025,
      "Ġinst": 4026,
      "Ġà¤ĩ": 4027,
      "à«©à«©": 4028,
      "left": 4029,
      "Ġà«©à«ª": 4030,
      "2002": 4031,
      "àª¨àªĹàª°àªª": 4032,
      "à«¯à«¬": 4033,
      "Ġà«§à«¯à«¯à«Ń": 4034,
      "Ġàª°àª£àªĹ": 4035,
      "ishna": 4036,
      "Ġtradition": 4037,
      "rict": 4038,
      "Ġdiffere": 4039,
      "37": 4040,
      "300": 4041,
      "IP": 4042,
      "_{": 4043,
      "lish": 4044,
      "àª²àª¸àª¨": 4045,
      "àª¸àªµàª¨": 4046,
      "Ġàªľàª¬àª°": 4047,
      "Ġàªľàªĩàª¨": 4048,
      "Ġàªľàª³àª¨": 4049,
      "Ġàªħàª°àªµ": 4050,
      "Ġàª¹àª¬": 4051,
      "àª³àªª": 4052,
      "Ġàªªàª°àª¶": 4053,
      "Ġàªĵàªľ": 4054,
      "à«ĭ..": 4055,
      "àªīàªª": 4056,
      "àªīàª¸àª¨": 4057,
      "Ġàªĩàª¯": 4058,
      "Ġàª¸àª°àª¹": 4059,
      "àª¯àª°àªļàª¨": 4060,
      "esh": 4061,
      "Ġwrit": 4062,
      "Ġwater": 4063,
      "ĠIV": 4064,
      "ĠAf": 4065,
      "âĢĿ,": 4066,
      "ĠBen": 4067,
      "ids": 4068,
      "elf": 4069,
      "Ġà«§à«¯à«®à«¨": 4070,
      "aking": 4071,
      "Ġsec": 4072,
      "Ġexam": 4073,
      "ments": 4074,
      "Ġà«§à«®à«®à«ª": 4075,
      "ccess": 4076,
      "center": 4077,
      "inema": 4078,
      "Ġparticular": 4079,
      "%,": 4080,
      "09": 4081,
      "71": 4082,
      "84": 4083,
      "ele": 4084,
      "ron": 4085,
      "ya": 4086,
      "ĠÏ": 4087,
      "Ġest": 4088,
      "àª®àªµàª°": 4089,
      "Ġàªªàª¦àª¨": 4090,
      "à«ģàªĤ-": 4091,
      "Ġàª°àª¬àª°": 4092,
      "Ġàª¦àª®": 4093,
      "Ġàªıàªıàª®": 4094,
      "àªŃàª°àª¨": 4095,
      "ĠàªĨàª°àª¸àª¨": 4096,
      "Ġcur": 4097,
      "Ġpp": 4098,
      "ently": 4099,
      "ĠGangtok": 4100,
      "Ġ1974": 4101,
      "Ġà«§à«¯à«¬à«®": 4102,
      "à«§à«¯à««": 4103,
      "Ġà«§à«¯à«®à«ª": 4104,
      "Ġà«§à«¯à«¯à««": 4105,
      "Ġshow": 4106,
      "Ġchang": 4107,
      "ways": 4108,
      "àªĲàª¤": 4109,
      "65": 4110,
      "iet": 4111,
      "lim": 4112,
      "àª¨àªªàª£": 4113,
      "àª¤àª¬": 4114,
      "àª¸àªı": 4115,
      "Ġàª®àª¯": 4116,
      "àª¶àª¯àª¨": 4117,
      "àª§àªļ": 4118,
      "Ġàªļàª¨": 4119,
      "àªµàª¸àª¤": 4120,
      "ĠàªĵàªĹàª³": 4121,
      "àªīàªĽ": 4122,
      "Ġàªªàª¡àª¦": 4123,
      "Ġmon": 4124,
      "àªıàª¸àªıàª¸": 4125,
      "àª¥àªķàª°àª£": 4126,
      "à«Ńà««": 4127,
      "1980": 4128,
      "ĠMah": 4129,
      "Ġà«§à«¯à«ªà«ª": 4130,
      "istan": 4131,
      "ĠGaz": 4132,
      "2001": 4133,
      "Ġà«§à«¯à«¬à«§": 4134,
      "Ġ1967": 4135,
      "Ġart": 4136,
      "ribut": 4137,
      "Ġbecame": 4138,
      "Ġgroup": 4139,
      "Ġnumber": 4140,
      "ĠKrishna": 4141,
      "07": 4142,
      "aik": 4143,
      "cess": 4144,
      "oh": 4145,
      "àª¤àª²àªª": 4146,
      "àªµàªŁàª®": 4147,
      "àª¯àª§": 4148,
      "àª²àª£": 4149,
      "Ġàª®àª¢": 4150,
      "àªĹàª¨àª¨": 4151,
      "àªĹàª¶àª°": 4152,
      "Ġàª¹àª¡àªª": 4153,
      "ĠàªĹàª¹àª¨": 4154,
      "Ġàª°àª£àª®": 4155,
      "Ġàª°àª®àªķàª¡": 4156,
      "Ġàªīàª¶": 4157,
      "àªĩàªµàª°": 4158,
      "àª°àª£àªµ": 4159,
      "ĠàªĵàªķàªŁ": 4160,
      "àª¤àª°àª«": 4161,
      "àª¸àª®àªĹ": 4162,
      "Ġsl": 4163,
      "ata": 4164,
      "Ġpol": 4165,
      "ases": 4166,
      "ette": 4167,
      "Ġ51": 4168,
      "Ġreal": 4169,
      "Ġàªħàªµàª¸àª°": 4170,
      "Ġàªµàª²àª£àª¨": 4171,
      "Ġà«§à«¯à«¬à«Ń": 4172,
      "Ġà«§à«¯à«Ńà«ª": 4173,
      "ains": 4174,
      "Ġbelie": 4175,
      "ĠEurope": 4176,
      "Ġindustry": 4177,
      "form": 4178,
      "à«ĩà«¤": 4179,
      "àª¨àªµàª¸": 4180,
      "àª¸àªŃàª°": 4181,
      "ĠàªĨàªĹàª¨": 4182,
      "ĠàªĨàªķàª¸": 4183,
      "Ġàª®àª«àª¤": 4184,
      "àª¹àªķàª¨": 4185,
      "àª¹àªĿ": 4186,
      "Ġàª¦àª·": 4187,
      "àªĩàªĹ": 4188,
      "àª°àª£àª¸àª°": 4189,
      "Ġàª¸àª®àª²": 4190,
      "àªĺàª°àª¨": 4191,
      "àªľàª¨àª°àª²": 4192,
      "ink": 4193,
      "àªħàª¬": 4194,
      "àª¸àª°àª¦": 4195,
      "anal": 4196,
      "Ġway": 4197,
      "àª¤àªķàªµ": 4198,
      "Ġmem": 4199,
      "ĠàªĨàªĩàª°": 4200,
      "Ġà«§à«¯à«ªà«¦": 4201,
      "Ġà«§à«¯à«ªà«¯": 4202,
      "Ġ1976": 4203,
      "iander": 4204,
      "Ġàªľàª³àªļàª°": 4205,
      "Ġanim": 4206,
      "Ġà«§à«¯à«¦à«¦": 4207,
      "Ġà«§à«¯à«¯à«ª": 4208,
      "aves": 4209,
      "ĠUnited": 4210,
      "Ġmusic": 4211,
      ").": 4212,
      "87": 4213,
      "col": 4214,
      "ued": 4215,
      "àªĻ": 4216,
      "àªķàª«": 4217,
      "à«ģà«į": 4218,
      "ĠàªĨàª¸àª¨": 4219,
      "àª¶àªŃàª°àª®": 4220,
      "ĠàªŃàª£àªµ": 4221,
      "Ġàª«àªķàª¤": 4222,
      "àªĿàª®àª¨": 4223,
      "àªħàªľ": 4224,
      "àª¸àª®àª°": 4225,
      "àªķàª¸àªªàª£": 4226,
      "eds": 4227,
      "Ġfollow": 4228,
      "Ġboth": 4229,
      "Ġà«¬à««": 4230,
      "à«©à«Ń": 4231,
      "àª²àªķàª¤àª¨": 4232,
      "Ġthree": 4233,
      "ĠPro": 4234,
      "Ġ1972": 4235,
      "Ġ1977": 4236,
      "Ġà«§à«¯à«¬à«¯": 4237,
      "Ġà«§à«¯à«Ńà«¬": 4238,
      "Ġà«§à«¯à«©à«Ń": 4239,
      "Ġ1948": 4240,
      "Ġàªıàª«àªı": 4241,
      "ived": 4242,
      "ĠVLAN": 4243,
      "ically": 4244,
      "ĠCheck": 4245,
      "ĠGazette": 4246,
      "46": 4247,
      "the": 4248,
      "à«ĩ!": 4249,
      "àª°àªĸàª°": 4250,
      "Ġàªľàª³àª®": 4251,
      "ĠàªħàªĿ": 4252,
      "àª¡àª°àª®": 4253,
      "àª¬àª¥": 4254,
      "àªīàªĿàª°": 4255,
      "Ġty": 4256,
      "Ġset": 4257,
      "ĠàªĬàªł": 4258,
      "Ġcould": 4259,
      "ala": 4260,
      "arch": 4261,
      "Ġbr": 4262,
      "à«©à«¨": 4263,
      "à«©à«®": 4264,
      "Ġ59": 4265,
      "Ġ600": 4266,
      "veral": 4267,
      "Ġà«§à«¯à«©à«¬": 4268,
      "ĠLAN": 4269,
      "Ġsuccess": 4270,
      "Ġinflu": 4271,
      "Ġmodern": 4272,
      "ĠPresidency": 4273,
      "xford": 4274,
      "02": 4275,
      "As": 4276,
      "ex": 4277,
      "àª¿'": 4278,
      "Ġàªªàªµàª¨àª¨": 4279,
      "à«ĩ.,": 4280,
      "àª¹àª¡": 4281,
      "ĠàªŃàª¤": 4282,
      "àª¬àªĩàª¨": 4283,
      "Ġàªĸàªµàª¡": 4284,
      "Ġàªīàª¡àª¤": 4285,
      "Ġàªıàªķàªľ": 4286,
      "àªĨàª°àª¸": 4287,
      "àªŁàª°àªĹ": 4288,
      "Ġfore": 4289,
      "orld": 4290,
      "Ġà¤ī": 4291,
      "Ġday": 4292,
      "amp": 4293,
      "ĠBrit": 4294,
      "Ġass": 4295,
      "à«§à«¯à«©": 4296,
      "Ġà«§à«¯à«¯à«¨": 4297,
      "Ġseveral": 4298,
      "Äģnt": 4299,
      "à¥Īà¥¤": 4300,
      "ruct": 4301,
      "Ġsystem": 4302,
      "Ġrupe": 4303,
      "Ġdifferent": 4304,
      "ĠGazetteer": 4305,
      "),": 4306,
      "01": 4307,
      "400": 4308,
      "53": 4309,
      "ired": 4310,
      "pur": 4311,
      "ram": 4312,
      "àª°àªľàª¨": 4313,
      "àª¾àªĤ:": 4314,
      "Ġàª¤àª°àªķ": 4315,
      "Ġàª¨àªĸ": 4316,
      "ĠàªŃàªł": 4317,
      "Ġàª¸àª®àª¯àªķ": 4318,
      "àªĨàªļ": 4319,
      "àªīàªŁàª°": 4320,
      "Ġsince": 4321,
      "Ġàª°àªľàªķàª£": 4322,
      "atic": 4323,
      "Ġcap": 4324,
      "Ġàªĵàª³àªĸàª¤": 4325,
      "à««à«Ń": 4326,
      "Ġbu": 4327,
      "Ġmed": 4328,
      "Ġàªıàª®àªª": 4329,
      "à«ªà«®": 4330,
      "Ġà«ªà«®": 4331,
      "àªľàª®àª¹": 4332,
      "Ġnow": 4333,
      "ĠMus": 4334,
      "Ġgreat": 4335,
      "Ġà«§à«¯à«ªà«§": 4336,
      "Ġàªªàª²àªŁ": 4337,
      "Ġàªħàª¦àªŃ": 4338,
      "Ġ1965": 4339,
      "pend": 4340,
      "Ġvill": 4341,
      "Ġactors": 4342,
      "Ġàªħàª¸àª®àª°": 4343,
      "àªµàªĹàª¢àª¬": 4344,
      "Bollywood": 4345,
      "ration": 4346,
      "àª¨àªŃ": 4347,
      "àª¨àª®àª¨": 4348,
      "àª¨àªµàª²": 4349,
      "àª¤àª°àª¤": 4350,
      "àªµàªĸàª¤": 4351,
      "Ġàª¤àªĸ": 4352,
      "àªľàªªàª¤": 4353,
      "àª·àªĹ": 4354,
      "àª°àª¤àªŃàª°àª®": 4355,
      "Ġàª¡àªĿàª¨": 4356,
      "à«Ģ..": 4357,
      "Ġàª¤àª°àª¸": 4358,
      "Ġàª®àª¹àª®àª¦": 4359,
      "Ġàªĩàªª": 4360,
      "Ġav": 4361,
      "àªħàªµ": 4362,
      "àª°àª¦àª¯": 4363,
      "Ġàª®àªĹàªľ": 4364,
      "à¥ĥ": 4365,
      "à«Ńà«¦": 4366,
      "àªĹàª¢àª®": 4367,
      "àªļàªµàª£": 4368,
      "ĠAd": 4369,
      "Ġnon": 4370,
      "Ġàª¸àª¨àª¦": 4371,
      "ĠNH": 4372,
      "Ġstyle": 4373,
      "Ġà«§à«¨à«¦": 4374,
      "ĠLe": 4375,
      "Ġorgan": 4376,
      "àª¨àª¹àªŁàª¨àª¨": 4377,
      "Ġdevelop": 4378,
      "Ġplay": 4379,
      "Ġeven": 4380,
      "ĠâĤ": 4381,
      "Ġagain": 4382,
      "54": 4383,
      "GA": 4384,
      "ax": 4385,
      "citation": 4386,
      "ix": 4387,
      "àª¨àªľàª°": 4388,
      "àª®àªķàª°": 4389,
      "àªĹàª°àªķ": 4390,
      "Ġàªħàªĺ": 4391,
      "Ġàª¹àª¡àª¸àª¨": 4392,
      "ĠàªĹàªŃàª°": 4393,
      "Ġàª°àª¬àª°àª¨": 4394,
      "Ġàªıàªķàª¦": 4395,
      "àªĩàª¶": 4396,
      "àªĪàªķàªµ": 4397,
      "Ġàª§àª®": 4398,
      "àª¨àª¨àª¨": 4399,
      "Ġàªĩàªĵàª®": 4400,
      "àª°àªµàªŁ": 4401,
      "à¤ĸ": 4402,
      "ined": 4403,
      "Ġold": 4404,
      "àªŁàªķàª¥": 4405,
      "Ġà¤²": 4406,
      "Ġ...": 4407,
      "à«Ńà«®": 4408,
      "ilos": 4409,
      "à«ªà«©": 4410,
      "ĠàªĨàª¶àª¯": 4411,
      "Ġà«®à««": 4412,
      "Ġlight": 4413,
      "ros": 4414,
      "odaik": 4415,
      "Ġ1983": 4416,
      "Ġgovernment": 4417,
      "Ġà«§à«¯à«¬à«¬": 4418,
      "avÄģda": 4419,
      "Ġmovie": 4420,
      "Ġeffect": 4421,
      "anguage": 4422,
      "Ġàª¸àª°àª¹àª¦àª¨": 4423,
      "ilosop": 4424,
      "odaikanal": 4425,
      "69": 4426,
      "der": 4427,
      "ty": 4428,
      "ting": 4429,
      "ĊĠ": 4430,
      "Ġàª¤àªľ": 4431,
      "àªªàª¸àª¨": 4432,
      "Ġàªµàª¶": 4433,
      "àª¥àª¯": 4434,
      "àª¦àª¸àª®": 4435,
      "Ġàª¹àª¦àª®": 4436,
      "Ġàª¹àª¡àª¤": 4437,
      "àª³àªĹ": 4438,
      "Ġàª²àª¯": 4439,
      "àª®àª¨àª¸": 4440,
      "àªĪàª¶": 4441,
      "àªĪàª°àª¸àª¨": 4442,
      "àª¤àª°àª¶": 4443,
      "Ġàªĩàª¥": 4444,
      "àªµàª¨àª¶": 4445,
      "Ġser": 4446,
      "Ġmet": 4447,
      "àªıàª¸àª¡": 4448,
      "asing": 4449,
      "Ġà«¬à«¦à«¦": 4450,
      "Ġàªıàª²àªļ": 4451,
      "Ġnam": 4452,
      "Ġàª²àª¡àª¤àª¨": 4453,
      "Ġ85": 4454,
      "Ġ99": 4455,
      "Ġà«§à«¯à«Ńà«Ń": 4456,
      "Ġà«§à«¯à«Ńà«©": 4457,
      "Ġà«§à«¬à«¦": 4458,
      "Ġà«§à«¯à«®à«©": 4459,
      "àª¯àªŃàªŁ": 4460,
      "Ġchar": 4461,
      "air": 4462,
      "br": 4463,
      "io": 4464,
      "ta": 4465,
      "ti": 4466,
      "ule": 4467,
      "àª¨àªªàª¤": 4468,
      "àª®àªł": 4469,
      "à«ģ'": 4470,
      "àª¸àª°àª¸": 4471,
      "ĠàªĨàªĪàª¸": 4472,
      "Ġàªľàª¸àª¦": 4473,
      "àªľàªªàª°": 4474,
      "àªªàªĽ": 4475,
      "àª¡àª²àª®": 4476,
      "àª§àª³": 4477,
      "àª§àªĸ": 4478,
      "àª¬àªµ": 4479,
      "àªıàªŁàª°": 4480,
      "Ġàª¸àª®àªµ": 4481,
      "âĢĮ": 4482,
      "Ġàªµàª°àª¸àª¨": 4483,
      "àªīàªªàª¯": 4484,
      "àªŁàª°àª¥": 4485,
      "Ġcar": 4486,
      "Ġàªħàª¸àª¹": 4487,
      "Ġàªħàª¸àª¹àªķ": 4488,
      "Ġbro": 4489,
      "Ġà««à«¬": 4490,
      "Ġà«ªà«¬": 4491,
      "ĠSome": 4492,
      "àªıàª¨àªı": 4493,
      "àª°àª®àª£àªķ": 4494,
      "Ġanc": 4495,
      "Ġ1968": 4496,
      "Ġà«§à«¯à««à«¯": 4497,
      "Ġà«§à«¯à«¯à«©": 4498,
      "Ġperi": 4499,
      "hys": 4500,
      "59": 4501,
      "86": 4502,
      "AC": 4503,
      "me": 4504,
      "mber": 4505,
      "vent": 4506,
      "Ġif": 4507,
      "àª¾àªĥ": 4508,
      "àªµàªªàª°": 4509,
      "Ġàªķàª®àª°": 4510,
      "ĠàªĨàªĽ": 4511,
      "Ġàª®àª¤àª¨": 4512,
      "àªŁàªĹ": 4513,
      "àªŁàª¦": 4514,
      "àª³àªªàª£àª¨": 4515,
      "ĠàªĸàªŁàª²": 4516,
      "àªĵàªµàª°": 4517,
      "Ġàªīàª®àª¦": 4518,
      "àªĺàª³": 4519,
      "àª¾.\"": 4520,
      "àªµàª¨àª¸": 4521,
      "Ġàª¦àª°àªĹ": 4522,
      "àªľàªķàª¤": 4523,
      "Ġàª¶àª°àª¦": 4524,
      "Ġsound": 4525,
      "Ġfew": 4526,
      "Ġàª¸àª¤àª²": 4527,
      "Ġinter": 4528,
      "à«ªà«¬": 4529,
      "Ġtop": 4530,
      "Ġà««à«¨": 4531,
      "Ġà««à«¯": 4532,
      "Ġ47": 4533,
      "ĠApr": 4534,
      "ĠàªľàªĹàª¦": 4535,
      "Ġ55": 4536,
      "Ġà«Ńà«®": 4537,
      "ote": 4538,
      "Ġà«¨à«¦à«§à«®": 4539,
      "ulation": 4540,
      "Ġ1978": 4541,
      "Ġà«§à«Ńà«®": 4542,
      "Ġà«§à«¯à«©à«¯": 4543,
      "udd": 4544,
      "Ġà«§à«¯à«¨à«¨": 4545,
      "ĠOxford": 4546,
      "ĠVIII": 4547,
      "ording": 4548,
      "Ġàª¦àª¶àªķàª®": 4549,
      "Ġàª®àª¥àªķàª¨": 4550,
      "04": 4551,
      "96": 4552,
      "]]": 4553,
      "ave": 4554,
      "mon": 4555,
      "ness": 4556,
      "àª°àªªàª°": 4557,
      "àª¨àªĸàª°": 4558,
      "àª®àª¸àª¨": 4559,
      "Ġàªħàª°àª®": 4560,
      "à«ĩ.:": 4561,
      "ĠàªĹàª³àª¤": 4562,
      "àª°àª¤àª¥": 4563,
      "àª«àªı": 4564,
      "àªĪàª¡àª¨": 4565,
      "àª¯àª¤àª®": 4566,
      "à«Ģ.,": 4567,
      "àªħàª£": 4568,
      "àª°àª¹àª°": 4569,
      "ara": 4570,
      "Ġà¤Ķ": 4571,
      "à«Ńà«¬": 4572,
      "ĠàªħàªµàªĹàª£": 4573,
      "Ġàªķàªµàªļ": 4574,
      "Ġ700": 4575,
      "ĠHollywood": 4576,
      "àª¼à«Ģ": 4577,
      "ĠEng": 4578,
      "Ġ1959": 4579,
      "Ġ802": 4580,
      "Ġimport": 4581,
      "Ġearly": 4582,
      "Ġàª¬àª³àª¤àª£": 4583,
      "Ġposs": 4584,
      "error": 4585,
      "ĠAfric": 4586,
      "Ġàªľàª¸àª¦àª£": 4587,
      "land": 4588,
      "à«į-": 4589,
      "àª®àªı": 4590,
      "àª¯àªĿ": 4591,
      "àª¯àª£àª®": 4592,
      "Ġàª¸àª°àª®": 4593,
      "Ġàª¸àª¸àª²": 4594,
      "àª¡àª¦": 4595,
      "Ġàª¹àª°àª¦": 4596,
      "Ġàª¨àª¬": 4597,
      "àª¬àªŁ": 4598,
      "àª·àª£àªµ": 4599,
      "Ġàª²àªµàªļ": 4600,
      "àªŃàª¥": 4601,
      "àª®àª¨àª¦": 4602,
      "Ġàªīàª¨àªķ": 4603,
      "Ġàªıàªķàª²àªµ": 4604,
      "Ġàªļàª°àª®": 4605,
      "ĠàªļàªªàªŁ": 4606,
      "àª°àªµàª¤": 4607,
      "àª¤àª¨àª¤àª¨": 4608,
      "ĠàªĪàªµ": 4609,
      "Ġocc": 4610,
      "Ġsame": 4611,
      "ana": 4612,
      "Ġàªĩàª¨àªª": 4613,
      "Ġàªªàª¦àªŃ": 4614,
      "Ġdi": 4615,
      "Ġàªıàª²àªıàª²àªª": 4616,
      "Ġ44": 4617,
      "Ġ69": 4618,
      "Ġà«§à«¯à«¬à«©": 4619,
      "Ġany": 4620,
      "2010": 4621,
      "Ġ1964": 4622,
      "Ġà«§à«¯à««à«§": 4623,
      "Ġconst": 4624,
      "Ġà«§à«¯à«©à«©": 4625,
      "akistan": 4626,
      "Ġàªħàª«àªµ": 4627,
      "ctions": 4628,
      "Ġplace": 4629,
      "Ġimp": 4630,
      "Ġfeat": 4631,
      "Ġà¤Ķà¤°": 4632,
      "TA": 4633,
      "^{": 4634,
      "Ġ&": 4635,
      "ĠZ": 4636,
      "àªµàª¡àª°": 4637,
      "àªķàªĿ": 4638,
      "Ġàª®àªĹàª°": 4639,
      "Ġàªľàªĸ": 4640,
      "Ġàªħàª®àª¨": 4641,
      "ĠàªħàªĽàª¤": 4642,
      "àª¹àª°àª¨": 4643,
      "àª¹àª¸àª¨": 4644,
      "àª§àª£àª¨": 4645,
      "àªļàª¶": 4646,
      "Ġàªªàª°àª®àªµ": 4647,
      "Ġàªļàª®": 4648,
      "àªĪàª¡àª°": 4649,
      "Ġàª¯àª¦": 4650,
      "àªĺàª°àª®": 4651,
      "àªłàªŃ": 4652,
      "àªµàª¨àªĹàª°àª®": 4653,
      "hen": 4654,
      "àª¬àª°àª¡": 4655,
      "Ġown": 4656,
      "àªļàª¨àª®": 4657,
      "ani": 4658,
      "Ġcinema": 4659,
      "Ġword": 4660,
      "Ġàªķàª²àª¬": 4661,
      "à«Ńà«¨": 4662,
      "ilar": 4663,
      "ets": 4664,
      "ĠSik": 4665,
      "Ġà«Ńà«©": 4666,
      "Ġ2012": 4667,
      "àª¹àª°àª£àª®": 4668,
      "ides": 4669,
      "ĠPakistan": 4670,
      "Ġ86": 4671,
      "à«¯à«ª": 4672,
      "ĠàªħàªŁàªķàª³": 4673,
      "Ġà«§à«¯à««à«ª": 4674,
      "ained": 4675,
      "Ġsug": 4676,
      "Ġsee": 4677,
      "Ġà«§à«¯à«¨à«§": 4678,
      "1999": 4679,
      "Ġà«¯à««": 4680,
      "ĠÂ£": 4681,
      "Ġwork": 4682,
      "Ġyou": 4683,
      "ertain": 4684,
      "ĠApril": 4685,
      "apt": 4686,
      "ged": 4687,
      "par": 4688,
      "Î±": 4689,
      "àª°àª¢": 4690,
      "àª®àª¤àª®": 4691,
      "àª¸àª¯": 4692,
      "Ġàª¤àª¬àª²": 4693,
      "Ġàªľàª¯àª¦": 4694,
      "àª¬àª®àª®": 4695,
      "Ġàªĸàª¤": 4696,
      "àªĩàª¯": 4697,
      "Ġà«¤": 4698,
      "àªĪàª«": 4699,
      "àªĨàª¶": 4700,
      "àªīàªķ": 4701,
      "àªµàª¨àªµ": 4702,
      "àª°àªµàªķ": 4703,
      "à¤¡": 4704,
      "era": 4705,
      "Ġsk": 4706,
      "Ġcaus": 4707,
      "Ġbox": 4708,
      "omin": 4709,
      "Ġ52": 4710,
      "ĠSouth": 4711,
      "Ġlit": 4712,
      "àªıàª®àª¬": 4713,
      "ĠRaj": 4714,
      "Ġàªįàª²": 4715,
      "ĠFor": 4716,
      "Ġ1949": 4717,
      "quare": 4718,
      "ĠOSI": 4719,
      "Ġ1939": 4720,
      "ĠàªĨàªĪàªª": 4721,
      "Ġàª¹àª³àª¦àª°": 4722,
      "àª³àªªàª£àª®": 4723,
      "Ġconsid": 4724,
      "ĠBritish": 4725,
      "\"\"": 4726,
      "52": 4727,
      "800": 4728,
      "hat": 4729,
      "har": 4730,
      "side": 4731,
      "àª¤àª®àª¨": 4732,
      "àª¤àªµàª¨": 4733,
      "Ġàªªàª²àª¸": 4734,
      "Ġàª¤àªķàª¤": 4735,
      "ĠàªľàªĹàª¨": 4736,
      "Ġàªħàª¨àª¸": 4737,
      "àª§àªŃ": 4738,
      "Ġàª¦àªĸàª²": 4739,
      "àª¬àª²àª¨": 4740,
      "àªĩàª¸àª°": 4741,
      "Ġàª§àª¨àª¸": 4742,
      "ĠàªŁàª¨àª¨": 4743,
      "àªĨàª«": 4744,
      "àªīàªĿ": 4745,
      "àªīàª®àª°": 4746,
      "àªīàª¡àª°": 4747,
      "àª¤àª¨àª¤": 4748,
      "ĠàªĿàª°àª¦": 4749,
      "àª¯àª°àª°àª¨": 4750,
      "àª¨àª®àª¥àªķ": 4751,
      "Ġcrit": 4752,
      "Ġàªħàª¸àª«àª³": 4753,
      "Ġhim": 4754,
      "Ġà«®à«ª": 4755,
      "Ġà«Ńà«¨": 4756,
      "Ġ77": 4757,
      "uss": 4758,
      "herit": 4759,
      "àª¸àª£àªĸ": 4760,
      "à«¯à«¨": 4761,
      "Ġà«§à«¯à«®à«®": 4762,
      "Ġà«§à«¯à«©à«ª": 4763,
      "Ġsupp": 4764,
      "Ġexpress": 4765,
      "Ġrun": 4766,
      "à«¨à«¦à«¦à«§": 4767,
      "à¥Īà¤Ĥ": 4768,
      "ĠàªĨàªīàªŁàªª": 4769,
      "energy": 4770,
      "ternational": 4771,
      "Ġcountry": 4772,
      "Ġphilosop": 4773,
      ",\"": 4774,
      "43": 4775,
      "ef": 4776,
      "hip": 4777,
      "iqu": 4778,
      "pen": 4779,
      "Ġà¨": 4780,
      "Ġenergy": 4781,
      "àª®àªĺ": 4782,
      "àªµàªķàª°": 4783,
      "àª¯àªªàª°": 4784,
      "Ġàª¸àª§": 4785,
      "ĠàªĽàªŁàªķ": 4786,
      "Ġàªµàª²àª¯": 4787,
      "àª¡àª¹": 4788,
      "àª¬àª¦àª²": 4789,
      "àª·àªľ": 4790,
      "Ġàªĸàª¤àª°àª¨": 4791,
      "àªĩàª¡àª°": 4792,
      "Ġàªĵàªĩàª²": 4793,
      "àª£àªµàªŁ": 4794,
      "inherit": 4795,
      "àª¦àª¨àªķ": 4796,
      "àªħàª¦": 4797,
      "àªħàª¸àª°": 4798,
      "reg": 4799,
      "Ġsch": 4800,
      "ised": 4801,
      "àªķàª¸àªµ": 4802,
      "Ġback": 4803,
      "Ġinv": 4804,
      "Ġà¤¯": 4805,
      "à«¬à«¬": 4806,
      "àª°àª¶àª¸": 4807,
      "ential": 4808,
      "urn": 4809,
      "ĠAnd": 4810,
      "Ġlater": 4811,
      "Ġàª°àª®àªĸ": 4812,
      "àª¯àª£àª¶": 4813,
      "2003": 4814,
      "ĠKath": 4815,
      "Ġà«§à«¯à«¬à«ª": 4816,
      "Ġàªįàª¸": 4817,
      "riv": 4818,
      "Ġà«§à«¯à«©à«§": 4819,
      "ĠOr": 4820,
      "ogra": 4821,
      "Ġà«§à«¯à«§à«¯": 4822,
      "Ġà«¨à««à«¦": 4823,
      "Ġleaves": 4824,
      "Ġbecause": 4825,
      "Ġdesc": 4826,
      "Ġcountries": 4827,
      "08": 4828,
      "56": 4829,
      "US": 4830,
      "ful": 4831,
      "ov": 4832,
      "to": 4833,
      "ured": 4834,
      "ĠQ": 4835,
      "àª¯àª«": 4836,
      "Ġàª¤àª°àª£": 4837,
      "Ġàªľàªķ": 4838,
      "Ġàªľàª¨àª¨": 4839,
      "àª£àªľ": 4840,
      "Ġàªµàª°àª£": 4841,
      "ĠàªĹàª®àª¤": 4842,
      "Ġàª°àªĹ": 4843,
      "ĠàªıàªĿ": 4844,
      "ĠàªŃàª¸": 4845,
      "Ġàª¶àª°àª®": 4846,
      "àª¬àª³àª¨": 4847,
      "Ġàªĸàª¦": 4848,
      "ĠàªĸàªŃ": 4849,
      "Ġàª¥àª¡": 4850,
      "àªıàªĿ": 4851,
      "Ġ1911": 4852,
      "Ġcond": 4853,
      "ility": 4854,
      "omen": 4855,
      "ĠAcc": 4856,
      "àªıàª®àªŁ": 4857,
      "Ġbefore": 4858,
      "ossil": 4859,
      "Ġgen": 4860,
      "Ġgiv": 4861,
      "àªĨàªĩàªıàª®àªı": 4862,
      "ĠàªĲàª¶": 4863,
      "Ġalign": 4864,
      "Ġanek": 4865,
      "ement": 4866,
      "Ġ1966": 4867,
      "Ġconf": 4868,
      "à«§à«¯à«¨": 4869,
      "Ġàª¬àª³àª¦": 4870,
      "Ġà«§à«¯à«®à««": 4871,
      "Ġà«§à«¯à«®à«¬": 4872,
      "Ġà«§à«¯à«¨à«Ń": 4873,
      "Ġà«§à«¯à«¨à«©": 4874,
      "Ġà«§à«®à«®à«§": 4875,
      "Ġactiv": 4876,
      "Ġroad": 4877,
      "ĠDev": 4878,
      "ĠStates": 4879,
      "Ġperson": 4880,
      "ÄģntavÄģda": 4881,
      "88": 4882,
      "IV": 4883,
      "ces": 4884,
      "ĠàªªàªŁàªķàª¥": 4885,
      "Ġàª¸àªļàªµ": 4886,
      "Ġàª¸àªĺàª³": 4887,
      "àª¸àªķàª¨": 4888,
      "Ġàªľàª¬": 4889,
      "àªŁàªĿ": 4890,
      "àª¡àª§": 4891,
      "Ġàª¬àª¢àª¤": 4892,
      "àª¬àª³àªµ": 4893,
      "Ġàªīàªĺàª°": 4894,
      "Ġàªıàªķàª¸àª®": 4895,
      "àª¤àª®àª¯": 4896,
      "àªĨàªĩàªŁ": 4897,
      "àªŁàª°àªŁ": 4898,
      "Ġàªªàª¡àª§àª°": 4899,
      "Ġsoc": 4900,
      "Ġfour": 4901,
      "Ġfamil": 4902,
      "orn": 4903,
      "Ġ39": 4904,
      "Ġàªħàªªàª¡": 4905,
      "à«ªà«¨": 4906,
      "Ġhand": 4907,
      "ĠIII": 4908,
      "ĠàªĺàªŁàªµ": 4909,
      "Ġele": 4910,
      "1960": 4911,
      "Ġ78": 4912,
      "àªķàªŁàª¤": 4913,
      "ĠCO": 4914,
      "ĠKodaikanal": 4915,
      "à«¯à«Ń": 4916,
      "Ġà«§à«¯à«Ńà«®": 4917,
      "Ġàª¬àª³àª¤àª°": 4918,
      "Ġà«§à«¯à«©à«®": 4919,
      "http": 4920,
      "Ġprov": 4921,
      "Ġcomple": 4922,
      "order": 4923,
      "ĠJain": 4924,
      "Ġ1954": 4925,
      "Ġà«§à«§à«¦": 4926,
      "àªĭàª·": 4927,
      "Ġrelig": 4928,
      "www": 4929,
      "ĠBengal": 4930,
      "mail": 4931,
      "àª°àªŁ": 4932,
      "àª¨àªªàª°": 4933,
      "àª®àª°àª®": 4934,
      "àªµàª¦àª³": 4935,
      "àª¯àª§àª°": 4936,
      "Ġàªªàªł": 4937,
      "ĠàªĨàª°àª¤": 4938,
      "àªªàª¤àª¨": 4939,
      "à«ĩ.'": 4940,
      "àª¡àªªàª¨": 4941,
      "Ġàª¹àªł": 4942,
      "Ġàª¹àª®àª£": 4943,
      "Ġàª°àªĿ": 4944,
      "àªļàª°àª£": 4945,
      "àªļàªķàª¨": 4946,
      "ĠàªĸàªŁ": 4947,
      "àª°àª¤àªŁ": 4948,
      "àªĩàª°àª¸": 4949,
      "àª«àª°àª¸": 4950,
      "Ġàª§àª¨àªµ": 4951,
      "àªµàª°àªµ": 4952,
      "Ġàª¬àª¨àª¨": 4953,
      "àª·àª£àª¥": 4954,
      "àª¬àª°àª²": 4955,
      "Ġàª®àª§àª°àª¬": 4956,
      "Ġsign": 4957,
      "ĠàªĬàª²àªŁ": 4958,
      "àª²àª®àª¡": 4959,
      "àªĩàªŁàª®": 4960,
      "à«Ńà«§": 4961,
      "Ġdue": 4962,
      "Ġà«ªà«¨": 4963,
      "ĠSun": 4964,
      "Ġland": 4965,
      "Ġline": 4966,
      "rodu": 4967,
      "Ġiss": 4968,
      "ĠBal": 4969,
      "chn": 4970,
      "Ġgo": 4971,
      "iawar": 4972,
      "ĠNew": 4973,
      "Ġàªħàª£àª§": 4974,
      "Ġà«§à«¯à«Ńà«¯": 4975,
      "àª¨àª¹àªŁàª¨àª®": 4976,
      "ify": 4977,
      "ified": 4978,
      "ĠĊĊĊ": 4979,
      "Ġà«§à«¯à«¦à«Ń": 4980,
      "Ġlead": 4981,
      "Ġdise": 4982,
      "ĠàªŃàªĹàªµàª¤": 4983,
      "Ġinclude": 4984,
      "Ġclass": 4985,
      "ances": 4986,
      "Ġyear": 4987,
      "Ġàªµàªĺàªĩ": 4988,
      "Ġmillion": 4989,
      "Ġbirds": 4990,
      "ĠAmerican": 4991,
      "Ġexample": 4992,
      "ĠKathiawar": 4993,
      "68": 4994,
      "ae": 4995,
      "Ġed": 4996,
      "àª¯àª¬àª°": 4997,
      "àªķàª¤àª¨": 4998,
      "ĠàªĨàª®àª¨": 4999,
      "ĠàªĨàªĹàª®": 5000,
      "àªĹàª³àªµ": 5001,
      "àª¥àª°àª®": 5002,
      "àª¡àª¸àª¨àª¨": 5003,
      "àª¶àªŃàªķ": 5004,
      "àª§àª°àª¤": 5005,
      "Ġàª¨àªµàª¨": 5006,
      "Ġàª¨àª°àªķàª¨": 5007,
      "àª·àª¶": 5008,
      "àªŃàª¡": 5009,
      "Ġàªļàªķàª²": 5010,
      "Ġàª¸àª®àªª": 5011,
      "Ġàªĵàª¹": 5012,
      "àªµàª²àª®": 5013,
      "àªľàªķàª¦": 5014,
      "ren": 5015,
      "Ġsquare": 5016,
      "Ġfossil": 5017,
      "org": 5018,
      "Ġprom": 5019,
      "Ġpass": 5020,
      "à«®à«®": 5021,
      "Ġà«¬à«®": 5022,
      "à«©à«¬": 5023,
      "àª¡àªķàª¤àª°": 5024,
      "Ġ41": 5025,
      "Ġà«®à«®": 5026,
      "àª¨àªĹàª°àª¨": 5027,
      "Ġeach": 5028,
      "Ġret": 5029,
      "ĠPGA": 5030,
      "ody": 5031,
      "Ġ800": 5032,
      "à«¯à«¯": 5033,
      "à«Ģ\",": 5034,
      "Ġàªįàªķ": 5035,
      "ĠOn": 5036,
      "Ġàªīàª®àª°àªĹ": 5037,
      "Ġ1958": 5038,
      "Ġà«§à«¯à«¦à««": 5039,
      "àªħàª¸àª°àªķ": 5040,
      "Ġ1858": 5041,
      "ĠUniversity": 5042,
      "Ġmeans": 5043,
      "Ġpoint": 5044,
      "Ġsaid": 5045,
      "Ġsimilar": 5046,
      "blem": 5047,
      "Ġrupee": 5048,
      "Ġperiod": 5049,
      "bers": 5050,
      "ey": 5051,
      "Ġes": 5052,
      "àª°àª³àª®": 5053,
      "Ġàª¸àªķàª¤": 5054,
      "ĠàªķàªĿ": 5055,
      "ĠàªĨàª¡àªķàª¤àª°": 5056,
      "Ġàª®àªłàª¨": 5057,
      "àªŁàªı": 5058,
      "àªľàªļ": 5059,
      "àªľàªŃ": 5060,
      "àª§àª¬": 5061,
      "Ġàª¦àªĹ": 5062,
      "àªĸàª£àª¨": 5063,
      "Ġàªīàª£àªª": 5064,
      "àªĪàªŁàª²": 5065,
      "Ġàªĩàª®àª°": 5066,
      "Ġterm": 5067,
      "indu": 5068,
      "Ġàª¸àª°àªĺ": 5069,
      "Ġàªıàª¨àªķ": 5070,
      "Ġàªīàª¦àª¯àªª": 5071,
      "Ġcm": 5072,
      "Ġcour": 5073,
      "Ġmake": 5074,
      "Ġpublic": 5075,
      "àª¹àª¨àª¦": 5076,
      "àª¬àª²àªª": 5077,
      "Ġ43": 5078,
      "Ġ49": 5079,
      "Ġà«ªà«¯": 5080,
      "ĠTr": 5081,
      "olution": 5082,
      "Ġlast": 5083,
      "1970": 5084,
      "ĠBudd": 5085,
      "Ġ84": 5086,
      "ĠThey": 5087,
      "Ġàªķàªłàª²": 5088,
      "à«¯à«®": 5089,
      "ĠLord": 5090,
      "ival": 5091,
      "Ġàªīàª®àª°àªª": 5092,
      "Ġ1936": 5093,
      "Ġ1938": 5094,
      "Ġcontr": 5095,
      "overed": 5096,
      "Ġàª¹àª²àª¨àªļàª²àª¨": 5097,
      "ription": 5098,
      "Ġàªµàª¡àª¨àªĹàª°": 5099,
      "Ġanimals": 5100,
      "64": 5101,
      "FC": 5102,
      "Ind": 5103,
      "aim": 5104,
      "iences": 5105,
      "ps": 5106,
      "tle": 5107,
      "ĠØ": 5108,
      "àª¨àªķàª°": 5109,
      "àªµàªľàª®": 5110,
      "àªķàªķàª¥": 5111,
      "à«ģâĢĻ": 5112,
      "àª¾àªĤâĢĻ": 5113,
      "ĠàªĨàª¸àªķ": 5114,
      "Ġàª®àª¤àªµ": 5115,
      "àª¦àª¯àª¸": 5116,
      "Ġàª¨àª¤": 5117,
      "Ġàª¬àª¸àª¨": 5118,
      "àªĵàª¬": 5119,
      "àªĵàªĽ": 5120,
      "Ġàªļàª®àªļ": 5121,
      "àª¯àª¤àª¤": 5122,
      "Ġàªĵàª°àªµ": 5123,
      "àªĿàªª": 5124,
      "àªłàªķàª¨": 5125,
      "àª¤àª°àªªàª¶": 5126,
      "àªŁàª°àª¡": 5127,
      "àª°àª¦àªķ": 5128,
      "erred": 5129,
      "ĠàªĨàª¦àª®": 5130,
      "ĠàªĨàª¦àª¤": 5131,
      "Ġàªıàª®àª¡": 5132,
      "àªıàª¸àªıàª¨": 5133,
      "à«Ńà«Ń": 5134,
      "ason": 5135,
      "àª²àª¬àª®": 5136,
      "à«©à«ª": 5137,
      "à«ªà«Ń": 5138,
      "urb": 5139,
      "Ġ53": 5140,
      "ĠàªĨàªĩàªĿ": 5141,
      "ops": 5142,
      "à«¯à«©": 5143,
      "àªĹàª¡àª®àª®": 5144,
      "Ġ1961": 5145,
      "though": 5146,
      "Ġà«§à«¯à«¨à«ª": 5147,
      "Ġà¤ķà¤°": 5148,
      "Ġàªħàª®àª²àª¦": 5149,
      "ĠàªĨàªļàª°àª£": 5150,
      "Ġà«§à«¯à«§à««": 5151,
      "Ġà«§à«¯à«¦à«®": 5152,
      "Ġàªĵàªªàª¨àª¨": 5153,
      "ĠâĢĻâĢĻ": 5154,
      "ĠSikk": 5155,
      "iated": 5156,
      "lock": 5157,
      "lished": 5158,
      "sub": 5159,
      "Ġet": 5160,
      "àª¯àª¸àª®": 5161,
      "àªķàª¦àª®": 5162,
      "Ġàª¸àªªàª¨": 5163,
      "àª¸àªµàª®": 5164,
      "ĠàªĽàªŁ": 5165,
      "àª¦àª°àª¤àª¨": 5166,
      "àª¦àª¶àªķ": 5167,
      "àª¦àªŃàªµ": 5168,
      "Ġàª¨àª¨": 5169,
      "ĠàªĨàªµàª¡àª¤": 5170,
      "àª¬àªĩàª®": 5171,
      "Ġàª¡àª²": 5172,
      "àªıàª®àªľ": 5173,
      "Ġàªĵàªıàª¸": 5174,
      "ĠàªĬàªĹ": 5175,
      "à««à«®": 5176,
      "orth": 5177,
      "Ġbus": 5178,
      "àª°àª¬àª¦àª²": 5179,
      "Ġ350": 5180,
      "à«ªà«ª": 5181,
      "ĠAm": 5182,
      "àª¨àªĹàª°àª®": 5183,
      "Ġevery": 5184,
      "1950": 5185,
      "ĠàªĶàª§": 5186,
      "Ġàªķàªļàª¡": 5187,
      "ided": 5188,
      "osp": 5189,
      "Ġalong": 5190,
      "Ġstart": 5191,
      "Ġarea": 5192,
      "àªĪàª®àª¥àªķ": 5193,
      "Ġà«§à«¯à«©à««": 5194,
      "Ġ1944": 5195,
      "Ġà«§à«¯à«§à«©": 5196,
      "Ġ1956": 5197,
      "Ġusually": 5198,
      "ortal": 5199,
      "Ġà«§à«¯à«¦à«¬": 5200,
      "Ġchild": 5201,
      "Ġà«§à«®à«¯à«Ń": 5202,
      "àªĬàªŁ": 5203,
      "Ġscient": 5204,
      "Ġàª¸àª«àª°àªľàª¨": 5205,
      "ĠâĪĴ": 5206,
      "Ġ!!": 5207,
      "ĠWestern": 5208,
      "Ġagainst": 5209,
      "ev": 5210,
      "epend": 5211,
      "hal": 5212,
      "iel": 5213,
      "til": 5214,
      "Î¹": 5215,
      "à«Ģà«¤": 5216,
      "àª¤àªķàª°": 5217,
      "àªķàªĹàª£": 5218,
      "ĠàªĨàªĪàªŁ": 5219,
      "Ġàª®àª°àªµ": 5220,
      "Ġàª®àª²àª¬": 5221,
      "àªĹàªµàªµ": 5222,
      "àªĹàªªàª°": 5223,
      "àªľàª²àª¸": 5224,
      "àªªàª¦àª¨": 5225,
      "àª¥àªªàª¤": 5226,
      "àª¶àªŃ": 5227,
      "ĠàªĹàª¡": 5228,
      "ĠàªĹàª²àª¨": 5229,
      "Ġàª¨àª®àª¸": 5230,
      "Ġàª¬àªŁàª¨": 5231,
      "àªĸàªľ": 5232,
      "àªĵàªĹàª¸": 5233,
      "àªŃàªµàª®": 5234,
      "àªĩàªĹàª°": 5235,
      "àªĩàª¬àª²": 5236,
      "àª«àª°àª¤": 5237,
      "àªĺàªªàª°": 5238,
      "àªĨàªĸ": 5239,
      "àªµàª°àª¥": 5240,
      "àªŁàª°àª²": 5241,
      "ĠàªĪàª¬": 5242,
      "Ġ1900": 5243,
      "ĠàªĿàª«àª°": 5244,
      "àª°àª¹àª¸": 5245,
      "Ġcop": 5246,
      "Ġàªħàª¸àª°àª®": 5247,
      "Ġàªĵàª³àªĸàª¨": 5248,
      "à««à«¦à«¦": 5249,
      "à««à«¨": 5250,
      "à««à«©": 5251,
      "à«Ńà«¯": 5252,
      "ĠIs": 5253,
      "Ġà«®à«§": 5254,
      "Ġlist": 5255,
      "àªıàª®àª¸": 5256,
      "ĠMan": 5257,
      "iron": 5258,
      "istration": 5259,
      "ĠThese": 5260,
      "Ġ1943": 5261,
      "Ġproblem": 5262,
      "àªĨàªĪàªª": 5263,
      "Ġevent": 5264,
      "Ġtext": 5265,
      "àª³àªªàª£àª¥": 5266,
      "ological": 5267,
      "Ġàª·àª¡àª¯": 5268,
      "ĠPrinted": 5269,
      "Ġtemple": 5270,
      "color": 5271,
      "ĠEnglish": 5272,
      "ding": 5273,
      "ior": 5274,
      "ji": 5275,
      "Ä«": 5276,
      "à©": 5277,
      "Ġ*": 5278,
      "Ġz": 5279,
      "àª¯àªµàª¤": 5280,
      "àª²àªķàª®": 5281,
      "Ġàªķàª·": 5282,
      "ĠàªķàªŁàªķ": 5283,
      "Ġàªľàª²àªª": 5284,
      "Ġàª¬àªĹàª¦": 5285,
      "Ġàªĸàª°àª¬": 5286,
      "àªĵàªıàª¸": 5287,
      "àªĪàªĵàªı": 5288,
      "àªıàª¶àª¨àª¨": 5289,
      "àª°àª®àªµ": 5290,
      "ĠàªŁàªķàª°": 5291,
      "àªĽàªªàª°": 5292,
      "àªĺàª¨àª¨": 5293,
      "àªĿàª«": 5294,
      "àªµàª²àªªàª°": 5295,
      "rent": 5296,
      "àª¬àª°àª¥": 5297,
      "àª¸àª®àª¸": 5298,
      "àªķàª²àª¤": 5299,
      "itut": 5300,
      "Ġàªľàª¨àªķ": 5301,
      "Ġfre": 5302,
      "àª¤àªķàª£": 5303,
      "Ġmuch": 5304,
      "Ġdiv": 5305,
      "Ġàªħàªªàª¹àª°àª£": 5306,
      "Ġhum": 5307,
      "Ġ1800": 5308,
      "Ġà«®à«¦à«¦": 5309,
      "ĠSc": 5310,
      "Ġlife": 5311,
      "Ġthose": 5312,
      "ĠMe": 5313,
      "Ġ88": 5314,
      "Ġàªĳàª°": 5315,
      "Ġgrow": 5316,
      "rand": 5317,
      "ĠàªĭàªĹ": 5318,
      "ull": 5319,
      "ĠRo": 5320,
      "une": 5321,
      "Ġwithout": 5322,
      "Ġà«§à«¯à««à«©": 5323,
      "à¦¯": 5324,
      "Ġà«§à«¯à«¨à««": 5325,
      "Ġà«§à«¯à«§à«ª": 5326,
      "Ġà«§à«¯à«§à«Ń": 5327,
      "Ġ1921": 5328,
      "Ġallow": 5329,
      "Ġàªıàª¸àªıàª®àªıàª¸àª¨": 5330,
      "Ġjust": 5331,
      "Ġdistrict": 5332,
      "umbai": 5333,
      "ĠĠĠĠĠĠĠĠĠĠĠĠĠĠĠĠ": 5334,
      "ross": 5335,
      "Ġsuggest": 5336,
      "Ġdescrib": 5337,
      "41": 5338,
      "63": 5339,
      "font": 5340,
      "med": 5341,
      "uk": 5342,
      "àª¯àªľàª¨àªķ": 5343,
      "àª¸àªł": 5344,
      "Ġàªľàª¨àª®": 5345,
      "àªĹàª£àª®": 5346,
      "àª¥àªĪ": 5347,
      "àª¶àªĹ": 5348,
      "àª¹àª°àª®": 5349,
      "àª§àª²": 5350,
      "Ġàª¨àªŃ": 5351,
      "Ġàªķàª°àªķàª°": 5352,
      "àªĸàª®àª°": 5353,
      "àªĩàª¬àª°": 5354,
      "Ġàª¡àª®": 5355,
      "Ġàª«àª°àª¸": 5356,
      "Ġàª«àª²àªķ": 5357,
      "Ġàªīàªªàªª": 5358,
      "àª¤àª°àª¸": 5359,
      "àªĨàªĹ": 5360,
      "Ġàª¶àªķàª¯àª¤": 5361,
      "àªľàª¨àª¥": 5362,
      "Ġàªıàª¨àªıàªļ": 5363,
      "atural": 5364,
      "ital": 5365,
      "Ġbased": 5366,
      "Ġmm": 5367,
      "àªīàª¨àªŁ": 5368,
      "à«¬à«®": 5369,
      "Ġtown": 5370,
      "àª¯àª¸àªŃàª°": 5371,
      "Ġep": 5372,
      "ĠSch": 5373,
      "Ġàªħàª¡àªļàª£": 5374,
      "Ġ76": 5375,
      "imate": 5376,
      "idence": 5377,
      "els": 5378,
      "Ġàª°àªļàª¯": 5379,
      "Ġà«§à«¨à«¦à«¦": 5380,
      "ried": 5381,
      "àª£àªªàª¶": 5382,
      "Ġàªīàª¤àª°àªµ": 5383,
      "Ġseen": 5384,
      "Ġmove": 5385,
      "Ġdep": 5386,
      "osaurus": 5387,
      "ource": 5388,
      "Ġshould": 5389,
      "Ġà«¯à«Ń": 5390,
      "Ġ1929": 5391,
      "ells": 5392,
      "Ġuntil": 5393,
      "Ġàªĵàªªàª¨àª®": 5394,
      "Ġà¤ªà¤°": 5395,
      "posed": 5396,
      "Ġcommun": 5397,
      "ĠàªŃàªľàªµàª¤": 5398,
      "Ġspecies": 5399,
      "ĠSikkim": 5400,
      "61": 5401,
      "91": 5402,
      "Th": 5403,
      "kern": 5404,
      "mission": 5405,
      "oint": 5406,
      "Î¿": 5407,
      "àª°àªĹàª£": 5408,
      "àª¨àªĪàª®": 5409,
      "àª®àªĹàª¢": 5410,
      "àª¤àªĵàª¨": 5411,
      "àªµàª£àªķ": 5412,
      "àªŁàªĸ": 5413,
      "Ġàªµàª¨àª°": 5414,
      "àª¦àªķàª¨": 5415,
      "Ġàª¹àª£": 5416,
      "Ġàª¨àª°àªķ": 5417,
      "àªļàª¤àª®": 5418,
      "Ġàªıàª°àª«": 5419,
      "ĠàªļàªŁ": 5420,
      "Ġàª«àªķàª°": 5421,
      "àª¶àª¨àª¶": 5422,
      "àª°àª£àª¯": 5423,
      "Ġàª¸àª®àª¶": 5424,
      "àªķàª¨àªķ": 5425,
      "àªĨàªĿ": 5426,
      "Ġàªıàªµàª¨": 5427,
      "Ġàªĩàª«": 5428,
      "Ġàªµàª§àª¶": 5429,
      "à¤ĥ": 5430,
      "Ġaud": 5431,
      "inc": 5432,
      "inn": 5433,
      "read": 5434,
      "repe": 5435,
      "ĠàªĨàª°àªª": 5436,
      "onom": 5437,
      "ĠàªĬàªŃàª°": 5438,
      "Ġàªħàª²àª®": 5439,
      "àªĪàª¨àª°": 5440,
      "arth": 5441,
      "à«§à«¯à«¦": 5442,
      "àªıàª¸àª¬": 5443,
      "ĠàªħàªĹàª¸": 5444,
      "Ġà««à«§": 5445,
      "Ġ1860": 5446,
      "url": 5447,
      "àªĹàª£àª¤àª°": 5448,
      "amb": 5449,
      "ĠMinist": 5450,
      "ĠàªĨàªĩàªĨàªĩàªıàª®àªı": 5451,
      "ode": 5452,
      "aya": 5453,
      "Ġàªĳàªµ": 5454,
      "Ġàªįàª®": 5455,
      "ĠàªįàªĹ": 5456,
      "Ġwithin": 5457,
      "Ġàª¬àª³àªľàª¬àª°": 5458,
      "Ġàªľàª²àª¦": 5459,
      "Ġàª¸àª¬àªµ": 5460,
      "Ġ1955": 5461,
      "Ġà«§à«¯à«¦à«§": 5462,
      "Ġà«§à«®à«®à«¦": 5463,
      "arent": 5464,
      "mercial": 5465,
      "Ġresult": 5466,
      "Ġcolle": 5467,
      "Ġà¤ĩà¤¸": 5468,
      "registration": 5469,
      "ĠanekÄģntavÄģda": 5470,
      "subsc": 5471,
      "81": 5472,
      "92": 5473,
      "ET": 5474,
      "aug": 5475,
      "lob": 5476,
      "mak": 5477,
      "ped": 5478,
      "ÏĤ": 5479,
      "àª°àª¥àª¨": 5480,
      "àªµàªļàª¨": 5481,
      "àª²àªĿ": 5482,
      "Ġàªľàªľ": 5483,
      "Ġàªľàªµàª²": 5484,
      "àª¡àªı": 5485,
      "àª¶àª®àª¨": 5486,
      "àª¶àªķàª¨": 5487,
      "àª¹àªŁ": 5488,
      "Ġàªķàª°àªļàª²": 5489,
      "àªĸàª°àª¨": 5490,
      "Ġàª«àª¨": 5491,
      "àªĺàª¦": 5492,
      "Ġàªīàªªàª¹": 5493,
      "ĠàªĩàªĿ": 5494,
      "àª¯àªķàª°àª£": 5495,
      "àª¤àª¨àª¶": 5496,
      "àª¦àª°àª¬": 5497,
      "àªħàª·": 5498,
      "ream": 5499,
      "ĠàªĪàªŁàª²": 5500,
      "àª¯àª°àª¸àª¨": 5501,
      "ane": 5502,
      "ither": 5503,
      "Ġàª¨àª¹àª¤": 5504,
      "Ġwide": 5505,
      "Ġmass": 5506,
      "Ġmeth": 5507,
      "Ġàªıàª®àª¸": 5508,
      "ional": 5509,
      "Ġhig": 5510,
      "Ġ46": 5511,
      "Ġà«ªà«Ń": 5512,
      "ĠAust": 5513,
      "Ġ67": 5514,
      "Ġrep": 5515,
      "Ġ95": 5516,
      "ĠGu": 5517,
      "àª£àªªàªŁ": 5518,
      "àª¾\",": 5519,
      "Ġ1942": 5520,
      "Ġdef": 5521,
      "Ġàªµàªĸàª¤àª®": 5522,
      "Ġ1953": 5523,
      "Ġshot": 5524,
      "Ġnear": 5525,
      "Ġdoes": 5526,
      "à«ĩ).": 5527,
      "Ġextin": 5528,
      "à±ģ": 5529,
      "Ġculture": 5530,
      "Ġàªĸàª°àª¬àªļàª¡": 5531,
      "repeat": 5532,
      "urlno": 5533,
      "subscription": 5534,
      "FA": 5535,
      "day": 5536,
      "ee": 5537,
      "get": 5538,
      "ium": 5539,
      "Ġà°": 5540,
      "àª¤àª¸àª°": 5541,
      "àª¤àª¬àª¦": 5542,
      "àªµàª·": 5543,
      "àª¯àª°àªµ": 5544,
      "àªķàª°àª¤": 5545,
      "àªķàª¬àª°": 5546,
      "àªķàªŁàª®": 5547,
      "àª¸àª²àª¨": 5548,
      "ĠàªĨàªĿàª®": 5549,
      "àªªàª¡àª¨": 5550,
      "àª¦àª°àªķ": 5551,
      "àª¶àª¶": 5552,
      "Ġàª¨àª°àª¨": 5553,
      "àªļàªµàª¤": 5554,
      "Ġàªķàª°àª®": 5555,
      "Ġàª¶àª®": 5556,
      "àª·àª°àª¨": 5557,
      "Ġàª¡àª¸": 5558,
      "Ġàª¡àªĹ": 5559,
      "àªĪàª¨àª®": 5560,
      "àªıàª²àª¸": 5561,
      "ĠàªŁàªªàªķ": 5562,
      "Ġàªīàªªàªķàª°àª£àª¨": 5563,
      "àªµàª¨àª¦": 5564,
      "here": 5565,
      "àª¦àª°àªª": 5566,
      "ĠàªĪàª¯": 5567,
      "Ġàªıàª¨àªµ": 5568,
      "ories": 5569,
      "Ġmat": 5570,
      "ĠpH": 5571,
      "àªıàª¸àªŁ": 5572,
      "Ġà¤ı": 5573,
      "à«¬à«§": 5574,
      "à«ªà«¯": 5575,
      "Ġà«ªà«ª": 5576,
      "olved": 5577,
      "Ġthough": 5578,
      "Ġreport": 5579,
      "own": 5580,
      "Ġàªķàªłàª£": 5581,
      "ĠRe": 5582,
      "ĠRFC": 5583,
      "à«§à«¯à«§à«": 5584,
      "Ġ1941": 5585,
      "aken": 5586,
      "ĠWorld": 5587,
      "quently": 5588,
      "àªªàªļàª¯àª¨": 5589,
      "ikip": 5590,
      "Ġhead": 5591,
      "ogn": 5592,
      "Ġ1932": 5593,
      "Ġà«§à«¯à«§à«¬": 5594,
      "Ġà«§à«¯à«§à«®": 5595,
      "Ġà«¯à«©": 5596,
      "Ġothers": 5597,
      "Ġproduc": 5598,
      "Ġmusical": 5599,
      "à«§à«¯à«ªà«Ń": 5600,
      "Ġcoriander": 5601,
      "Ġincreasing": 5602,
      "Ġàªıàªıàª²àª¯": 5603,
      "Ġestab": 5604,
      "ared": 5605,
      "ball": 5606,
      "iation": 5607,
      "ym": 5608,
      "àªµàª§àª°": 5609,
      "àª²àªĺ": 5610,
      "àª²àª°àª¥": 5611,
      "ĠàªªàªŁàª²": 5612,
      "Ġàªķàª¦àª°": 5613,
      "Ġàª¤àª¡àªķ": 5614,
      "àª£àªķàª¥": 5615,
      "Ġàªµàª¨àª®": 5616,
      "àª¦àª£": 5617,
      "ĠàªŃàª¡àªķ": 5618,
      "àªĸàª¸": 5619,
      "Ġàªīàªĸ": 5620,
      "Ġàªīàª¥àª²": 5621,
      "àªĩàª®àª¨": 5622,
      "àªĹàª®àª¸": 5623,
      "àªµàª°àª¬": 5624,
      "à«ģàªĤ..": 5625,
      "Ġàªĩàª¸àªķ": 5626,
      "àªµàª¨àªª": 5627,
      "à¤Ī": 5628,
      "hel": 5629,
      "àª¤àª¨àªª": 5630,
      "Ġàª¸àª°àªª": 5631,
      "àªħàªĸ": 5632,
      "ena": 5633,
      "àªĪàª¨àª²": 5634,
      "Ġàªĩàª¨àª¸": 5635,
      "arama": 5636,
      "Ġft": 5637,
      "Ġmy": 5638,
      "ouse": 5639,
      "Ġàªħàªªàª²": 5640,
      "Ġàª°àªľàªª": 5641,
      "ĠIS": 5642,
      "Ġà««à«ª": 5643,
      "Ġled": 5644,
      "Ġlens": 5645,
      "Ġlanguage": 5646,
      "Ġ68": 5647,
      "àªĪàªıàª«": 5648,
      "ĠMumbai": 5649,
      "ĠàªĳàªķàªŁ": 5650,
      "chan": 5651,
      "elv": 5652,
      "Ġàªµàª³àª¤àª°àª¨": 5653,
      "ĠàªıàªļàªŁ": 5654,
      "à«Ģ\".": 5655,
      "Ġwhat": 5656,
      "Ġà«§à«¯à««à«®": 5657,
      "ĠEx": 5658,
      "udra": 5659,
      "ives": 5660,
      "àªıàªļàªĨàªĩàªµ": 5661,
      "ĠàªŃàª¯àªŃ": 5662,
      "Ġà«§à«¯à«§à«¨": 5663,
      "Ġà«§à«¯à«¦à«¯": 5664,
      "Ġà«§à«®à«®à«Ń": 5665,
      "Ġlevel": 5666,
      "Ġarch": 5667,
      "Ġ1903": 5668,
      "Ġàªĵàªµàª°àª²": 5669,
      "Inf": 5670,
      "ĠIPO": 5671,
      "inese": 5672,
      "mitted": 5673,
      "iety": 5674,
      ",,": 5675,
      "93": 5676,
      "eum": 5677,
      "hav": 5678,
      "my": 5679,
      "ner": 5680,
      "Ġver": 5681,
      "ĨĴ": 5682,
      "à«Ģà«¢": 5683,
      "àªķàªļàª°": 5684,
      "àª²àªµàªµ": 5685,
      "àª¾àªĤ;": 5686,
      "ĠàªªàªŁàª¨": 5687,
      "Ġàªķàª¨àªķ": 5688,
      "àªĹàªĸ": 5689,
      "àªŁàª¸àª®": 5690,
      "àªªàª²àª¨": 5691,
      "àª£àª¨àª¨": 5692,
      "àª¶àªµàªŁ": 5693,
      "Ġàª¹àªª": 5694,
      "Ġàªīàªĺ": 5695,
      "àªĩàª²àª°": 5696,
      "Ġà«ł": 5697,
      "àª«àª¡": 5698,
      "Ġàªļàª²àª¨": 5699,
      "Ġàª¡àª¹": 5700,
      "àªµàª¸àª¥": 5701,
      "àªłàª²": 5702,
      "àªĨàª¬": 5703,
      "àªŁàª²àª°àª¨": 5704,
      "àªĹàª°àªµ": 5705,
      "ĠàªĪàª¸àªµ": 5706,
      "àª¸àª°àª¶": 5707,
      "ĠàªĨàª°àªıàª®àª¬": 5708,
      "Ġàª®àªĹàªľàª®": 5709,
      "Ġfin": 5710,
      "à««à«¬": 5711,
      "ĠàªµàªļàªĹ": 5712,
      "Ġmult": 5713,
      "àª®àª°àª¥": 5714,
      "Ġà¤ļ": 5715,
      "àª°àª¬àª²": 5716,
      "àª¡àª°àªľ": 5717,
      "Ġdel": 5718,
      "à«¬à«ª": 5719,
      "àªĨàª°àªı": 5720,
      "àª°àªªàªŁ": 5721,
      "Ġàª¸àªªàª¡": 5722,
      "Ġàªļàª²àª£àª®": 5723,
      "Ġà««à«©": 5724,
      "urs": 5725,
      "ĠAc": 5726,
      "ĠTe": 5727,
      "àª¯àª¸àªŃ": 5728,
      "Ġà«Ńà«¦à«¦": 5729,
      "Ġà«Ńà«ª": 5730,
      "Ġrest": 5731,
      "àª«àª°àª¸àª¨": 5732,
      "àªĩàªıàª«àªı": 5733,
      "Ġàª¢àª³": 5734,
      "ĠPal": 5735,
      "ĠPar": 5736,
      "àª¬àªĪàª¥": 5737,
      "ĠGr": 5738,
      "àªĩàªķàª²àª¨": 5739,
      "ĠNational": 5740,
      "ĠRuss": 5741,
      "....": 5742,
      "Ġareas": 5743,
      "àªıàª«àª¸": 5744,
      "Ġ1946": 5745,
      "andhi": 5746,
      "à¦¼": 5747,
      "ĠàªīàªĽàª°": 5748,
      "ĠWe": 5749,
      "Ġàª¸àª¬àª®àª°": 5750,
      "Ġhel": 5751,
      "àªĹàªłàª¨àª®": 5752,
      "ĠàªŃàª£àª¤àª°": 5753,
      "acter": 5754,
      "ĠàªĹàªĿàª²àª®": 5755,
      "ĠàªĹàªĿàª²àªķ": 5756,
      "Ġstudy": 5757,
      "à§į": 5758,
      "Ġsexual": 5759,
      "Ġpolit": 5760,
      "Ġbelieved": 5761,
      "ĠAfrica": 5762,
      "Ġconsidered": 5763,
      "Ġfamily": 5764,
      ".âĢĿ": 5765,
      "51": 5766,
      "97": 5767,
      "Ch": 5768,
      "DS": 5769,
      "nce": 5770,
      "tal": 5771,
      "ving": 5772,
      "àª®àª¦àª°": 5773,
      "àªµàªķàªª": 5774,
      "àªľàª¯àª®": 5775,
      "àª¥àª¡": 5776,
      "à«ģàªĤâĢĻ": 5777,
      "ĠàªĹàªŁàª°": 5778,
      "Ġàª¦àª²àªª": 5779,
      "ĠàªıàªŁàª°": 5780,
      "ĠàªŃàª°àª¤àª¨": 5781,
      "ĠàªīàªĹàª¤": 5782,
      "àª«àª¯": 5783,
      "Ġàªĵàª¨àª°": 5784,
      "àªīàªľ": 5785,
      "Ġ1919": 5786,
      "Ġ1918": 5787,
      "Ġàªķàª¹àª¯": 5788,
      "ĠàªĬàª¨": 5789,
      "ati": 5790,
      "Ġàªħàª²àªķàª¨": 5791,
      "ense": 5792,
      "Ġàªħàª¸àª¤": 5793,
      "Ġfact": 5794,
      "Ġpred": 5795,
      "Ġdet": 5796,
      "Ġdid": 5797,
      "ĠAU": 5798,
      "àª¡àªªàªŁ": 5799,
      "Ġàªħàª¸àª°àª¥": 5800,
      "ĠST": 5801,
      "Ġà«Ńà«¬": 5802,
      "ctr": 5803,
      "Ġ71": 5804,
      "Ġàª²àª¡àª¤àª®": 5805,
      "ĠCo": 5806,
      "ĠMand": 5807,
      "Ġàª¢àªĹàª²": 5808,
      "Ġ96": 5809,
      "rab": 5810,
      "àª¯àª®àª¨àªķ": 5811,
      "à«ĩ\",": 5812,
      "à«¯à«§": 5813,
      "aced": 5814,
      "umar": 5815,
      "Ġ1963": 5816,
      "Ġfilmmak": 5817,
      "Ġseeds": 5818,
      "iving": 5819,
      "Ġprocess": 5820,
      "àªªàªļàª¯": 5821,
      "Ġàªµàªĸàª£": 5822,
      "ange": 5823,
      "Ġ1951": 5824,
      "1991": 5825,
      "1993": 5826,
      "Ġà«§à«®à«¯à«¬": 5827,
      "àªĬàª°": 5828,
      "Ġintrodu": 5829,
      "Ġlocal": 5830,
      "Ġentire": 5831,
      "Ġsongs": 5832,
      "EEE": 5833,
      "Ġmarket": 5834,
      "Ġrelease": 5835,
      "Ġàªľàª¬àª°àª¦àª¸": 5836,
      "Ġtopics": 5837,
      "Ġsupport": 5838,
      "Ġsocial": 5839,
      "Ġàª¦àª²àªªàª¤àª°": 5840,
      "700": 5841,
      "FTP": 5842,
      "au": 5843,
      "aut": 5844,
      "box": 5845,
      "Ġà¥¤": 5846,
      "àª°àªĿ": 5847,
      "à«įàª¾": 5848,
      "àª¨àªķàª¨": 5849,
      "àª¨àª¸àª°": 5850,
      "àªµàªµàª°": 5851,
      "àª²àªµàª¨": 5852,
      "Ġàª¸àª²àª®": 5853,
      "Ġàª®àª«": 5854,
      "Ġàª®àª£àªķ": 5855,
      "àªľàªªàª¨": 5856,
      "àªªàªķàª¤": 5857,
      "Ġàªµàªķàª°": 5858,
      "àª¦àª¯àª°": 5859,
      "àª¹àª¤àª¨": 5860,
      "ĠàªŃàª¯àª¨": 5861,
      "àªĵàªĹ": 5862,
      "àªŃàªµàªµ": 5863,
      "Ġàªīàª¬": 5864,
      "Ġàª¡àªĹàª²": 5865,
      "àªĪàªļ": 5866,
      "Ġàªĵàª¦": 5867,
      "àª§àª¨àªķàª°": 5868,
      "àªłàª²àªŃ": 5869,
      "àª¾..": 5870,
      "ĠàªĩàªĹ": 5871,
      "àª¸àª¨àªµ": 5872,
      "Ġtimes": 5873,
      "reen": 5874,
      "Ġàªªàª¡àªĸ": 5875,
      "àªĹàª²àªķ": 5876,
      "Ġàª¨àªµàªĺàª£": 5877,
      "Ġàªīàª¦àªĺ": 5878,
      "aly": 5879,
      "ality": 5880,
      "à««à«§": 5881,
      "ork": 5882,
      "Ġbre": 5883,
      "Ġpot": 5884,
      "àª°àª¬àª¦": 5885,
      "à«Ńà«©": 5886,
      "ily": 5887,
      "Ġdra": 5888,
      "Ġdance": 5889,
      "Ġàª¬àª¦àª²àª¤": 5890,
      "Ġàªħàª²àªĹàª¥": 5891,
      "Ġàª¨àªľàª¦": 5892,
      "Ġàªıàª¸àªıàª¸": 5893,
      "Ġà«ªà«©": 5894,
      "ĠAt": 5895,
      "ĠAll": 5896,
      "Ġ56": 5897,
      "àªıàª®àªª": 5898,
      "àªıàª®àªıàª²": 5899,
      "ĠBe": 5900,
      "àªıàª¨àªıàª¨": 5901,
      "irc": 5902,
      "istory": 5903,
      "Ġstr": 5904,
      "àª¼à«į": 5905,
      "Ġann": 5906,
      "Ġanother": 5907,
      "Ġàªįàªµ": 5908,
      "Ġà«§à«¯à«®à«§": 5909,
      "àª¾\".": 5910,
      "Ġvis": 5911,
      "Ġà«§à«¯à«¨à«¬": 5912,
      "Ġàªķàª¸àª°àª¤": 5913,
      "Ġàªķàª³àª¶": 5914,
      "Ġ1957": 5915,
      "Ġplant": 5916,
      "Ġaround": 5917,
      "Ġ1908": 5918,
      "ĠChina": 5919,
      "Ġevidence": 5920,
      "Ġscience": 5921,
      "Ġresp": 5922,
      "ovember": 5923,
      "obox": 5924,
      "àªĳàª¡": 5925,
      "Ġearli": 5926,
      "Ġappro": 5927,
      "àª¯àª«àª³àª¨": 5928,
      "àª¨àªªàª£àª¥": 5929,
      "SA": 5930,
      "size": 5931,
      "yl": 5932,
      "Î½": 5933,
      "àª¨àª°àª¸": 5934,
      "àª¨àªħàª¸àª°àªķ": 5935,
      "à«ĭ?": 5936,
      "àª²àª°àª¶": 5937,
      "ĠàªªàªĹàª®": 5938,
      "Ġàª¸àª¶àªķ": 5939,
      "Ġàª®àª¦àª¨": 5940,
      "Ġàªľàª²àªĹ": 5941,
      "àªŁàªľ": 5942,
      "àªªàª¡àªªàªŁ": 5943,
      "Ġàªµàª£àª¸": 5944,
      "àª¥àªı": 5945,
      "àª¦àªµàª¨": 5946,
      "Ġàª¦àªĩàª¨": 5947,
      "àªļàªĹ": 5948,
      "Ġàª¶àªªàª¥": 5949,
      "àª¬àª°àªµ": 5950,
      "Ġàª²àª¦": 5951,
      "àªĵàª¶": 5952,
      "àªŃàª°àª¤": 5953,
      "ĠàªīàªĽàª³": 5954,
      "Ġàªªàª°àª¬": 5955,
      "àªıàª²àª¨": 5956,
      "àªıàªĩàª¡": 5957,
      "àª°àª®àª°": 5958,
      "àª°àª£àª¸àªŃ": 5959,
      "àªĺàªª": 5960,
      "àªĨàª¯àª°": 5961,
      "àªĨàª®àª²": 5962,
      "àªīàª¨àª®": 5963,
      "Ġtreat": 5964,
      "àª°àª¸àª®àªľ": 5965,
      "Ġàª¸àª°àªŃàª°": 5966,
      "àªħàªµàªķ": 5967,
      "Ġ1914": 5968,
      "Ġàªªàª¡àªĽ": 5969,
      "Ġsom": 5970,
      "Ġsun": 5971,
      "Ġbody": 5972,
      "àª¯àª¦àª³àª¨": 5973,
      "à«Ńà«ª": 5974,
      "à«®à«ª": 5975,
      "Ġhowever": 5976,
      "ĠIEEE": 5977,
      "Ġà«ªà«§": 5978,
      "ĠAward": 5979,
      "olar": 5980,
      "ĠSidd": 5981,
      "Ġàªıàªªàª²àª¨": 5982,
      "ots": 5983,
      "Ġ91": 5984,
      "ĠNa": 5985,
      "ĠNo": 5986,
      "ĠRes": 5987,
      "ĠKing": 5988,
      "à¦Ĺ": 5989,
      "ples": 5990,
      "ploy": 5991,
      "Ġ1952": 5992,
      "Ġinches": 5993,
      "Ġàª¦àª¶àªķàª¨": 5994,
      "ief": 5995,
      "Ġparts": 5996,
      "Ġadv": 5997,
      "Ġincluded": 5998,
      "Ġspecial": 5999,
      "Ġobject": 6000,
      "Ġdiscover": 6001,
      "ledge": 6002,
      "Ġpresent": 6003,
      "Ġtraditional": 6004,
      "Ġsecond": 6005,
      "Ġgroups": 6006,
      "ĠBalarama": 6007,
      "àªĽàªªàª°àªĽ": 6008,
      "Infobox": 6009,
      "end": 6010,
      "val": 6011,
      "Ã©": 6012,
      "àª°àªµàª¨": 6013,
      "àª²àªĽ": 6014,
      "àª²àª¤àª¨": 6015,
      "Ġàªªàªķàªµ": 6016,
      "Ġàªªàª²àªķ": 6017,
      "Ġàªķàª®àª¨àª¸": 6018,
      "ĠàªĨàªľàªķ": 6019,
      "Ġàªľàªķàª¡": 6020,
      "àªľàªķàª¨": 6021,
      "àª¶àªµàª°": 6022,
      "àª¹àªĹ": 6023,
      "àª¹àª³": 6024,
      "Ġàª¬àªĹàª¡": 6025,
      "àª¬àªª": 6026,
      "àªĵàªªàª°": 6027,
      "àªŃàª¸": 6028,
      "Ġàªīàª£": 6029,
      "àªĩàª¡àª®": 6030,
      "à«ĪàªĤ,": 6031,
      "à«Ģ.âĢĿ": 6032,
      "àªĿàª¹": 6033,
      "àªĨàª¶àª°": 6034,
      "Ġàª¤àª°àªµ": 6035,
      "à¤¼": 6036,
      "àªķàª°àª¡": 6037,
      "Ġaction": 6038,
      "àªªàª¨àª®": 6039,
      "àª·àª£àªķ": 6040,
      "Ġopen": 6041,
      "Ġàªħàª¹àª®àª¦àª¨": 6042,
      "ones": 6043,
      "Ġside": 6044,
      "Ġcertain": 6045,
      "Ġàªªàª¦àªķ": 6046,
      "à¥Į": 6047,
      "Ġwomen": 6048,
      "Ġfar": 6049,
      "Ġmi": 6050,
      "ĠàªĨàªĹàª®àª¨àª¨": 6051,
      "icial": 6052,
      "à«®à«¬": 6053,
      "àª¡àª°àª¸àª¨": 6054,
      "Ġdem": 6055,
      "oms": 6056,
      "Ġàª®àª°àªĺ": 6057,
      "Ġà«©à««à«¦": 6058,
      "ental": 6059,
      "ĠàªĪàª¨àªķ": 6060,
      "Ġà«®à«¨": 6061,
      "Ġà«®à«¬": 6062,
      "ĠAp": 6063,
      "Ġel": 6064,
      "Ġredu": 6065,
      "ĠMad": 6066,
      "ays": 6067,
      "Ġ92": 6068,
      "ĠGandhi": 6069,
      "Ġorder": 6070,
      "Ġà«§à«©à«¦": 6071,
      "Ġproper": 6072,
      "Ġà«¯à«¬": 6073,
      "à«Ģ',": 6074,
      "àª®àª³àª¦": 6075,
      "Ġàª¸àª³àªĹàª¤": 6076,
      "Ġ1902": 6077,
      "Ġrespect": 6078,
      "Ġ1890": 6079,
      "Ġà¤ħà¤¨": 6080,
      "ĠShiv": 6081,
      "ootball": 6082,
      "Ġvarious": 6083,
      "++": 6084,
      "An": 6085,
      "ST": 6086,
      "ges": 6087,
      "had": 6088,
      "ier": 6089,
      "Ø±": 6090,
      "ÙĦ": 6091,
      "àª¨àªªàª¦": 6092,
      "àª®àª¬àª°": 6093,
      "àª¤àª¡": 6094,
      "àª¤àªµàªµ": 6095,
      "àªµàª¬": 6096,
      "àª¯àª¸àª°": 6097,
      "àªķàª®àª¤": 6098,
      "à«ģàªģ": 6099,
      "àª²àªı": 6100,
      "Ġàªªàªłàª¨": 6101,
      "ĠàªķàªŃ": 6102,
      "àª¸àª®àª®": 6103,
      "Ġàª¤àª¸": 6104,
      "àªĹàªŁàª¨": 6105,
      "Ġàªħàªł": 6106,
      "àªŁàª°àªķ": 6107,
      "àª¡àª®àª®": 6108,
      "Ġàª¹àª¸àª¨": 6109,
      "àª§àªĹ": 6110,
      "Ġàª°àªľàª¨": 6111,
      "Ġàª¦àªĸ": 6112,
      "Ġàª¦àª«": 6113,
      "ĠàªĨàªµàª¡": 6114,
      "Ġàª¶àª²": 6115,
      "Ġàªªàª°àªľ": 6116,
      "Ġàªļàª¡àªµ": 6117,
      "àªıàª¬": 6118,
      "àª°àª®àª¤": 6119,
      "Ġàª«àªĿàª²": 6120,
      "à«ĩ,\"": 6121,
      "Ġàª§àª®àª¨": 6122,
      "Ġàª¯àª²": 6123,
      "Ġàªĵàª¢": 6124,
      "Ġàªĵàª®àªķ": 6125,
      "àª§àª¨àª¸": 6126,
      "àªĨàª¹": 6127,
      "àª¢àª¨": 6128,
      "Ġ1915": 6129,
      "àª¸àª®àª¯àª¨": 6130,
      "àªĹàª²àªª": 6131,
      "ĠàªĬàª¤": 6132,
      "alth": 6133,
      "à¥¥": 6134,
      "Ġfall": 6135,
      "Ġbas": 6136,
      "oul": 6137,
      "àª¨àª¸àª¤": 6138,
      "urther": 6139,
      "Ġthus": 6140,
      "Ġrepl": 6141,
      "àªıàª¨àªľ": 6142,
      "adesh": 6143,
      "ĠPh": 6144,
      "àªªàª²àªŁ": 6145,
      "Ġ81": 6146,
      "Ġàªĳàªªàª°": 6147,
      "àªĨàªĩàªıàª¸": 6148,
      "ĠHindu": 6149,
      "Ġste": 6150,
      "Ġstat": 6151,
      "Ġstar": 6152,
      "ĠKumar": 6153,
      "acco": 6154,
      "Ġàªħàª£àª¨àª®": 6155,
      "Ġàª¬àª³àªª": 6156,
      "pecial": 6157,
      "Ġàªıàª«àª¸": 6158,
      "Ġàªıàª«àª¬": 6159,
      "àª¨àª¹àªŁ": 6160,
      "Ġexist": 6161,
      "Ġexpl": 6162,
      "Ġright": 6163,
      "Ġàª®àª¶àª¹": 6164,
      "ĠJan": 6165,
      "Ġà«§à«®à«¯à««": 6166,
      "Ġà«§à«§à«¬": 6167,
      "Ġà¤ħà¤§": 6168,
      "Ġrecogn": 6169,
      "Ġpopularity": 6170,
      "Ġàª®àªķàª°àª¸": 6171,
      "Ġàª®àªķàª°àªª": 6172,
      "span": 6173,
      "Ġindepend": 6174,
      "Ġemploy": 6175,
      "Ġà¥¥": 6176,
      "Ġartic": 6177,
      "Ġmembers": 6178,
      "Ġavail": 6179,
      "Ġnamed": 6180,
      "Ġancest": 6181,
      "ĠAccording": 6182,
      "Ġreligious": 6183,
      "ĠBuddh": 6184,
      "ĠAustral": 6185,
      "ikipedia": 6186,
      "62": 6187,
      "Portal": 6188,
      "conom": 6189,
      "ij": 6190,
      "pad": 6191,
      "Ùħ": 6192,
      "àª¨àª§àª°": 6193,
      "àªµàªĺ": 6194,
      "àªµàª¡àª¨": 6195,
      "àªķàª®àª¨": 6196,
      "àª²àª§": 6197,
      "àª²àªªàª¤": 6198,
      "Ġàª¸àªŁ": 6199,
      "Ġàªķàª¥àª³": 6200,
      "Ġàªķàª¤àª²": 6201,
      "Ġàª¤àªķàª°": 6202,
      "Ġàª®àªľàª²": 6203,
      "Ġàªħàªľàªµ": 6204,
      "àªªàªķàª¨": 6205,
      "àª£àª¸àª°": 6206,
      "àª¥àª§": 6207,
      "Ġàª°àª³": 6208,
      "Ġàª¨àª¯àª¨": 6209,
      "Ġàª¬àª°àª¤": 6210,
      "àª³àª£": 6211,
      "Ġàªıàª¥àª²": 6212,
      "ĠàªŃàª°àª£": 6213,
      "àªĸàªŃ": 6214,
      "Ġàª²àªľ": 6215,
      "Ġàªīàª¡àªµ": 6216,
      "àªľàª°àª®": 6217,
      "àªĩàª²àª®": 6218,
      "àªĪàª¸àª¨": 6219,
      "àª¶àª¨àª¸": 6220,
      "à«Ģ...": 6221,
      "àª°àªķàª°àª£àª®": 6222,
      "àª§àª¨àªķ": 6223,
      "Ġàªīàªªàª°àªµ": 6224,
      "àªĨàª¨àª¨": 6225,
      "Ġàª®àª¹àª®": 6226,
      "ĠàªĩàªĹàª²": 6227,
      "àªµàª¨àª°": 6228,
      "Ġter": 6229,
      "Ġtour": 6230,
      "Ġaff": 6231,
      "àªŁàª¨àª°": 6232,
      "Ġ1912": 6233,
      "Ġsize": 6234,
      "ison": 6235,
      "àªŀàª¨": 6236,
      "àª²àª®àªª": 6237,
      "âĢĻ-": 6238,
      "Ġàªľàª¨àªĹàª£àª¨": 6239,
      "Ġfac": 6240,
      "Ġinsp": 6241,
      "Ġ360": 6242,
      "Ġdr": 6243,
      "àªĸàª°àªľ": 6244,
      "àªĨàª°àªª": 6245,
      "àªĨàª°àªıàª¸": 6246,
      "àª°àª²àªķ": 6247,
      "Ġàªļàª°àªĸ": 6248,
      "Ġà«®à«©": 6249,
      "stand": 6250,
      "Ġlate": 6251,
      "Ġàª¤àª³àªªàª¦": 6252,
      "amous": 6253,
      "Ġàªīàª®àªŁ": 6254,
      "ĠàªĨàªĩàªķ": 6255,
      "Ġ1500": 6256,
      "Ġ93": 6257,
      "Ġà«§à«¯à«ªà«©": 6258,
      "istic": 6259,
      "Ġàª¸àª«àª°àªľàª¨àª¨": 6260,
      "Ġrather": 6261,
      "à«ĪàªĤ.": 6262,
      "Ġàªħàªµàª¤àª°àª£": 6263,
      "Ġà«§à«®à«¯à«§": 6264,
      "Ġcontribut": 6265,
      "rick": 6266,
      "Ġactress": 6267,
      "ĠàªŃàªĹàª¤àª¨": 6268,
      "ĠàªĨàª¡àªħàª¸àª°": 6269,
      "ception": 6270,
      "à§ĩ": 6271,
      "Ġidli": 6272,
      "Ġparticularly": 6273,
      "Ġàªıàªıàª®àª¡": 6274,
      "ohn": 6275,
      "ĠMuslim": 6276,
      "Ġimportant": 6277,
      "%}.": 6278,
      "--": 6279,
      "94": 6280,
      "SS": 6281,
      "be": 6282,
      "fare": 6283,
      "face": 6284,
      "iver": 6285,
      "ran": 6286,
      "ËĪ": 6287,
      "ÏĦ": 6288,
      "âĪĴ": 6289,
      "ï¼": 6290,
      "àª¨àªľàª¨àªķ": 6291,
      "àª®àªŁàª¨": 6292,
      "àª¤àª¯": 6293,
      "àª¯àª£àªµ": 6294,
      "àª²àªªàª°": 6295,
      "àª¾àªĤàªĤ": 6296,
      "àª¸àª®àª¨": 6297,
      "Ġàª®àª¨àªµ": 6298,
      "àªĹàªĹ": 6299,
      "àªªàªŁàª¨": 6300,
      "àªªàªŁàª¨àª®": 6301,
      "àª£àª£": 6302,
      "àª¦àª·": 6303,
      "àª¡àªĽ": 6304,
      "Ġàª°àª¸àª®": 6305,
      "Ġàª¦àª¹àª¨": 6306,
      "àªļàªŁ": 6307,
      "àª·àªļ": 6308,
      "àªıàªľ": 6309,
      "àªıàªķàªµ": 6310,
      "àª°àª®àª¥": 6311,
      "Ġàª«àªŁ": 6312,
      "Ġàªīàªªàª®àª¹": 6313,
      "àªµàª¨àª¥": 6314,
      "à¤ģ": 6315,
      "àª®àª£àª®": 6316,
      "ĠàªĪàª¡": 6317,
      "Ġ1910": 6318,
      "ering": 6319,
      "àªļàª¨àªķ": 6320,
      "Ġàª¸àª®àª¯àª¸": 6321,
      "att": 6322,
      "Ġàªīàª¦àªŃàªµàª¤": 6323,
      "ene": 6324,
      "Ġàª¸àª¹àª¨àª¶": 6325,
      "Ġàªľàª¨àª¸àª®": 6326,
      "Ġmust": 6327,
      "Ġpat": 6328,
      "Ġpost": 6329,
      "àª¹àª¨àª²": 6330,
      "ices": 6331,
      "Ġà«¬à«Ń": 6332,
      "Ġà«¬à«ª": 6333,
      "Ġ''": 6334,
      "Ġàªıàª¸àªŁ": 6335,
      "àª¨àª¸àª¶": 6336,
      "àª²àªķàª°àª¨": 6337,
      "Ġà««à«¦à«¦à«¦": 6338,
      "eter": 6339,
      "ĠAwards": 6340,
      "Ġ57": 6341,
      "Ġà«Ńà«Ń": 6342,
      "Ġ2015": 6343,
      "Ġ61": 6344,
      "ĠàªĹàª°àª¦àª¨": 6345,
      "imetres": 6346,
      "ĠMany": 6347,
      "ada": 6348,
      "ĠàªĨàªĩàª«": 6349,
      "istor": 6350,
      "Ġ1775": 6351,
      "opods": 6352,
      "ĠNe": 6353,
      "àª¼à«ĩ": 6354,
      "Ġke": 6355,
      "ĠEast": 6356,
      "Ġàªļàª³àªµàª³àªķ": 6357,
      "akes": 6358,
      "Ġ140": 6359,
      "Ġcommercial": 6360,
      "iple": 6361,
      "Ġ1928": 6362,
      "aterial": 6363,
      "Ġpopulation": 6364,
      "Ġàª°àª®àª£àªŃ": 6365,
      "Ġbetter": 6366,
      "Ġlargest": 6367,
      "Ġsym": 6368,
      "Ġproduced": 6369,
      "umbers": 6370,
      "Ġàª®àª¹àª¦àªħ": 6371,
      "à«ĩâĢĿ.": 6372,
      "ĠàªĨàª°àª¸àªªàª¹": 6373,
      "Ġobs": 6374,
      "ĠàªĨàªīàªŁàª¸": 6375,
      "Ġwritten": 6376,
      "àª¹àªĿàª°àª¤": 6377,
      "Ġforeign": 6378,
      "Ġvillage": 6379,
      "Ġruns": 6380,
      "Ġmovement": 6381,
      "ĠMandir": 6382,
      "padding": 6383,
      "Ġàª¬àª°àª¤àª°àª«": 6384,
      "900": 6385,
      "DI": 6386,
      "TC": 6387,
      "dom": 6388,
      "hile": 6389,
      "ton": 6390,
      "test": 6391,
      "Ġenc": 6392,
      "àªĤ-": 6393,
      "àª®àª¢": 6394,
      "àª®àªŃàª¦": 6395,
      "àªµàªı": 6396,
      "àª²àª®àª®": 6397,
      "Ġàªªàª³": 6398,
      "Ġàª¸àª§àª°": 6399,
      "ĠàªĨàª¥àª®": 6400,
      "àªĹàª®àª®": 6401,
      "àªĹàªµàª°": 6402,
      "àªŁàªļ": 6403,
      "àªªàª°àªķ": 6404,
      "àª£àªªàª°": 6405,
      "Ġàªµàª¸àª¨": 6406,
      "Ġàªµàª¡àªµ": 6407,
      "Ġàªµàªķàª¤": 6408,
      "Ġàª¬àªŁàª²àª°": 6409,
      "àªļàª²àª¨àª¨": 6410,
      "àªĸàªµàª¤": 6411,
      "àª·àªŃ": 6412,
      "àªŃàªŁ": 6413,
      "àªĩàªļ": 6414,
      "àªĩàª°àª²": 6415,
      "Ġàªļàª°àª£àª®": 6416,
      "àªĪàª¯": 6417,
      "àª¯àª¨àª²": 6418,
      "Ġàª¸àª®àª°àª¸": 6419,
      "Ġàª¸àª®àª¤àª²": 6420,
      "Ġàªĺàª®": 6421,
      "àªĽàªŁ": 6422,
      "àªĺàªķ": 6423,
      "àªĺàªľ": 6424,
      "àªĿàªķ": 6425,
      "Ġ110": 6426,
      "àªµàª²àª¸": 6427,
      "Ġàªĩàª¸àª°": 6428,
      "àªµàª¨àªķàª¥": 6429,
      "nded": 6430,
      "Ġcame": 6431,
      "Ġcities": 6432,
      "Ġcells": 6433,
      "alk": 6434,
      "Ġàªªàª¦àª¯": 6435,
      "Ġwk": 6436,
      "Ġwon": 6437,
      "Ġfamous": 6438,
      "à««à«¯": 6439,
      "Ġàª²àªĸàª¤àª°": 6440,
      "ilt": 6441,
      "ilis": 6442,
      "Ġder": 6443,
      "Ġà«¬à«¬": 6444,
      "Ġà«¬à«©": 6445,
      "à«©à«¯": 6446,
      "àªĨàª°àªĨàªĩ": 6447,
      "Ġ2020": 6448,
      "Ġ2014": 6449,
      "Ġlim": 6450,
      "Ġnature": 6451,
      "Ġrece": 6452,
      "amm": 6453,
      "ĠBest": 6454,
      "ades": 6455,
      "Ġ82": 6456,
      "Ġ83": 6457,
      "Ġàª°àª®àª¤àªµ": 6458,
      "àª£àªķàª¦": 6459,
      "Ġ97": 6460,
      "Ġ98": 6461,
      "Ġstand": 6462,
      "ĠRad": 6463,
      "acy": 6464,
      "Ġàªħàª£àª¹": 6465,
      "ĠFore": 6466,
      "àª¾',": 6467,
      "Ġà«§à«¯à«§à«¦": 6468,
      "Ġà«¯à«¨": 6469,
      "Ġleft": 6470,
      "Ġà«§à«®à«¯à«¨": 6471,
      "Ġà«§à«®à«¯à«©": 6472,
      "Ġarg": 6473,
      "Ġàª¹àª³àª¦àª°àª¨": 6474,
      "Ġperform": 6475,
      "àªĩàª¬àª²àª¨": 6476,
      "aceous": 6477,
      "isms": 6478,
      "ĠUnion": 6479,
      "Ġreferred": 6480,
      "Ġà¦ľ": 6481,
      "Ġcreated": 6482,
      "Ġoriginal": 6483,
      "ĠÏĢ": 6484,
      "Ġtyp": 6485,
      "à¥Īà¤Ĥà¥¤": 6486,
      "Ġsignific": 6487,
      "ĠMinister": 6488,
      "DP": 6489,
      "NA": 6490,
      "bs": 6491,
      "by": 6492,
      "dress": 6493,
      "ke": 6494,
      "ua": 6495,
      "Ġve": 6496,
      "àª¾)": 6497,
      "àª°àªĺàª°": 6498,
      "à«į.": 6499,
      "àª¨àªĹàª¨": 6500,
      "àª®àª£àªµ": 6501,
      "àªµàª³àª¨": 6502,
      "àªķàª¡àªµ": 6503,
      "Ġàªªàª¤àª°": 6504,
      "Ġàªªàª¢àªµ": 6505,
      "Ġàª¸àª¬àª¨": 6506,
      "àª¸àªĸ": 6507,
      "àª¸àªľàª¨": 6508,
      "àªŁàª£àª®": 6509,
      "àªľàª¦àª°": 6510,
      "àªľàªĹàª£": 6511,
      "àª¡àªļ": 6512,
      "àª¡àª°àª¸": 6513,
      "Ġàª¹àª°àª¸": 6514,
      "Ġàª¨àª¯": 6515,
      "Ġàª¨àªŁ": 6516,
      "Ġàª¨àªļ": 6517,
      "Ġàª¬àª¬": 6518,
      "ĠàªŃàªķàª¤": 6519,
      "Ġàªķàª°àªľ": 6520,
      "Ġàª²àª®": 6521,
      "àªĵàªľ": 6522,
      "àªĩàª«àª°": 6523,
      "Ġàªļàªª": 6524,
      "Ġàªļàª¢àªµ": 6525,
      "ĠàªŁàª®": 6526,
      "ĠàªŁàª¨àª²": 6527,
      "àªķàª¨àª®": 6528,
      "àªĺàªŁàª¨àª¨": 6529,
      "àª¤àª°àªĽ": 6530,
      "Ġàª®àª¹àª²": 6531,
      "à«¦à«§": 6532,
      "à¤ł": 6533,
      "Ġtest": 6534,
      "àª¯àª®àª¹": 6535,
      "àªªàª°àªļ": 6536,
      "ĠàªĪàªĹ": 6537,
      "Ġour": 6538,
      "ĠàªĨàª°àªĵàªı": 6539,
      "Ġsit": 6540,
      "Ġserv": 6541,
      "àªĪàª¨àª²àª®": 6542,
      "Ġàªĩàª¨àªŁ": 6543,
      "arh": 6544,
      "Ġins": 6545,
      "Ġmin": 6546,
      "Ġmaterial": 6547,
      "Ġpack": 6548,
      "Ġphys": 6549,
      "àª¦àª²àªª": 6550,
      "à«®à««": 6551,
      "Ġàª®àª¨àª¸": 6552,
      "àªĨàª°àªıàª²": 6553,
      "Ġtob": 6554,
      "Ġtotal": 6555,
      "Ġàªªàª¤àª¨àª¨": 6556,
      "ĠàªĺàªŁàªķàª¨": 6557,
      "Ġequ": 6558,
      "ĠSI": 6559,
      "ĠShe": 6560,
      "ĠSom": 6561,
      "Ġ2013": 6562,
      "Ġlay": 6563,
      "Ġrequ": 6564,
      "ams": 6565,
      "ĠCret": 6566,
      "ĠMay": 6567,
      "adem": 6568,
      "Ġgood": 6569,
      "ĠàªĲàª¸": 6570,
      "Ġstill": 6571,
      "Ġàªľàª³àª¸": 6572,
      "Ġà«§à««à«¦à«¦": 6573,
      "à¥ĩ,": 6574,
      "àª¤àª°àª£àª®": 6575,
      "estival": 6576,
      "Ġàªĺàª¡àª¤àª°": 6577,
      "Ġexp": 6578,
      "Ġà«§à«¯à«¨à«¯": 6579,
      "Ġàªķàª¸àª¬": 6580,
      "à¥Ģ,": 6581,
      "Ġàª¬àªĹàª¸àª°": 6582,
      "Ġhere": 6583,
      "Ġ1933": 6584,
      "1992": 6585,
      "1996": 6586,
      "1998": 6587,
      "ĠInternational": 6588,
      "ĠàªĹàª¢àª¨": 6589,
      "Ġà«§à«®à«¯à«¯": 6590,
      "Ġ1922": 6591,
      "Ġ1905": 6592,
      "Ġunivers": 6593,
      "oney": 6594,
      "Ġtechn": 6595,
      "Ġoffice": 6596,
      "Ġtransmitted": 6597,
      "Ġphot": 6598,
      "Ġaccept": 6599,
      "Ġgenerally": 6600,
      "Ġàª°àª¤àª¨àªª": 6601,
      "Ġmedic": 6602,
      "ĊĠĊĊĊĊĊĊ": 6603,
      "Ġcharacter": 6604,
      "Ġpossible": 6605,
      "Ġàª¦àªĸàª²àªĹ": 6606,
      "Ġgiven": 6607,
      "Ġactivity": 6608,
      "ĠRoad": 6609,
      "Ġmethod": 6610,
      "Ġintroduced": 6611,
      "Ġàªħàª¹àª®àª¦àª¨àªĹàª°": 6612,
      "ï¼ı": 6613,
      "ĠCretaceous": 6614,
      ":#": 6615,
      "Mod": 6616,
      "Un": 6617,
      "ead": 6618,
      "ger": 6619,
      "ho": 6620,
      "net": 6621,
      "uary": 6622,
      "Ġly": 6623,
      "Ġide": 6624,
      "Ġerror": 6625,
      "àª¾!": 6626,
      "à«ĩà«¢": 6627,
      "àª¨àª²àª®": 6628,
      "à«Ģ)": 6629,
      "àª®àªľàª¨": 6630,
      "àª¤àªķàª²": 6631,
      "àªµàª¯àª¨": 6632,
      "àªµàª£àª®": 6633,
      "à«ģ;": 6634,
      "Ġàªªàª¢": 6635,
      "Ġàªķàª²àª¨àª¨": 6636,
      "ĠàªĨàªļàª°": 6637,
      "ĠàªĨàªĪàª¡": 6638,
      "Ġàª®àª®": 6639,
      "Ġàª®àªĺ": 6640,
      "ĠàªĽàª²àªķ": 6641,
      "ĠàªħàªŁàª²": 6642,
      "Ġàªħàª¥àª°": 6643,
      "àªľàªĹàª¢": 6644,
      "àª£àª¬àª¤": 6645,
      "Ġàª¹àª°àªķ": 6646,
      "àª¹àª¯": 6647,
      "Ġàª°àª¥àª¨": 6648,
      "Ġàª¨àª®àªķ": 6649,
      "Ġàª¬àª²àª°": 6650,
      "àª³àª¬": 6651,
      "Ġàªıàª£": 6652,
      "ĠàªŃàªŁàªķ": 6653,
      "àªĸàªªàª¦": 6654,
      "àª·àªªàª£": 6655,
      "àª·àªªàª¦": 6656,
      "àªŃàª³àª¤": 6657,
      "Ġàªīàª§àª®": 6658,
      "Ġàªıàªķàª®àª¤": 6659,
      "àªĪàªĵàª®": 6660,
      "àªĪàª«àª²": 6661,
      "àªıàªıàª®": 6662,
      "Ġàª«àª³àª®": 6663,
      "àª¯àª¨àªµ": 6664,
      "àª°àªķàªŁ": 6665,
      "àªĿàª°àª¨": 6666,
      "àªĨàªĪàª¸": 6667,
      "àªµàª²àªª": 6668,
      "à«¦à«Ń": 6669,
      "àªµàª¨àªŃàª°": 6670,
      "Ġtaken": 6671,
      "Ġàª§àª°àªĸàª®": 6672,
      "àªªàª°àª¬": 6673,
      "à«ĭàªĤ,": 6674,
      "àª·àª£àª¶": 6675,
      "àªĩàª¨àª¸": 6676,
      "Ġàªıàª¨àªıàª®": 6677,
      "ĠàªĿàª¡àªªàª¨": 6678,
      "àªļàª¨àªĹ": 6679,
      "Ġàªħàª°àª¬àª¸": 6680,
      "ĠàªĨàª°àªŁ": 6681,
      "onst": 6682,
      "Ġshe": 6683,
      "Ġsil": 6684,
      "isation": 6685,
      "Ġàªīàª¦àªĹàª®": 6686,
      "Ġcr": 6687,
      "Ġcreat": 6688,
      "eding": 6689,
      "Ġàª¸àª¹àª¦": 6690,
      "à««à«ª": 6691,
      "Ġbo": 6692,
      "Ġbook": 6693,
      "Ġmar": 6694,
      "à«§à«§à«": 6695,
      "Ġàªħàª§àª°": 6696,
      "Ġàªħàªµàª§àª¨": 6697,
      "à«¬à«¨": 6698,
      "Ġà«§à«¦à«®": 6699,
      "àª²àªµàª¹": 6700,
      "ĠàªĨàª®àª°àª£": 6701,
      "Ġà«§à«®à«¦à«¦": 6702,
      "ĠAug": 6703,
      "olit": 6704,
      "ĠSing": 6705,
      "Ġla": 6706,
      "Ġlack": 6707,
      "Ġ62": 6708,
      "Ġnatural": 6709,
      "Ġnumbers": 6710,
      "resent": 6711,
      "ĠàªĨàªĩàªľ": 6712,
      "ĠàªĳàªŁ": 6713,
      "à¤°à¤£": 6714,
      "ulations": 6715,
      "àª¯àª®àª¨àª¨": 6716,
      "àª¯àª®àª¨àªķàª°": 6717,
      "Ġ).": 6718,
      "Ġàªľàª³àªª": 6719,
      "à¦¿": 6720,
      "Ġprote": 6721,
      "ably": 6722,
      "Ġ1937": 6723,
      "ĠJohn": 6724,
      "ively": 6725,
      "enced": 6726,
      "Ġ1906": 6727,
      "Ġàªĺàª¨àª¶": 6728,
      "ensis": 6729,
      "Ġrock": 6730,
      "ĠAsian": 6731,
      "Ġknowledge": 6732,
      "Ġconsist": 6733,
      "ormation": 6734,
      "Ġdoctr": 6735,
      "ĠàªĨàªīàªŁàª²": 6736,
      "Ġtemper": 6737,
      "Ġincrease": 6738,
      "Ġàª¹àª¡àªķàªµ": 6739,
      "iddle": 6740,
      "Ġappear": 6741,
      "Ġàªľàª¬àª°àªľàª¸": 6742,
      "Ġforest": 6743,
      "Ġwords": 6744,
      "ield": 6745,
      "Ġextinction": 6746,
      "Ġinspired": 6747,
      "Ġtobacco": 6748,
      "ĠAugust": 6749,
      "'\"": 6750,
      "'.": 6751,
      "320": 6752,
      "CO": 6753,
      "SE": 6754,
      "SR": 6755,
      "bit": 6756,
      "not": 6757,
      "oor": 6758,
      "oid": 6759,
      "ras": 6760,
      "rig": 6761,
      "rist": 6762,
      "ware": 6763,
      "ÛĶ": 6764,
      "Ġå": 6765,
      "àª°àªļàªķ": 6766,
      "àª®àª¸àª®àª°": 6767,
      "àª¤àª²àª¨": 6768,
      "Ġàªħàª¡àªµ": 6769,
      "àªľàªľ": 6770,
      "àªľàªµàª°": 6771,
      "àª¥àª¨àª®": 6772,
      "àª¦àªµàª°": 6773,
      "àª¡àªŃ": 6774,
      "àª¡àª¸àª°": 6775,
      "Ġàª¹àª°àª£àª¨": 6776,
      "àª¹àª¨àª®": 6777,
      "àª§àª°àª¨": 6778,
      "Ġàª¦àªĪ": 6779,
      "àªļàªµàª°": 6780,
      "ĠàªıàªĨ": 6781,
      "Ġàªķàª°àªķ": 6782,
      "Ġàªķàª°àªª": 6783,
      "àªĸàª²àª¨àª¨": 6784,
      "àª·àª¸àª¨": 6785,
      "Ġàª²àª¸àª£": 6786,
      "Ġàªĸàªª": 6787,
      "àªŃàª³àª¨": 6788,
      "Ġàªıàªķàªªàªķ": 6789,
      "àªĩàªıàª¸": 6790,
      "àªĪàªµàª°": 6791,
      "àªĪàª¸àª°": 6792,
      "àªĪàªŁàª®": 6793,
      "àªĪàªĿàª°": 6794,
      "àªıàªĹ": 6795,
      "àª¶àª¨àª°àª¨": 6796,
      "Ġàªĺàª°àª¡": 6797,
      "àªĿàª¡àªª": 6798,
      "Ġàªīàªªàª®": 6799,
      "Ġàª¤àª°àª¬": 6800,
      "Ġàªĩàªıàª®àªľ": 6801,
      "ĠàªĨàªªàª²": 6802,
      "Ġast": 6803,
      "het": 6804,
      "iness": 6805,
      "àªħàª¯": 6806,
      "àª°àª¦àª¯àª¨": 6807,
      "Ġàªªàª¡àª¤àª°": 6808,
      "Ġàªıàª¨àªľ": 6809,
      "ĠàªĿàª²àªķ": 6810,
      "Ġsix": 6811,
      "àªĹàªµàª¤àª®": 6812,
      "Ġche": 6813,
      "Ġcare": 6814,
      "Ġcause": 6815,
      "Ġcele": 6816,
      "aras": 6817,
      "iter": 6818,
      "Ġfive": 6819,
      "Ġfurther": 6820,
      "Ġbest": 6821,
      "Ġbill": 6822,
      "Ġpar": 6823,
      "Ġàª¤àª²àª¸": 6824,
      "ici": 6825,
      "icot": 6826,
      "icult": 6827,
      "Ġ3000": 6828,
      "aster": 6829,
      "àª®àª²àªķ": 6830,
      "à«©à«§": 6831,
      "Ġàªľàª®àª¶": 6832,
      "Ġtoday": 6833,
      "Ġhous": 6834,
      "ĊĊĊĊĊĊĊĊĊĊ": 6835,
      "Ġ1848": 6836,
      "ĠàªľàªĹàª¡": 6837,
      "Ġeither": 6838,
      "Ġà«Ńà«§": 6839,
      "Ġlow": 6840,
      "Ġ750": 6841,
      "àªµàª°àª£àªµ": 6842,
      "Ġà«§à«ªà«¦": 6843,
      "ĠCor": 6844,
      "ĠMost": 6845,
      "ott": 6846,
      "Ġàªķàª¥àªķàª²": 6847,
      "Ġge": 6848,
      "àªĨàªĩàª¸": 6849,
      "Ġstars": 6850,
      "ĠRudra": 6851,
      "Ġàªµàª¨àª¡": 6852,
      "Ġàªħàª¬àªľàª¨": 6853,
      "tha": 6854,
      "erest": 6855,
      "ĠLag": 6856,
      "abad": 6857,
      "aurus": 6858,
      "Ġ130": 6859,
      "Ġàªķàª³àª£": 6860,
      "1857": 6861,
      "There": 6862,
      "Ġà«¯à«ª": 6863,
      "Ġà«§à«®à«¯à«®": 6864,
      "Ġcontact": 6865,
      "Ġ1927": 6866,
      "Ġuniversity": 6867,
      "assic": 6868,
      "à°¨": 6869,
      "Ġabove": 6870,
      "Ġincludes": 6871,
      "Ġ1885": 6872,
      "ĠAsia": 6873,
      "Ġrecord": 6874,
      "Ġmean": 6875,
      "ĠIPv": 6876,
      "Ġproduction": 6877,
      "Ġàªļàª®àªķàª¤": 6878,
      "Ġquest": 6879,
      "Ġofficial": 6880,
      "Ġlocated": 6881,
      "ification": 6882,
      "àªĶàª°": 6883,
      "Ġblack": 6884,
      "ĠAmerica": 6885,
      "Ġfollowed": 6886,
      "Ġdevelopment": 6887,
      "Ġeffects": 6888,
      "Ġespecial": 6889,
      "Ġàª¸àª°àªĺàª¸": 6890,
      "Ġdescribed": 6891,
      "lobal": 6892,
      "Ġrepresent": 6893,
      "Ġfilmmakers": 6894,
      "Ġavailable": 6895,
      "ademy": 6896,
      "Ġlyric": 6897,
      "Ġespecially": 6898,
      "Ex": 6899,
      "IN": 6900,
      "TF": 6901,
      "TCP": 6902,
      "like": 6903,
      "px": 6904,
      "viron": 6905,
      "wl": 6906,
      "ÃŃ": 6907,
      "Î¯": 6908,
      "Ïĥ": 6909,
      "Ġri": 6910,
      "àª¾à«¢": 6911,
      "àª°àª²àª¨": 6912,
      "àª°àªĽ": 6913,
      "àª¨àª³": 6914,
      "àª¤àª«": 6915,
      "àª¤àªµàª°": 6916,
      "à«ĭ\",": 6917,
      "àª¿âĢĻ,": 6918,
      "àª²àªŃàª°": 6919,
      "Ġàªªàª¯": 6920,
      "Ġàªħàª°àª£": 6921,
      "Ġàªħàª¦àª²": 6922,
      "àªŁàªŁ": 6923,
      "àªŁàªĽ": 6924,
      "àªľàª²àªª": 6925,
      "àª£àª®àª¤": 6926,
      "àª¶àª¯àª®": 6927,
      "Ġàª¹àªķàª¨": 6928,
      "Ġàª¨àª°àªķàª®": 6929,
      "Ġàª¬àª®": 6930,
      "Ġàª¬àª¤àªķ": 6931,
      "ĠàªĨàªµàª°àª£àª¨": 6932,
      "àªļàª°àª¤": 6933,
      "Ġàªķàª°àª¡": 6934,
      "àªĸàª¡àªķ": 6935,
      "àªĸàª¨àªķ": 6936,
      "àª¬àª²àª®": 6937,
      "Ġàª²àªª": 6938,
      "Ġàª²àªµàª£": 6939,
      "àªŃàª¯": 6940,
      "Ġàªīàª¸àªķ": 6941,
      "Ġàªĺàª¸àª¡": 6942,
      "àªµàª¸àª¨àª¤": 6943,
      "Ġàªĵàªļ": 6944,
      "àªĨàªī": 6945,
      "àªĨàªĪàªı": 6946,
      "àªīàª¸àª®": 6947,
      "Ġàª¤àª°àª²": 6948,
      "Ġàªĩàª¸àª®": 6949,
      "Ġàªĩàª¸àªµ": 6950,
      "àªĹàª°àªª": 6951,
      "àªĹàª°àª¬": 6952,
      "Ġtw": 6953,
      "Ġtre": 6954,
      "Ġtake": 6955,
      "àª¦àª°àª¸": 6956,
      "àª¦àª°àªĸ": 6957,
      "àªħàªŁ": 6958,
      "àªħàª°àª¨": 6959,
      "Ġtherop": 6960,
      "àªĩàª¨àª¥": 6961,
      "Ġàª¶àª¹àª°": 6962,
      "Ġson": 6963,
      "Ġcy": 6964,
      "Ġcost": 6965,
      "alle": 6966,
      "Ġmer": 6967,
      "Ġput": 6968,
      "Ġpower": 6969,
      "Ġàªıàª®àªıàª®": 6970,
      "Ġ.\"": 6971,
      "aste": 6972,
      "Ġdone": 6973,
      "Ġdanc": 6974,
      "Ġdown": 6975,
      "à«¬à«©": 6976,
      "àªĨàª°àªıàª®": 6977,
      "Ġtook": 6978,
      "lev": 6979,
      "Ġ->": 6980,
      "Ġhome": 6981,
      "Ġàªıàª¸àªı": 6982,
      "àª¯àªªàª¶": 6983,
      "olk": 6984,
      "Ġlat": 6985,
      "Ġthings": 6986,
      "Ġthought": 6987,
      "1930": 6988,
      "ĠCol": 6989,
      "àª¹àª°àª£àª°": 6990,
      "ĠàªĨàªĩàªıàª¸": 6991,
      "Ġàªĳàª²": 6992,
      "à¤°à¤ķ": 6993,
      "à¤°à¤®": 6994,
      "Ġàª°àª®àª¤àªĹàª®àª¤": 6995,
      "àª²àªªàªŁ": 6996,
      "raft": 6997,
      "ĠGod": 6998,
      "hers": 6999,
      "ula": 7000,
      "Ġonce": 7001,
      "ĠKap": 7002,
      "ĠFr": 7003,
      "ĠàªħàªľàªĹàª°": 7004,
      "ĠEarth": 7005,
      "ift": 7006,
      "aint": 7007,
      "à¦¨": 7008,
      "ivid": 7009,
      "àªĪàªķàª²àª¨": 7010,
      "osaurs": 7011,
      "itions": 7012,
      "Ġà«§à«®à«®à«®": 7013,
      "Ġà«§à«®à«®à«¯": 7014,
      "Ġà«§à«®à«¯à«ª": 7015,
      "Ġ1925": 7016,
      "Ġ1901": 7017,
      "Ġimage": 7018,
      "Ġinterest": 7019,
      "Ġà«§à«®à«Ńà«¨": 7020,
      "Ġ1896": 7021,
      "à«ĩ?\"": 7022,
      "Ġbecome": 7023,
      "clop": 7024,
      "}}}": 7025,
      "Ġsaw": 7026,
      "àªĶàª¦": 7027,
      "à«§à«¯à«®à«¦": 7028,
      "ervation": 7029,
      "Ġmajority": 7030,
      "Ġorigin": 7031,
      "Ġcurrent": 7032,
      "ĠâĤ¬": 7033,
      "ominated": 7034,
      "Ġcourt": 7035,
      "Ġhuman": 7036,
      "Ġaudiences": 7037,
      "Ġhigher": 7038,
      "ricket": 7039,
      "Ġwkts": 7040,
      "Ġsignificant": 7041,
      "600": 7042,
      "AF": 7043,
      "DU": 7044,
      "af": 7045,
      "jar": 7046,
      "lam": 7047,
      "nith": 7048,
      "sh": 7049,
      "wa": 7050,
      "ÏĢ": 7051,
      "Ġ}": 7052,
      "ĠÃĹ": 7053,
      "à«įàª¿": 7054,
      "àª¨àª®àª£": 7055,
      "àª¤àª§": 7056,
      "àª¤àªļàª°": 7057,
      "à«ĭà«¢": 7058,
      "àªķàªı": 7059,
      "àªķàª¤àª°": 7060,
      "Ġàªªàª§àª°": 7061,
      "Ġàªķàª²àª¨": 7062,
      "Ġàª¤àªŁàªµàª°": 7063,
      "Ġàªħàªļàª²": 7064,
      "àªŁàª¶": 7065,
      "àª£àª²": 7066,
      "Ġàªµàª®àª³": 7067,
      "àª¥àª¨àª¨": 7068,
      "à«ĩ.)": 7069,
      "àª¡àª®àª¨": 7070,
      "à«ģàªĤ\".": 7071,
      "Ġàª¹àª°àª®": 7072,
      "Ġàª¹àª²àªµ": 7073,
      "ĠàªĹàª§": 7074,
      "àª§àª¡": 7075,
      "àª§àªµàª°": 7076,
      "Ġàª¬àª¦àª¨": 7077,
      "ĠàªĨàªµàªķàªµ": 7078,
      "à«Ĥàªģ": 7079,
      "àªļàª°àª®": 7080,
      "Ġàª¶àª®àª¨": 7081,
      "àªĸàª°àª®": 7082,
      "Ġàª²àª£àª£": 7083,
      "Ġàªĸàª¯": 7084,
      "Ġàªıàªķàªªàª£": 7085,
      "àªĩàªĩ": 7086,
      "àª«àª°àªĸ": 7087,
      "Ġàªļàª¡àª¤": 7088,
      "Ġàª¡àª¨": 7089,
      "àªıàªıàª²": 7090,
      "àª¯àª¨àª²àª®": 7091,
      "àªĺàªī": 7092,
      "Ġàªīàªªàª¶": 7093,
      "àªłàª¤àª®": 7094,
      "à«ĭ...": 7095,
      "àªĨàªĩàª¡": 7096,
      "à«¦à«®": 7097,
      "Ġàªĩàª·": 7098,
      "àªĹàª°àªľ": 7099,
      "àªĹàª°àªĸ": 7100,
      "à¤ı": 7101,
      "àª¯àª®àª°": 7102,
      "àªµàª¤àª¶": 7103,
      "àªľàª¨àªµ": 7104,
      "àªªàª°àª¡": 7105,
      "àª¯àªķàª¶": 7106,
      "Ġàª¸àª°àª²": 7107,
      "àª³àªµàª¶": 7108,
      "ĠàªĪàª¥àª°àª¨": 7109,
      "Ġopp": 7110,
      "àªĹàª²àªµ": 7111,
      "Ġàªıàª¨àª¡": 7112,
      "ĠàªĿàª«àª°àªĸ": 7113,
      "Ġsource": 7114,
      "anes": 7115,
      "eng": 7116,
      "eded": 7117,
      "arly": 7118,
      "Ġàªľàª°àª¥": 7119,
      "Ġfoc": 7120,
      "Ġfund": 7121,
      "Ġàªķàª²àª¬àª¨": 7122,
      "Ġàªķàª®àª³àª¨": 7123,
      "àª¥àªķàª¤": 7124,
      "ĠàªħàªµàªĹàª£àªµ": 7125,
      "Ġden": 7126,
      "Ġàªħàªªàªķ": 7127,
      "à«ªà«§": 7128,
      "Ġà«©à«¯": 7129,
      "Ġà«©à«¦à«¦à«¦": 7130,
      "Ġàª°àª¸àªĸ": 7131,
      "àª°àª«àª¨": 7132,
      "Ġà«§à«®à««à«¦": 7133,
      "Ġ1870": 7134,
      "uru": 7135,
      "Ġ58": 7136,
      "ĠSid": 7137,
      "ĠSub": 7138,
      "Ġàªħàª¡àªĹ": 7139,
      "Ġ63": 7140,
      "àª¹àª°àª£àª¨": 7141,
      "àª°àª®àª£àª¥": 7142,
      "iger": 7143,
      "Ġ105": 7144,
      "Ġgold": 7145,
      "àªĨàªĩàªıàª®": 7146,
      "ĠHigh": 7147,
      "oph": 7148,
      "àªıàª²àªı": 7149,
      "Ġkg": 7150,
      "eremon": 7151,
      "Ġvir": 7152,
      "Ġrad": 7153,
      "Ġdeath": 7154,
      "Ġ1935": 7155,
      "Ġà«§à«¯à«§à«§": 7156,
      "ards": 7157,
      "Ġàªķàª£àª¬": 7158,
      "1995": 7159,
      "àª¨àªĹàª¢àª¥": 7160,
      "Ġtruth": 7161,
      "ected": 7162,
      "Ġà«§à«§à«ª": 7163,
      "à«¨à«¦à«¦à«Ń": 7164,
      "Ġitself": 7165,
      "Ġà¤ħà¤Ń": 7166,
      "Ġwhole": 7167,
      "Ġà¤ľà¤¯": 7168,
      "Ġreflect": 7169,
      "Ġground": 7170,
      "àªŃàªĹàªµàª¦": 7171,
      "Ġà¤¤à¤¥": 7172,
      "Ġmillimetres": 7173,
      "Ġsurv": 7174,
      "Ġsurface": 7175,
      "Ġdiscovered": 7176,
      "Ġchange": 7177,
      "ĠEuropean": 7178,
      "Ġàªľàª³àªļàª°àªīàªĽ": 7179,
      "Ġinfluence": 7180,
      "Ġàªļàª°àª®àª¸": 7181,
      "Ġphilosophy": 7182,
      "ograp": 7183,
      "Ġstarted": 7184,
      "Ġfrequently": 7185,
      "Ġestablished": 7186,
      "Ġdiscovery": 7187,
      "Ġà¦ľà¦¯": 7188,
      "ividual": 7189,
      "250": 7190,
      "Ad": 7191,
      "RP": 7192,
      "Wik": 7193,
      "de": 7194,
      "ling": 7195,
      "tt": 7196,
      "uge": 7197,
      "ws": 7198,
      "Øª": 7199,
      "àª¨àª§": 7200,
      "àª¨àªµàªµ": 7201,
      "àª¤àªĹàª¢": 7202,
      "àª¯àª¦àª°": 7203,
      "àª¯àªĹàª¢": 7204,
      "àªķàª³àª¨": 7205,
      "àªķàªħàªª": 7206,
      "àª²àª¸àª°": 7207,
      "àª¾àªĤ\"": 7208,
      "Ġàª¸àª£": 7209,
      "Ġàª¸àª¤àª°": 7210,
      "Ġàª¸àª¬àª³": 7211,
      "ĠàªĨàªĸàª²": 7212,
      "Ġàª®àªĹàª¨": 7213,
      "ĠàªħàªĹàª°": 7214,
      "àªľàª¯àª¸": 7215,
      "àªªàª°àªķàª®": 7216,
      "Ġàªµàª°àª¤": 7217,
      "ĠàªĹàª°àªľ": 7218,
      "Ġàª¦àª³àª®": 7219,
      "Ġàª¬àª°àªµ": 7220,
      "Ġàª¬àªĹàª²": 7221,
      "àªĸàª¬": 7222,
      "àªŃàªĹàª¤": 7223,
      "Ġàªıàªķàª°àª¨": 7224,
      "àªĩàªķàª°": 7225,
      "Ġàªªàª°àªļ": 7226,
      "Ġàªļàª°àªķ": 7227,
      "àªıàª¤": 7228,
      "àª°àª£àªª": 7229,
      "Ġàª§àª°àª£": 7230,
      "Ġàª§àª¬àªķ": 7231,
      "ĠàªŁàªļ": 7232,
      "Ġàª¯àª¶àªµ": 7233,
      "àª²àª¨àª¥": 7234,
      "âĢ¦": 7235,
      "àªĿàªµàª£": 7236,
      "àªĨàª¥": 7237,
      "àªĨàª¦àª°": 7238,
      "àªĨàªĿàª®": 7239,
      "àªīàª¬": 7240,
      "Ġàªµàª§àª¸": 7241,
      "àªľàª¨àª²": 7242,
      "Ġaver": 7243,
      "àª¯àªķàª¥": 7244,
      "àª¤àª¨àªķ": 7245,
      "inent": 7246,
      "ination": 7247,
      "Ġàª®àª³àª¨": 7248,
      "Ġàªħàª®àª°àª¨": 7249,
      "àªħàª¡": 7250,
      "àªħàª°àª¬": 7251,
      "àªħàª¡àª§": 7252,
      "atory": 7253,
      "àª°àª¹àª£àª¨": 7254,
      "àªŀàª®": 7255,
      "Ġwar": 7256,
      "Ġfind": 7257,
      "àªªàª£àª®": 7258,
      "Ġbone": 7259,
      "Ġmid": 7260,
      "Ġàª¸àª¦àªĹ": 7261,
      "àª¡àª°àª°": 7262,
      "asa": 7263,
      "Ġà«¬à«¨": 7264,
      "à«¬à««": 7265,
      "ĠàªħàªĹàª£": 7266,
      "àª¬àª²àª¡àª¨": 7267,
      "àªĿàª¨àª²": 7268,
      "Ġ1850": 7269,
      "urch": 7270,
      "ĠTamil": 7271,
      "ĠSp": 7272,
      "Ġàªħàª¡àª¦àª¨": 7273,
      "cts": 7274,
      "Ġnational": 7275,
      "àªıàª®àªıàª¸": 7276,
      "1920": 7277,
      "Ġrese": 7278,
      "àªµàªŁàªķàª°": 7279,
      "àªľàª¯àª¥": 7280,
      "ĠMo": 7281,
      "ĠMar": 7282,
      "Ġgu": 7283,
      "Ġ900": 7284,
      "ĠHis": 7285,
      "ĠHIV": 7286,
      "Ġ160": 7287,
      "Ġ1700": 7288,
      "Ġ1776": 7289,
      "Ġalthough": 7290,
      "ĠNorth": 7291,
      "Ġstruct": 7292,
      "ĠKa": 7293,
      "ĠKan": 7294,
      "ĠKir": 7295,
      "Ġàªıàªļàªª": 7296,
      "ument": 7297,
      "umage": 7298,
      "Ġàªįàª«": 7299,
      "rial": 7300,
      "ĠàªĨàªłàª®àª¨": 7301,
      "àªµàª³àªĹ": 7302,
      "ĠàªĨàª¯àª°àª²": 7303,
      "aining": 7304,
      "à¦¬": 7305,
      "àªıàªļàªª": 7306,
      "Ġdev": 7307,
      "anti": 7308,
      "àª°àª°àªļàª¨": 7309,
      "àª§àª£àªķàª³": 7310,
      "ours": 7311,
      "Ġà«§à«¯à«¦à«¨": 7312,
      "ization": 7313,
      "Ġà«§à«§à«®": 7314,
      "Ġàªªàªµàª¨àªļàªķ": 7315,
      "Ġcentre": 7316,
      "Ġ1889": 7317,
      "Ġconsum": 7318,
      "ternal": 7319,
      "ĠÎĶ": 7320,
      "Ġdesign": 7321,
      "Ġacres": 7322,
      "Ġindividual": 7323,
      "Ġregard": 7324,
      "Ġident": 7325,
      "Ġaddition": 7326,
      "Ġsingers": 7327,
      "Ġtype": 7328,
      "Ġbuild": 7329,
      "Ġàª¤àªľàªľ": 7330,
      "ograph": 7331,
      "Ġdiseases": 7332,
      "elves": 7333,
      "ength": 7334,
      "ĠSiddis": 7335,
      "150": 7336,
      "Ds": 7337,
      "Del": 7338,
      "FO": 7339,
      "Mus": 7340,
      "Sp": 7341,
      "bol": 7342,
      "cont": 7343,
      "ham": 7344,
      "ias": 7345,
      "ius": 7346,
      "line": 7347,
      "mm": 7348,
      "of": 7349,
      "round": 7350,
      "uck": 7351,
      "va": 7352,
      "Éª": 7353,
      "ĠÃ": 7354,
      "ĠĊĊĊĊĊĊĊĊĊ": 7355,
      "àª°àªĺ": 7356,
      "àª°àª¬àª°": 7357,
      "àª®àª¯àª¨": 7358,
      "àª®àª°àªķ": 7359,
      "àª¤àª³àª¨": 7360,
      "àª¯àª²àª®": 7361,
      "àª²àªµàª°": 7362,
      "àª²àªĿàª°": 7363,
      "Ġàª¸àª¦àª¨": 7364,
      "ĠàªĨàªŁ": 7365,
      "Ġàª¤àª¯": 7366,
      "Ġàª¤àªķàªµ": 7367,
      "Ġàª®àª¶àª°": 7368,
      "Ġàªľàª®àª¨": 7369,
      "Ġàªľàª²àª¸": 7370,
      "ĠàªľàªĪàªı": 7371,
      "Ġàªľàª¬àª²àªª": 7372,
      "àªľàª¯àªª": 7373,
      "àªªàªķàªµ": 7374,
      "àª£àªĺ": 7375,
      "àª¥àª²àªª": 7376,
      "à«ĩ.âĢĻ": 7377,
      "àª¡àªªàª®": 7378,
      "àª¡àªħàª¸": 7379,
      "ĠàªĹàªĹàª¨": 7380,
      "Ġàª°àª¯": 7381,
      "Ġàª¬àª¢": 7382,
      "Ġàªıàª®àªľ": 7383,
      "ĠàªŃàª®àª°": 7384,
      "ĠàªŃàª°àª¡": 7385,
      "Ġàª¶àªķàª¨": 7386,
      "Ġàª¶àª¤àªķ": 7387,
      "Ġàªĸàª²àª¨": 7388,
      "Ġàªĸàª°àªµ": 7389,
      "àªĵàªĿ": 7390,
      "àªĵàªķàª²": 7391,
      "àªĩàª¹": 7392,
      "àªĩàªĵàª¨": 7393,
      "àªĩàª®àª°": 7394,
      "Ġàªªàª°àªµàª¡": 7395,
      "Ġàªļàª¶": 7396,
      "àª¯àª¤àª³": 7397,
      "àª°àª¨àª¨": 7398,
      "àª°àª£àªľ": 7399,
      "Ġàª§àª¬": 7400,
      "Ġàª¯àª¤": 7401,
      "àªĿàª¸": 7402,
      "àªĿàª¥": 7403,
      "àª¤àª°àªĹ": 7404,
      "àªĨàª£": 7405,
      "àªīàªĹ": 7406,
      "àªµàª°àª²": 7407,
      "à«¦à«©": 7408,
      "Ġàªµàª§àªĺàªŁ": 7409,
      "ĠàªĨàªªàªĺ": 7410,
      "àª°àªµàª¡": 7411,
      "àªķàª°àª¦": 7412,
      "Ġair": 7413,
      "àªªàª°àª¥": 7414,
      "àª¦àª°àªľ": 7415,
      "àª°àª¸àª¤": 7416,
      "àª¸àª°àªª": 7417,
      "ery": 7418,
      "àª¸àª®àªķ": 7419,
      "àªļàª¨àª¸": 7420,
      "Ġsq": 7421,
      "Ġsoul": 7422,
      "àª¯àª°àª«": 7423,
      "àª®àªķàªµ": 7424,
      "àª°àª¤àª¨àªª": 7425,
      "Ġfem": 7426,
      "Ġfood": 7427,
      "Ġfather": 7428,
      "Ġbat": 7429,
      "Ġàªµàª¡àªªàª£": 7430,
      "Ġpub": 7431,
      "icro": 7432,
      "à«®à«©": 7433,
      "à«®à«§": 7434,
      "Ġdial": 7435,
      "Ġà«¬à«ªà«¦": 7436,
      "ĠàªĨàª¶àª¯àª¥": 7437,
      "Ġhouse": 7438,
      "àª°àª¥àª®àª¨": 7439,
      "ĠIR": 7440,
      "ĠAT": 7441,
      "àªµàª¡àª²": 7442,
      "à¤¾à¥¤": 7443,
      "ĠBach": 7444,
      "àªıàª¨àªŁ": 7445,
      "imal": 7446,
      "Ġàªħàªķàª¬": 7447,
      "adu": 7448,
      "vert": 7449,
      "ĠPat": 7450,
      "Ġàª¬àªļàªªàª¨": 7451,
      "ute": 7452,
      "utt": 7453,
      "Ġ101": 7454,
      "Ġgre": 7455,
      "Ġàª¦àª²àªªàª¤": 7456,
      "Ġ1600": 7457,
      "ĠKhan": 7458,
      "Ġàªıàªļàªıàªı": 7459,
      "àª£àªªàª£àª¨": 7460,
      "Ġ125": 7461,
      "Ġvol": 7462,
      "aki": 7463,
      "Ġseason": 7464,
      "Ġhaving": 7465,
      "ĠUK": 7466,
      "Ġproject": 7467,
      "abh": 7468,
      "Ġcomb": 7469,
      "Ġcome": 7470,
      "ĠOne": 7471,
      "Ġdeep": 7472,
      "ption": 7473,
      "osaurians": 7474,
      "Ġ1934": 7475,
      "à«§à«®à««à«Ń": 7476,
      "Ġà«¯à«®": 7477,
      "ĠàªľàªĪàª¶": 7478,
      "text": 7479,
      "Ġplumage": 7480,
      "oken": 7481,
      "Ġleast": 7482,
      "Ġà«§à«®à««à«®": 7483,
      "coming": 7484,
      "ollo": 7485,
      "Ġà«§à«®à«Ńà««": 7486,
      "Ġà«§à«®à«Ńà«®": 7487,
      "Ġclose": 7488,
      "ĠàªĨàªīàªŁàª¡": 7489,
      "Ġà«©à«¬à«¦": 7490,
      "Ġinfe": 7491,
      "ĠPradesh": 7492,
      "Ġherb": 7493,
      "Ġàªľàª¨àª°àª²àª¨": 7494,
      "ools": 7495,
      "Ġbirth": 7496,
      "ĠàªĹàªłàª¬": 7497,
      "Ġcontinued": 7498,
      "Ġsingle": 7499,
      "Ġestim": 7500,
      "Ġreality": 7501,
      "Ġassoc": 7502,
      "Ġorganisms": 7503,
      "ĠâĤ¹": 7504,
      "Ġbrother": 7505,
      "Ġdisease": 7506,
      "Ġeduc": 7507,
      "This": 7508,
      "Ġwidely": 7509,
      "Ġà¤ıà¤µ": 7510,
      "ĠGroup": 7511,
      "Ġàª®àª«àª¤àª®": 7512,
      "vironment": 7513,
      "%.": 7514,
      "380": 7515,
      "AI": 7516,
      "Com": 7517,
      "It": 7518,
      "Lua": 7519,
      "aan": 7520,
      "border": 7521,
      "fer": 7522,
      "gg": 7523,
      "hol": 7524,
      "iar": 7525,
      "selves": 7526,
      "xx": 7527,
      "ze": 7528,
      "{\\": 7529,
      "Ã²": 7530,
      "Ġir": 7531,
      "àª°àª§àª¨": 7532,
      "àª¨àª³àª¦": 7533,
      "àª®àªķàª¨": 7534,
      "àª®àªķàª²": 7535,
      "àªµàªªàª²": 7536,
      "àª¯àªµàª¨": 7537,
      "àª¾àªĤâĢĻ,": 7538,
      "àª¸àª¹àª¸": 7539,
      "ĠàªĨàª²àª®": 7540,
      "ĠàªĽàª°": 7541,
      "Ġàªħàª³": 7542,
      "Ġàªħàª³àª¶": 7543,
      "àªŁàª§àª°": 7544,
      "àªľàªĸ": 7545,
      "ĠàªµàªĿ": 7546,
      "àª¥àªķàª¨": 7547,
      "àª¥àª°àªµ": 7548,
      "àª¦àªµàªª": 7549,
      "àª¶àªªàª°": 7550,
      "Ġàª¹àªŁàªµ": 7551,
      "àª¹àª®àª¨": 7552,
      "ĠàªĹàªı": 7553,
      "ĠàªĹàªĿàª¨": 7554,
      "ĠàªĹàªłàª¨": 7555,
      "àª§àª¯": 7556,
      "àª§àªľ": 7557,
      "Ġàª¬àª¦àª¨àªķ": 7558,
      "à«Ĥ!": 7559,
      "àªļàª¯àª¨": 7560,
      "ĠàªŃàª°àª®": 7561,
      "ĠàªŃàª³àª¤": 7562,
      "ĠàªŃàª¯àª¥": 7563,
      "Ġàªķàª°àª®àªļ": 7564,
      "Ġàªĸàª®àª£": 7565,
      "àªĵàª³àªĸ": 7566,
      "Ġàªīàªľàª³": 7567,
      "Ġàª§àª°àª®": 7568,
      "Ġàª§àª¨àª¨": 7569,
      "Ġàª§àª®àª§": 7570,
      "Ġàª¸àª®àª·": 7571,
      "Ġàª¯àª®àª¨": 7572,
      "àª°àªķàª¥": 7573,
      "àªĺàªŁàªķ": 7574,
      "Ġàªīàªªàª¡": 7575,
      "àªĨàª°àª¨": 7576,
      "àªµàª¨àªªàª°": 7577,
      "à¤³": 7578,
      "à¤Ľ": 7579,
      "Ġturn": 7580,
      "àª¯àªķàª²àª¨": 7581,
      "Ġàª¸àª°àª«": 7582,
      "ĠàªĪàª¥": 7583,
      "Ġoper": 7584,
      "erve": 7585,
      "Ġàªªàª¡àªĺ": 7586,
      "onn": 7587,
      "Ġàª¨àªµàª¦": 7588,
      "ĠàªĬàª£àªª": 7589,
      "ising": 7590,
      "àª°àª¹àªµ": 7591,
      "Ġàªħàª²àªµ": 7592,
      "anks": 7593,
      "Ġceremon": 7594,
      "ales": 7595,
      "Ġàª®àªĹàª§": 7596,
      "Ġàªħàª¸àªķ": 7597,
      "àª¨àªµàª®": 7598,
      "àª¤àªķàª³": 7599,
      "Ġàªķàª²àª°àª¨": 7600,
      "Ġinte": 7601,
      "Ġmag": 7602,
      "Ġmaking": 7603,
      "Ġàªıàª®àª°": 7604,
      "àª°àª¬àªľ": 7605,
      "àª¥àª³àª®": 7606,
      "ica": 7607,
      "à«¬à«Ń": 7608,
      "Ġà«§à«¦à«§": 7609,
      "Ġ--": 7610,
      "ĠĊĠĊ": 7611,
      "Ġà«§à«®à«§à«¯": 7612,
      "etre": 7613,
      "Ġàª¸àªĹàªµàª¡àª¤": 7614,
      "Ġ1840": 7615,
      "Ġà«®à«Ń": 7616,
      "ĠAfter": 7617,
      "ĠTri": 7618,
      "olars": 7619,
      "àª·àª®àª¯": 7620,
      "Ġliving": 7621,
      "àª°àªĸàª¨": 7622,
      "Ġnor": 7623,
      "Ġnominated": 7624,
      "Ġàªłàªķ": 7625,
      "Ġreven": 7626,
      "ĠCan": 7627,
      "ĠCup": 7628,
      "cean": 7629,
      "Ġàª¢àª¬àª¨": 7630,
      "oss": 7631,
      "ĠPe": 7632,
      "ĠPl": 7633,
      "àªµàªľàª¤": 7634,
      "Ġàª®àª¸àª²àª¤": 7635,
      "rac": 7636,
      "àªĪàª²àªŁ": 7637,
      "Ġ1680": 7638,
      "Ġà«§à«¨à««": 7639,
      "unj": 7640,
      "unction": 7641,
      "ember": 7642,
      "2011": 7643,
      "ĠFrom": 7644,
      "thing": 7645,
      "à¦°": 7646,
      "Ġsuper": 7647,
      "Ġseem": 7648,
      "Ġhapp": 7649,
      "Ġprof": 7650,
      "àªıàªļàªĵ": 7651,
      "ĠOther": 7652,
      "à¤µà¤°": 7653,
      "1997": 7654,
      "Ġshort": 7655,
      "àªĨàªĪàªµ": 7656,
      "Ġ1923": 7657,
      "à«§à«¦à«¦": 7658,
      "à°¾": 7659,
      "à«¨à«¦à«¦à«¯": 7660,
      "Ġ1886": 7661,
      "Ġworks": 7662,
      "àªħàªķàª¬àª°": 7663,
      "Ġ1865": 7664,
      "Ġmodule": 7665,
      "Ġamount": 7666,
      "Ġthemselves": 7667,
      "Ġstudents": 7668,
      "ĠFilmfare": 7669,
      "ĠàªĨàªĩàªıàª¨": 7670,
      "Ġdirectly": 7671,
      "àª¨àªµàª¸àª°": 7672,
      "àª¹àª¡àª®àª¤": 7673,
      "Ġcapensis": 7674,
      "Ġbuilt": 7675,
      "Ġancient": 7676,
      "Ġyoung": 7677,
      "Ġcauses": 7678,
      "Ġliter": 7679,
      "àª£àªµàªŁàªŃàª°": 7680,
      "ĠDevaki": 7681,
      "Ġcomplex": 7682,
      "Ġcommunity": 7683,
      "Ġproducers": 7684,
      "ĠAcademy": 7685,
      "Ġpolitical": 7686,
      "Ġstrong": 7687,
      "Module": 7688,
      "Ġàªīàª§àª®àª¸": 7689,
      "ĠLagaan": 7690,
      "Ġaverage": 7691,
      "?\"": 7692,
      "Cl": 7693,
      "Cor": 7694,
      "Football": 7695,
      "Or": 7696,
      "bl": 7697,
      "das": 7698,
      "hab": 7699,
      "hib": 7700,
      "ler": 7701,
      "nath": 7702,
      "point": 7703,
      "rt": 7704,
      "rat": 7705,
      "ring": 7706,
      "tra": 7707,
      "vious": 7708,
      "Î»": 7709,
      "ÙĨ": 7710,
      "ĠĊĊĊĊĊĊĊ": 7711,
      "Ġvers": 7712,
      "àª°àª¯àª¦": 7713,
      "àª°àªłàª¨": 7714,
      "à«įâĢĻ": 7715,
      "àª¨àªĪàª¨": 7716,
      "à«Ģ_": 7717,
      "à«ĭ)": 7718,
      "Ġàªªàªļàªµ": 7719,
      "Ġàª®àªª": 7720,
      "Ġàªľàª¸àª¤": 7721,
      "ĠàªĽàª²": 7722,
      "àªĹàª°àª£": 7723,
      "àªĹàª¤àª°": 7724,
      "àªŁàª¹": 7725,
      "àªŁàª³": 7726,
      "àªľàª¯àªµ": 7727,
      "àª¥àª°àª¥": 7728,
      "àª¦àª¯àª®": 7729,
      "Ġàª¬àªĿ": 7730,
      "àª³àªķàª®": 7731,
      "ĠàªŃàª£àª¤": 7732,
      "ĠàªŃàªµàª¨àª®": 7733,
      "àª¬àª¨àª®": 7734,
      "Ġàª²àª°": 7735,
      "àªŃàªķàª°": 7736,
      "àªŃàª£àªķ": 7737,
      "Ġàªıàªķàª®àª®": 7738,
      "àªĩàª¦": 7739,
      "àªĩàªķàª¨": 7740,
      "Ġàªļàª³àªķ": 7741,
      "àªıàª²àª°": 7742,
      "àªıàª¨àª°": 7743,
      "àª°àª£àª°": 7744,
      "à«Ģ./": 7745,
      "àªłàª°": 7746,
      "àªµàª°àªľ": 7747,
      "à«¦à«¬": 7748,
      "àªĵàª¨àª²": 7749,
      "Ġàª§àª°àªªàªķ": 7750,
      "Ġaward": 7751,
      "àª¯àªķàªķ": 7752,
      "àªŁàª°àª¬": 7753,
      "ĠâĢ¦": 7754,
      "àªħàªµàª¸": 7755,
      "ĠàªĪàªĿ": 7756,
      "Ġ1917": 7757,
      "Ġàª®àª§àª®": 7758,
      "ĠàªĿàª®": 7759,
      "ĠàªĬàªªàª¯": 7760,
      "isch": 7761,
      "Ġàªīàª¦àª¯àª¨": 7762,
      "Ġcle": 7763,
      "ali": 7764,
      "Ġwat": 7765,
      "Ġwest": 7766,
      "orial": 7767,
      "Ġinit": 7768,
      "Ġmen": 7769,
      "Ġàªķàª®àª¸": 7770,
      "àª¥àª³àª¥": 7771,
      "icy": 7772,
      "ille": 7773,
      "Ġàªħàªµàª¤àª°": 7774,
      "ingu": 7775,
      "Ġà«¬à«§": 7776,
      "àª²àªµàª¡": 7777,
      "àª°àª¯àªµ": 7778,
      "Ġhy": 7779,
      "Ġhow": 7780,
      "ĠIf": 7781,
      "Ġ1880": 7782,
      "àªŃàªµàª¨àª¨": 7783,
      "Ġemer": 7784,
      "Ġeconom": 7785,
      "ĠSoc": 7786,
      "âĢĿ.": 7787,
      "Ġlog": 7788,
      "Ġthir": 7789,
      "1947": 7790,
      "1973": 7791,
      "Ġàªĺàª°àªĨ": 7792,
      "ĠCl": 7793,
      "ĠBC": 7794,
      "Ġàª®àª¤àª¥": 7795,
      "ĠMP": 7796,
      "Ġàªīàª®àª°àª®": 7797,
      "ĠPart": 7798,
      "Ġàªĳàªªàª¨": 7799,
      "àªµàªľàª¦": 7800,
      "Ġget": 7801,
      "rain": 7802,
      "Ġàª¨àªµàª²àª°": 7803,
      "Ġàªµàª²àª¯àª¨": 7804,
      "una": 7805,
      "ung": 7806,
      "Ġkill": 7807,
      "ĠàªªàªĹàª¦": 7808,
      "Ġàª¬àª³àª¥": 7809,
      "à¦¤": 7810,
      "àªľàªĹàª¤àª¨": 7811,
      "à¤¯à¤ķ": 7812,
      "à¤¯à¤¶": 7813,
      "ateg": 7814,
      "Ġexper": 7815,
      "Ġexpect": 7816,
      "auropods": 7817,
      "àªıàªļàª¡": 7818,
      "ills": 7819,
      "Ġdeal": 7820,
      "ousand": 7821,
      "Ġà«¨à««à«¦à«¦": 7822,
      "Ġà«¯à«¯": 7823,
      "Ġ1924": 7824,
      "Ġ1907": 7825,
      "ĠChinese": 7826,
      "Ġ1853": 7827,
      "Ġabs": 7828,
      "Ġadm": 7829,
      "Ġà«§à«®à««à«©": 7830,
      "Ġspan": 7831,
      "Ġtelev": 7832,
      "Ġà«§à«®à«Ńà«¯": 7833,
      "Ġclaim": 7834,
      "Ġ1888": 7835,
      "Ġnever": 7836,
      "Ġrecent": 7837,
      "Ġforms": 7838,
      "Ġcollect": 7839,
      "Ġcompound": 7840,
      "Ġviol": 7841,
      "àªĸàªªàª¦àª¨": 7842,
      "à«§à«¯à«Ńà«¦": 7843,
      "Ġaccount": 7844,
      "àª¨àªĸàª°àª¨": 7845,
      "ĠàªŃàªĹàª¤àª¸": 7846,
      "Ġappeal": 7847,
      "ampions": 7848,
      "Ġnames": 7849,
      "Ġoccur": 7850,
      "Ġimpact": 7851,
      "Indian": 7852,
      "Ġscientific": 7853,
      "ĠGujar": 7854,
      "Ġrespons": 7855,
      "ĠApollo": 7856,
      "ĠJanuary": 7857,
      "Ġderived": 7858,
      "Ġpackage": 7859,
      "ÛĶÛĶ": 7860,
      "ĠàªıàªĨàªĩàªľ": 7861,
      "Ġhouses": 7862,
      "Ġfocus": 7863,
      "ĠKirti": 7864,
      "Ġàª§àª°àªªàªķàª¡àª¨": 7865,
      "\"\\": 7866,
      "AA": 7867,
      "AP": 7868,
      "Al": 7869,
      "BC": 7870,
      "NH": 7871,
      "On": 7872,
      "ms": 7873,
      "none": 7874,
      "ole": 7875,
      "pass": 7876,
      "ttp": 7877,
      "Ûģ": 7878,
      "Ġæ": 7879,
      "Ġè": 7880,
      "Ġurb": 7881,
      "àª¾âĢ¢": 7882,
      "à«ĩàªĤ,": 7883,
      "à«ĩâĢĻ,": 7884,
      "àª°àªłàª®": 7885,
      "àª®àªļàª¨": 7886,
      "àª®àªªàª¤": 7887,
      "àª¯àªĸ": 7888,
      "àª¯àªĽ": 7889,
      "àªķàªµàª¨": 7890,
      "àªķàªĨàªīàªŁ": 7891,
      "àª²àªĹàª¢": 7892,
      "Ġàªªàªŀ": 7893,
      "àª¸àªĹàª°": 7894,
      "Ġàª¤àªĨàª²": 7895,
      "Ġàªħàªķàª²": 7896,
      "àªľàª³àª¨": 7897,
      "àªªàª¤àª°": 7898,
      "àª£àª¶": 7899,
      "àª£àª®àª¨": 7900,
      "àª¦àª¶àª¨": 7901,
      "àª¹àª³àªµ": 7902,
      "Ġàª°àª®àª¨": 7903,
      "Ġàª¦àªŁ": 7904,
      "Ġàª¬àª°àª£": 7905,
      "Ġàª¬àª²àªķ": 7906,
      "àªļàª¯àª®": 7907,
      "àª·àªķàª¤": 7908,
      "àªĵàª¯": 7909,
      "àª®àª¨àª®": 7910,
      "Ġàªıàªķàª¹àª¥": 7911,
      "Ġàªļàª¬": 7912,
      "àªĪàªķàª¨": 7913,
      "àªıàªŁàª¨": 7914,
      "àªıàªıàª¸": 7915,
      "àªıàª¨àª¸": 7916,
      "Ġàª¯àªµàª¤àª®": 7917,
      "Ġàªīàªªàª°àªķ": 7918,
      "àªłàª¡": 7919,
      "à«ĭ.âĢĿ": 7920,
      "àªĨàªªàª¨": 7921,
      "àªīàªı": 7922,
      "àª¾...": 7923,
      "à«¦à«ª": 7924,
      "Ġàª°àª¹àª¤": 7925,
      "Ġàªĩàª¡": 7926,
      "ĠàªĩàªŁàª²": 7927,
      "Ġàªĩàª¥àª°àª¨": 7928,
      "àªµàª¨àª§": 7929,
      "àª°àªµàª¦àª¨": 7930,
      "à¤ŀ": 7931,
      "àªķàª°àª¸": 7932,
      "àªķàª°àªª": 7933,
      "Ġ220": 7934,
      "Ġ\"...": 7935,
      "rec": 7936,
      "renc": 7937,
      "ĠàªĪàª¥àª°": 7938,
      "àª«àª³àª¨": 7939,
      "atives": 7940,
      "ises": 7941,
      "àª°àª¹àª¥": 7942,
      "Ġàªĩàª¨àª²": 7943,
      "Ġcirc": 7944,
      "Ġàª¸àª¹àªµ": 7945,
      "aring": 7946,
      "ites": 7947,
      "itud": 7948,
      "Ġfish": 7949,
      "Ġmoney": 7950,
      "à«ħàªĤ": 7951,
      "Ġport": 7952,
      "Ġpract": 7953,
      "àªŁàªķàªķ": 7954,
      "àª¸àªķàª¥": 7955,
      "à«®à«Ń": 7956,
      "Ġàªħàªµàª®": 7957,
      "asc": 7958,
      "Ġdim": 7959,
      "ĠàªħàªªàªĹ": 7960,
      "à«¬à«¯": 7961,
      "oman": 7962,
      "àªĨàª°àªıàª¨": 7963,
      "àªĨàª°àªıàª¸àª¸": 7964,
      "àª°àª¯àª¸": 7965,
      "Ġàª°àªľàª¤": 7966,
      "àªĹàª¢àª¥": 7967,
      "Ġhttp": 7968,
      "Ġàªıàª¸àª¡àª¬àª²": 7969,
      "entilis": 7970,
      "ĠàªĺàªŁàª¸": 7971,
      "Ġà«ªà««à«¦": 7972,
      "ols": 7973,
      "Ġeas": 7974,
      "ĠSS": 7975,
      "Ġà«Ńà«¯": 7976,
      "Ġ2030": 7977,
      "Ġlin": 7978,
      "Ġlif": 7979,
      "Ġless": 7980,
      "Ġlove": 7981,
      "Ġlower": 7982,
      "Ġthousand": 7983,
      "àªıàª®àªĵ": 7984,
      "Ġàª²àª¡àª¯": 7985,
      "rote": 7986,
      "ĠàªĿàª¡àªªàªŃ": 7987,
      "ĠBo": 7988,
      "ĠBar": 7989,
      "images": 7990,
      "cember": 7991,
      "ĠMal": 7992,
      "osed": 7993,
      "Ġàª¹àª¸àª¤": 7994,
      "Ġ107": 7995,
      "Ġgentilis": 7996,
      "ĠàªĲàªķ": 7997,
      "ĠHer": 7998,
      "Ġàªªàª²àª¯àª®": 7999,
      "Ġàª¤àªªàª¶": 8000,
      "ĠNow": 8001,
      "Ġstret": 8002,
      "ĠàªīàªŃàª°àª¤": 8003,
      "à¤¿à¤Ĥ": 8004,
      "ĠFe": 8005,
      "ĠFl": 8006,
      "ĠFestival": 8007,
      "Ġàª¬àª³àª¦àª¨": 8008,
      "aka": 8009,
      "Ġsepar": 8010,
      "Ġexcept": 8011,
      "ivil": 8012,
      "ĠWith": 8013,
      "ĠWikipedia": 8014,
      "Ġdeg": 8015,
      "à¤ķà¤°": 8016,
      "ptember": 8017,
      "Ġ1931": 8018,
      "aving": 8019,
      "Ġàª¨àªľàª°àª®": 8020,
      "ĠChrist": 8021,
      "Ġ1856": 8022,
      "à«¨à«¦à«¦à«®": 8023,
      "Ġscript": 8024,
      "ruction": 8025,
      "Ġfeature": 8026,
      "Ġ1882": 8027,
      "Ġformed": 8028,
      "Ġà«©à«¬à««": 8029,
      "ĠXbox": 8030,
      "Ġproduce": 8031,
      "Ġdistin": 8032,
      "Ġrefere": 8033,
      "Ġprim": 8034,
      "Ġà«§à«®à«¬à«¦": 8035,
      "Ġupon": 8036,
      "Ġbelong": 8037,
      "Ġàªıàª°àª¬àª¸àª¨": 8038,
      "àªĶàªªàªļ": 8039,
      "Ġsubst": 8040,
      "Ġgeneral": 8041,
      "pora": 8042,
      "Ġreleased": 8043,
      "àª¨àªµàª²àªķàª¥": 8044,
      "ĠAddress": 8045,
      "Ġmeters": 8046,
      "Ġfeatures": 8047,
      "Ġfeatured": 8048,
      "India": 8049,
      "Ġbusiness": 8050,
      "eva": 8051,
      "Ġàªıàª¨àªıàªļàªıàª¸": 8052,
      "ĠSchool": 8053,
      "imately": 8054,
      "inning": 8055,
      "Ġentirely": 8056,
      "Ġpotential": 8057,
      "Ġàªīàª£àªªàª¨": 8058,
      "Ġindependence": 8059,
      "Ġarticle": 8060,
      "ĠAustralia": 8061,
      "Ġmedicine": 8062,
      "iciency": 8063,
      "ĠKapoor": 8064,
      "ography": 8065,
      "Coriander": 8066,
      "Ġtelevision": 8067,
      "\"\\\"\"": 8068,
      "Ġurban": 8069,
      "All": 8070,
      "PN": 8071,
      "bo": 8072,
      "bre": 8073,
      "band": 8074,
      "fact": 8075,
      "gra": 8076,
      "mp": 8077,
      "most": 8078,
      "nam": 8079,
      "ria": 8080,
      "tical": 8081,
      "Îµ": 8082,
      "âĨĴ": 8083,
      "Ġá": 8084,
      "Ġeth": 8085,
      "Ġ_{": 8086,
      "àª°àª¶àª¨": 8087,
      "àª®àª¸àª°": 8088,
      "àª¤àªĸ": 8089,
      "àª¯àª¶àªķ": 8090,
      "àª¯àªĹàª¡": 8091,
      "àªķàª¸àª®": 8092,
      "ĠàªªàªŁàª®": 8093,
      "ĠàªķàªŁàª°": 8094,
      "Ġàªķàª£àª¨": 8095,
      "àª¸àª£àª®": 8096,
      "àª¸àª¤àª¤": 8097,
      "ĠàªĨàªĪàªı": 8098,
      "Ġàª®àª°àª¤": 8099,
      "Ġàª®àªµàª²": 8100,
      "Ġàªľàª¡àª¬": 8101,
      "Ġàªħàªľàª¯": 8102,
      "Ġàªħàª³àªĹ": 8103,
      "àªľàªŁ": 8104,
      "àªľàª¸àª®": 8105,
      "àªªàª¸àª°": 8106,
      "àªªàªĹàª¢": 8107,
      "àª¥àª£": 8108,
      "àª¥àª°àª«": 8109,
      "àª¦àªĸ": 8110,
      "àª¦àªªàª°": 8111,
      "àª¡àªªàª¤": 8112,
      "àª¡àªĿàª®": 8113,
      "àª¹àªŃ": 8114,
      "àª¹àª°àª¦": 8115,
      "àª¹àª¸àª®": 8116,
      "àª¹àª®àª¦": 8117,
      "ĠàªĹàª°àª¦": 8118,
      "àª§àªķàª¤": 8119,
      "Ġàª°àª¨àªµ": 8120,
      "Ġàª°àª¨àª°": 8121,
      "Ġàª°àª¤àª²": 8122,
      "Ġàª¨àªı": 8123,
      "Ġàª¨àª°àª¹àª°": 8124,
      "Ġàª¬àª¯": 8125,
      "Ġàª¬àª¦àª°": 8126,
      "àªļàª°àª¬": 8127,
      "ĠàªıàªĪàª¡": 8128,
      "ĠàªŃàª¡": 8129,
      "Ġàªķàª°àª¸àª¨": 8130,
      "Ġàª¶àª¶": 8131,
      "àª¬àªı": 8132,
      "àª¬àª¸àª¨": 8133,
      "Ġàªĸàª®": 8134,
      "Ġàª¥àª®": 8135,
      "Ġàª¥àª¡àª¨": 8136,
      "Ġàªīàª¥àª²àªª": 8137,
      "Ġàªıàªķàª§": 8138,
      "Ġàªıàªķàª¶àª¨": 8139,
      "Ġàª¡àªķ": 8140,
      "àªĪàªªàª°": 8141,
      "àªıàªķàª®": 8142,
      "àª°àª®àª£àª®": 8143,
      "àª°àª®àªķàª¤": 8144,
      "Ġàª«àª£àªĹ": 8145,
      "àª°àª£àª¸": 8146,
      "Ġàª§àªľ": 8147,
      "Ġàª¸àª®àªĿ": 8148,
      "Ġàª¸àª®àªľàª¨": 8149,
      "Ġàª¸àª®àªĺàª¨": 8150,
      "Ġàª¸àª®àªĺàª¨àª¨": 8151,
      "àªĹàª®àª¤àª¨": 8152,
      "àª°àªķàª°àª£àª¨": 8153,
      "Ġàªĵàª¶": 8154,
      "Ġàªĵàª²àªµ": 8155,
      "Ġàªīàªªàª¸àª°": 8156,
      "àª¤àª°àª¦": 8157,
      "àª¨àª¨àªļ": 8158,
      "à«¦à««": 8159,
      "ĠàªĨàªªàª®": 8160,
      "Ġtable": 8161,
      "àªªàª°àª«": 8162,
      "hest": 8163,
      "àª¯àªķàª³": 8164,
      "àªŁàª°àª°": 8165,
      "àªªàª¨àªĹàª°": 8166,
      "rest": 8167,
      "Ġ1913": 8168,
      "erved": 8169,
      "Ġàª¨àªµàª¯": 8170,
      "ĠàªĬàª¦": 8171,
      "ened": 8172,
      "Ġcat": 8173,
      "itive": 8174,
      "à¥¦": 8175,
      "Ġàªµàªļàª®": 8176,
      "Ġàªķàª²àªĹ": 8177,
      "Ġbi": 8178,
      "Ġbig": 8179,
      "Ġmission": 8180,
      "àª®àª°àª²": 8181,
      "Ġà¤¥": 8182,
      "Ġà¤§": 8183,
      "Ġà¤«": 8184,
      "àª£àª®àª¶": 8185,
      "icon": 8186,
      "ounc": 8187,
      "iled": 8188,
      "àªķàª°àª£àª¥": 8189,
      "Ġà«¬à«¦à«¦à«¦": 8190,
      "àªĸàª°àªĸ": 8191,
      "Ġtoo": 8192,
      "àª°àª¶àªķ": 8193,
      "àª²àª¸àª¤": 8194,
      "ĠId": 8195,
      "àª¯àªªàªµàª¨": 8196,
      "Ġà«§à«®à«¯à«¦": 8197,
      "etimes": 8198,
      "àª¬àª¨àªĹàª°": 8199,
      "ĠAct": 8200,
      "ĠArab": 8201,
      "ĠTV": 8202,
      "ĠàªĨàª¯àª°àª¨": 8203,
      "Ġeat": 8204,
      "ĠSat": 8205,
      "ĠSince": 8206,
      "Ġlab": 8207,
      "Ġlines": 8208,
      "Ġlink": 8209,
      "Ġ6000": 8210,
      "1989": 8211,
      "Ġà«¯à«¦à«¦": 8212,
      "àª¬àª¤àªĸ": 8213,
      "àªµàªŁàª¦": 8214,
      "roc": 8215,
      "cell": 8216,
      "Ġàªīàª®àª°àª¨": 8217,
      "Ġàªľàª¯àª¶": 8218,
      "ĠPur": 8219,
      "ĠPunj": 8220,
      "odont": 8221,
      "Ġàªıàª°àªŁ": 8222,
      "àª®àª¥àªķàª¨": 8223,
      "chie": 8224,
      "Ġ103": 8225,
      "rah": 8226,
      "ulf": 8227,
      "àª¨àªĹàª°àª¥": 8228,
      "ĠNovember": 8229,
      "Ġstop": 8230,
      "Ġ|-": 8231,
      "Ġàªķàªłàªª": 8232,
      "ĠKh": 8233,
      "ĠKar": 8234,
      "ĠàªĲàª¤àª¹": 8235,
      "ĠDr": 8236,
      "ĠDutt": 8237,
      "Ġàª«àª³àª¸": 8238,
      "Ġconc": 8239,
      "thumb": 8240,
      "iant": 8241,
      "Ġvision": 8242,
      "àªıàª«àª¡": 8243,
      "à¦²": 8244,
      "Ġsection": 8245,
      "ially": 8246,
      "antic": 8247,
      "ogle": 8248,
      "à¤¸à¤ķ": 8249,
      "Ġ230": 8250,
      "ources": 8251,
      "Ġà«¯à«§": 8252,
      "tee": 8253,
      "Ġà¤¸à¤®": 8254,
      "Ġ1904": 8255,
      "Ġ==": 8256,
      "Ġà«§à«§à«¨": 8257,
      "à°°": 8258,
      "à¤ªà¤¨": 8259,
      "à«¨à«¦à«¦à«¬": 8260,
      "Ġàªħàª¸àª®àª¤": 8261,
      "Ġà«§à«®à«Ńà«¦": 8262,
      "àª²àª¦àª¹": 8263,
      "Ġnext": 8264,
      "ĠXX": 8265,
      "ĠDecember": 8266,
      "cliff": 8267,
      "Ġlocation": 8268,
      "Ġà¦¹": 8269,
      "à¤ľà¤¨": 8270,
      "lua": 8271,
      "Ġenough": 8272,
      "Ġà«§à«®à«¦à«©": 8273,
      "ĠàªĵàªĹàª£àª¤": 8274,
      "à±į": 8275,
      "Ġàª¹àª¡àª®àª¤": 8276,
      "Ġàª²àªŁàªķàª¤": 8277,
      "Ġspecim": 8278,
      "Ġsexually": 8279,
      "á¹ĩ": 8280,
      "Ġà¤ĩà¤¤": 8281,
      "Ġfollowing": 8282,
      "Ġbrought": 8283,
      "Ġdeveloped": 8284,
      "Ġseries": 8285,
      "Ġà«§à«Ńà«®à«§": 8286,
      "Ġskele": 8287,
      "Ġcaused": 8288,
      "Ġexpressways": 8289,
      "Ġscholars": 8290,
      "Ġroads": 8291,
      "Ġfossils": 8292,
      "Ġallowed": 8293,
      "augh": 8294,
      "ĠExpress": 8295,
      "hadra": 8296,
      "Ġactresses": 8297,
      "ĠForeign": 8298,
      "Ġcelebr": 8299,
      "icotine": 8300,
      "Ġtheropods": 8301,
      "Ġàª§àª®àª§àª®àª¤": 8302,
      "ĠPunjab": 8303,
      "cliffe": 8304,
      "Best": 8305,
      "CM": 8306,
      "FF": 8307,
      "Is": 8308,
      "Main": 8309,
      "ape": 8310,
      "based": 8311,
      "foot": 8312,
      "hind": 8313,
      "ios": 8314,
      "kar": 8315,
      "krit": 8316,
      "light": 8317,
      "uly": 8318,
      "vÄģda": 8319,
      "ystem": 8320,
      "ÉĻ": 8321,
      "ÏĮ": 8322,
      "ÛĮ": 8323,
      "ĠĠĊ": 8324,
      "ĠØ§": 8325,
      "àª¾à«į": 8326,
      "à«ĩà«ĩ": 8327,
      "à«ĩ',": 8328,
      "àª°àª¢àª¤": 8329,
      "àª¨àª¸àª®": 8330,
      "àª¨àªķàª®": 8331,
      "àª®àª¬àª¦": 8332,
      "àª¤àª¹": 8333,
      "àª¤àªı": 8334,
      "àªµàªĹàª¤": 8335,
      "Ġàªªàª¨àªµ": 8336,
      "Ġàªªàªĸàªµ": 8337,
      "àª¸àª£àª¨": 8338,
      "Ġàª¤àªĸàª²": 8339,
      "Ġàª®àªļàªķ": 8340,
      "ĠàªĽàª¤àª¨": 8341,
      "Ġàªħàª°àªķ": 8342,
      "Ġàªħàªĸàª°": 8343,
      "àªľàª«": 8344,
      "àªľàªĹàª¤": 8345,
      "àª£àª¨àª®": 8346,
      "àª¥àªĺàªŁàª¨àª¨": 8347,
      "àª¦àª°àª£": 8348,
      "àª¦àªķàª®": 8349,
      "àª¡àªĿàª¨": 8350,
      "àª¹àªı": 8351,
      "Ġàª°àªĹàª¡": 8352,
      "àª³àªļ": 8353,
      "Ġàªıàª¡àª²": 8354,
      "Ġàªıàªıàª«": 8355,
      "Ġàªıàª¬àª°àª¡": 8356,
      "ĠàªŃàª®àª¤": 8357,
      "ĠàªŃàªµàª¨àª¨": 8358,
      "àªĸàªªàª°": 8359,
      "Ġàª²àª¹àª¦": 8360,
      "ĠàªīàªŁ": 8361,
      "Ġàªīàª¦àª°": 8362,
      "Ġàªªàª°àª²àªķ": 8363,
      "àªĪàªŁàª°": 8364,
      "àªıàªķàª²": 8365,
      "àªıàª¨àª®": 8366,
      "àªıàª«àª¨": 8367,
      "àª°àª®àªľàª¨àªķ": 8368,
      "Ġàª«àª¯": 8369,
      "àª°àª£àªĽ": 8370,
      "àª°àªķàª°àª¨": 8371,
      "Ġàªĵàªĩàª²àª¨": 8372,
      "àª§àª¨àª¥": 8373,
      "àª¤àª®àª¤": 8374,
      "àªłàª¶": 8375,
      "àªĨàª°àª¡": 8376,
      "àªĨàªĪàªŁ": 8377,
      "Ġ1200": 8378,
      "àªīàªªàªĹ": 8379,
      "àªµàª°àª¦": 8380,
      "Ġàªĩàªıàªª": 8381,
      "à¤Ŀ": 8382,
      "Ġten": 8383,
      "àªķàª°àª°": 8384,
      "Ġaut": 8385,
      "Ġauth": 8386,
      "àªªàª°àª¹": 8387,
      "ini": 8388,
      "àª°àª¸àª¥": 8389,
      "Ġàª¦àª°àª¥": 8390,
      "àª¢àª°àªª": 8391,
      "àªħàªĽ": 8392,
      "ĠàªĪàª¡àª²": 8393,
      "àª¸àª°àªĹ": 8394,
      "Ġtheory": 8395,
      "àª¬àª°àª®àª¨": 8396,
      "àªĩàª¨àª«": 8397,
      "erous": 8398,
      "ĠàªĿàªŃ": 8399,
      "Ġàª¨àªµàªĹ": 8400,
      "Ġself": 8401,
      "ĠàªĬàªľ": 8402,
      "Ġàªīàª¦àªµ": 8403,
      "Ġàªīàª¦àªķ": 8404,
      "àª®àªķàª®": 8405,
      "Ġcases": 8406,
      "alc": 8407,
      "alf": 8408,
      "arp": 8409,
      "ita": 8410,
      "Ġfoot": 8411,
      "ority": 8412,
      "Ġàªķàª²àªļ": 8413,
      "Ġbar": 8414,
      "Ġpan": 8415,
      "Ġpale": 8416,
      "àªıàª¸àªĩ": 8417,
      "icated": 8418,
      "àªķàª®àª³": 8419,
      "à«®à«¯": 8420,
      "Ġàªħàªµàª§àª®": 8421,
      "àª®àª²àª¤àª¦": 8422,
      "Ġà«§à«¦à«ª": 8423,
      "Ġtowards": 8424,
      "Ġhot": 8425,
      "àª¯àª²àªŁ": 8426,
      "àª°àªľàªª": 8427,
      "Ġà«§à«®à«¨": 8428,
      "Ġà«§à«®à«§à«®": 8429,
      "ĠAb": 8430,
      "Ġelect": 8431,
      "ĠSan": 8432,
      "Ġlaw": 8433,
      "àªµàª¡àª°àª¨": 8434,
      "àªļàª®àªļ": 8435,
      "1976": 8436,
      "Ġàªĺàª°àªĹàª¥": 8437,
      "ĠBank": 8438,
      "cend": 8439,
      "àªľàª¯àªĹ": 8440,
      "àª°àª®àª£àªĸ": 8441,
      "otes": 8442,
      "Ġàª¢àª³àª¤": 8443,
      "oses": 8444,
      "ĠPri": 8445,
      "cha": 8446,
      "Ġàª¸àª®àªľàª¤": 8447,
      "Ġ1699": 8448,
      "Ġ1684": 8449,
      "ĠGe": 8450,
      "Ġ1789": 8451,
      "ĠNI": 8452,
      "unt": 8453,
      "Ġanti": 8454,
      "Ġanaly": 8455,
      "ached": 8456,
      "Ġàªıàª¡àªľàª¸": 8457,
      "ĠDist": 8458,
      "ĠDel": 8459,
      "Ġàªıàªļàªıàªıàª²": 8460,
      "aged": 8461,
      "à¤Ĥ,": 8462,
      "htra": 8463,
      "ĠUr": 8464,
      "ĠWar": 8465,
      "ĠWhile": 8466,
      "Ġheld": 8467,
      "angl": 8468,
      "Ġnotes": 8469,
      "àªµàª¦àª³àª¨": 8470,
      "tebr": 8471,
      "Ġplot": 8472,
      "gram": 8473,
      "Ġleg": 8474,
      "ipiter": 8475,
      "Ġcontain": 8476,
      "Ġ1926": 8477,
      "iber": 8478,
      "Ġimm": 8479,
      "Ġàªµàª£àªķàª°": 8480,
      "Ġ1854": 8481,
      "à°¿": 8482,
      "Ġable": 8483,
      "Ġdisplay": 8484,
      "Ġà«§à«®à««à«¬": 8485,
      "Ġàªĵàªµàª°àª¸": 8486,
      "Ġteam": 8487,
      "Ġteach": 8488,
      "issance": 8489,
      "à¨¾": 8490,
      "Ġrole": 8491,
      "Ġcommit": 8492,
      "ancer": 8493,
      "486": 8494,
      "Ġàª¹àª²àªļàª²": 8495,
      "Ġdistingu": 8496,
      "Ġ1867": 8497,
      "Ġà«§à«®à«¬à«¯": 8498,
      "à«ĭâĢĿ,": 8499,
      "Ġàª·àª·": 8500,
      "ĠAnother": 8501,
      "Ġenvironment": 8502,
      "à«§à«¯à«¯à«¯": 8503,
      "Ġemb": 8504,
      "Ġmainly": 8505,
      "ĠSeptember": 8506,
      "Ġamongst": 8507,
      "Ġinstitut": 8508,
      "Ġsett": 8509,
      "Ġsuccessful": 8510,
      "Ġinfluenced": 8511,
      "Ġimpro": 8512,
      "aptor": 8513,
      "Ġcritic": 8514,
      "Ġissues": 8515,
      "osphere": 8516,
      "Ġdepart": 8517,
      "ĠSiddi": 8518,
      "Ġelse": 8519,
      "ĠShiva": 8520,
      "Ġàªµàªķàª¤àªµ": 8521,
      "ottom": 8522,
      "Ġquestion": 8523,
      "ÏĢÏĦ": 8524,
      "Ġresearch": 8525,
      "ĠBachchan": 8526,
      "ĠàªıàªļàªıàªıàªĨàª°àªŁ": 8527,
      "Ġassociated": 8528,
      "ĠàªĨàªĩàªıàª¨àªıàª¸": 8529,
      "Ġlinks": 8530,
      "Ġstretch": 8531,
      "!!": 8532,
      "''": 8533,
      "Aàª¨": 8534,
      "By": 8535,
      "Càª¨": 8536,
      "DD": 8537,
      "OS": 8538,
      "St": 8539,
      "aa": 8540,
      "lo": 8541,
      "nu": 8542,
      "nal": 8543,
      "self": 8544,
      "uct": 8545,
      "writ": 8546,
      "}=": 8547,
      "Ã¡": 8548,
      "Îº": 8549,
      "Ïģ": 8550,
      "ÙĪ": 8551,
      "Ġrom": 8552,
      "Ġens": 8553,
      "àª¾àª¾": 8554,
      "àª°àªĨ": 8555,
      "àª°àªĸàªµ": 8556,
      "à«Ģ?": 8557,
      "à«ĭ!": 8558,
      "àª¯àªľàª¨": 8559,
      "àª¯àªļàªķ": 8560,
      "àª¯àª«àª²": 8561,
      "àªķàªµàª¤": 8562,
      "àªķàªŁàª°àª¨": 8563,
      "Ġàªªàªĸ": 8564,
      "Ġàª¸àªµàª²": 8565,
      "Ġàª¸àª¤àª¨": 8566,
      "Ġàªķàªľ": 8567,
      "àª¸àªĺ": 8568,
      "ĠàªĨàª°àª£": 8569,
      "Ġàª®àªĽ": 8570,
      "Ġàª®àªĹàª¤": 8571,
      "Ġàªľàª¦": 8572,
      "Ġàªľàªĩàªı": 8573,
      "ĠàªĽàª¨": 8574,
      "ĠàªħàªĹàª®": 8575,
      "Ġàªħàª¬àª°": 8576,
      "àªŁàª°àªķàª¨": 8577,
      "àª¦àª³àª®": 8578,
      "àª¶àªļ": 8579,
      "àª¶àªı": 8580,
      "à«ģàªĤ?": 8581,
      "Ġàª¹àªļàª®àªļ": 8582,
      "àª¹àªķàª¤": 8583,
      "Ġàªħàª¨àªª": 8584,
      "Ġàª¦àª®àª¨àª¨": 8585,
      "Ġàª¨àª°àªĹ": 8586,
      "Ġàª¬àªµ": 8587,
      "à«Ĥà«į": 8588,
      "àªļàª®àª¨": 8589,
      "Ġàªıàª¡àª¨": 8590,
      "Ġàªıàª¥àª¨": 8591,
      "ĠàªŃàª°àª¨": 8592,
      "ĠàªŃàªŃàª°": 8593,
      "Ġàª¶àª°àª¤àª¨": 8594,
      "Ġàª²àª¬": 8595,
      "Ġàªĸàª°àª¸": 8596,
      "Ġàªĸàª¡àª¤": 8597,
      "àªĵàªŁàª¨": 8598,
      "àªĵàªĹàª£": 8599,
      "Ġàª¥àª°àª¨": 8600,
      "àªĩàª«àª°àª¨": 8601,
      "Ġàªªàª°àª®àª¹": 8602,
      "àª«àªĹ": 8603,
      "àªĪàª¡àª®": 8604,
      "àªıàª®àªķ": 8605,
      "àªıàªªàª²": 8606,
      "àª°àª®àª¬": 8607,
      "Ġàªĺàªµ": 8608,
      "Ġàª¯àªµàª¨": 8609,
      "Ġàªĵàª£àª®": 8610,
      "àªĺàª£àª¨": 8611,
      "àªĺàª²àªķ": 8612,
      "àªłàª£": 8613,
      "àªłàª¬àª³": 8614,
      "àªīàª§àª°": 8615,
      "à«¦à«¯": 8616,
      "Ġtax": 8617,
      "Ġtonn": 8618,
      "Ġaware": 8619,
      "Ġachie": 8620,
      "àªŁàª°àª¶": 8621,
      "àªŁàª°àª¬àª°": 8622,
      "ining": 8623,
      "àª°àª¸àªª": 8624,
      "àªĹàª¨àª®": 8625,
      "Ġàª®àª³àª®": 8626,
      "Ġàªħàª®àª²àª¨": 8627,
      "àªľàªķàªª": 8628,
      "àªħàªĿ": 8629,
      "àªħàª®àª²": 8630,
      "rel": 8631,
      "rect": 8632,
      "àª¡àª¨àª¥": 8633,
      "àªļàª¨àª¥": 8634,
      "ĠàªĨàª°àªıàª¨": 8635,
      "Ġsale": 8636,
      "Ġsouth": 8637,
      "Ġsolar": 8638,
      "àª®àªľàª¯": 8639,
      "ĠàªĨàª¦àª°àª£": 8640,
      "Ġcover": 8641,
      "Ġcase": 8642,
      "arma": 8643,
      "Ġwant": 8644,
      "Ġàªĵàª«àª¸": 8645,
      "Ġinside": 8646,
      "Ġinternational": 8647,
      "Ġmiss": 8648,
      "Ġmiddle": 8649,
      "Ġàªµàª¡àª¦àª²": 8650,
      "Ġpri": 8651,
      "Ġpath": 8652,
      "Ġàªıàª®àªĨàªĩàªŁ": 8653,
      "à«®à«¨": 8654,
      "aspora": 8655,
      "àª²àª¬àª¤": 8656,
      "Ġdon": 8657,
      "Ġded": 8658,
      "Ġdest": 8659,
      "Ġdry": 8660,
      "Ġàªħàªªàª¸": 8661,
      "Ġà«§à«¦à«¨": 8662,
      "Ġàªıàª²àªª": 8663,
      "Ġàª¸àªŃàª°": 8664,
      "Ġà«§à«®à«ªà«¦": 8665,
      "Ġà««à«®": 8666,
      "Ġà««à««à«¦": 8667,
      "etw": 8668,
      "Ġ1871": 8669,
      "àªŃàªµàª¥": 8670,
      "ĠAD": 8671,
      "ĠAI": 8672,
      "ĠAL": 8673,
      "Ġàª¹àªľàª°àª¤": 8674,
      "ĠSw": 8675,
      "Ġlook": 8676,
      "Ġliqu": 8677,
      "àª°àªĸàªª": 8678,
      "Ġthing": 8679,
      "Ġthink": 8680,
      "Ġnation": 8681,
      "1948": 8682,
      "àª²àª¤àªª": 8683,
      "otion": 8684,
      "Ġbegan": 8685,
      "Ġbehav": 8686,
      "Ġàªľàª¯àªµàª°": 8687,
      "Ġàªĳàª¨": 8688,
      "irl": 8689,
      "rag": 8690,
      "ĠHar": 8691,
      "ĠHistory": 8692,
      "ĠGuru": 8693,
      "Ġ175": 8694,
      "Ġàª°àªļàª¤": 8695,
      "Ġstri": 8696,
      "Ġstates": 8697,
      "ĠRam": 8698,
      "àªıàª²àªıàª¸": 8699,
      "ĠDay": 8700,
      "ĠDinosaur": 8701,
      "ĠDirect": 8702,
      "Ġking": 8703,
      "Ġàªįàªª": 8704,
      "ague": 8705,
      "Ġàªķàª¬àª°àª®": 8706,
      "Ġ123": 8707,
      "anda": 8708,
      "udeva": 8709,
      "à¤¯à¤¤": 8710,
      "ately": 8711,
      "hta": 8712,
      "Ġprob": 8713,
      "ability": 8714,
      "ĠWAN": 8715,
      "quote": 8716,
      "ĠVas": 8717,
      "ĠàªŃàª°àª¤àªª": 8718,
      "àªĹàªªàªŁ": 8719,
      "Ġàª¤àª°àª¤àªľ": 8720,
      "Ġincor": 8721,
      "orts": 8722,
      "Ġàªħàªµàª°àªľàªµàª°": 8723,
      "ĠInst": 8724,
      "Ġàªµàªľàª¨àª®": 8725,
      "Ġà«§à«¯à«¦à«©": 8726,
      "Ġà«§à«¯à«¦à«ª": 8727,
      "àª¨àªĹàª¢àª¨": 8728,
      "Ġà«§à«®à«®à«¨": 8729,
      "izing": 8730,
      "ibr": 8731,
      "ibet": 8732,
      "Ġà«§à«§à««": 8733,
      "Ġà«§à«§à«Ń": 8734,
      "àª£àªŃàªŁ": 8735,
      "ĠÂ½": 8736,
      "Ġcentral": 8737,
      "Ġà«§à«®à««à««": 8738,
      "Ġresolution": 8739,
      "Ġ1884": 8740,
      "Ġju": 8741,
      "Ġàªħàª¢àª³àªķ": 8742,
      "Ġinformation": 8743,
      "ĠâĨĴ": 8744,
      "ĠsyÄģd": 8745,
      "Ġ1866": 8746,
      "Ġcolor": 8747,
      "Ġquality": 8748,
      "ĠÎ²": 8749,
      "Ġàªľàª¸àª¤àª¨": 8750,
      "Ġago": 8751,
      "Ġcompet": 8752,
      "Ġunderstand": 8753,
      "Ġàª¹àª²àª¨àªļàª²àª¨àª¨": 8754,
      "Ġrap": 8755,
      "Ġrare": 8756,
      "Ġregion": 8757,
      "Ġremains": 8758,
      "Ġsimple": 8759,
      "Ġàª°àª¥àª¯": 8760,
      "Ġaccess": 8761,
      "ĠCommission": 8762,
      "Ġpresence": 8763,
      "Ġhighway": 8764,
      "Ġadded": 8765,
      "Ġcoins": 8766,
      "Ġchanging": 8767,
      "Ġmonth": 8768,
      "Ġcapital": 8769,
      "Ġplayed": 8770,
      "Ġpossess": 8771,
      "Ġdiaspora": 8772,
      "Ġconstruct": 8773,
      "Ġissued": 8774,
      "ĠàªŃàªĹàªµàª¤àª¸": 8775,
      "Ġchildren": 8776,
      "Ġscientists": 8777,
      "ĠàªĹàª²àª¨àª¬": 8778,
      "Ġproblems": 8779,
      "itute": 8780,
      "ĠMehta": 8781,
      "ĠĠĠĠĠĠĠĠĠĠĠĠĠĠĠĠĠĠĠĠĠĠĠĠĠĠĠĠĠĠĠĠ": 8782,
      "Ġmultiple": 8783,
      "Ġtopicsàª¢": 8784,
      "Ġearlier": 8785,
      "Ġearliest": 8786,
      "Ġsymbol": 8787,
      "ĠRadcliffe": 8788,
      "Ġtypes": 8789,
      "ĠàªĨàª°àªĵàªıàª®": 8790,
      "Ġbillion": 8791,
      "Ġlyrics": 8792,
      "Delta": 8793,
      "ĠàªĹàªĹàª¨àªļ": 8794,
      "Ġeducation": 8795,
      "ĠGujarat": 8796,
      "itude": 8797,
      "ĠàªĹàª°àª¦àª¨àª¨": 8798,
      "ĠDelhi": 8799,
      "Ġàªĸàª¡àª¤àª²": 8800,
      "Ġtonnes": 8801,
      "\"'": 8802,
      "'t": 8803,
      ";\"|": 8804,
      "ched": 8805,
      "ec": 8806,
      "ka": 8807,
      "less": 8808,
      "nced": 8809,
      "Ïī": 8810,
      "à´": 8811,
      "Ġera": 8812,
[...]
